{
  "version": "1.0",
  "truncation": null,
  "padding": null,
  "added_tokens": [
    {
      "id": 0,
      "content": "[PAD]",
      "single_word": false,
      "lstrip": false,
      "rstrip": false,
      "normalized": false,
      "special": true
    },
    {
      "id": 1,
      "content": "[UNK]",
      "single_word": false,
      "lstrip": false,
      "rstrip": false,
      "normalized": false,
      "special": true
    },
    {
      "id": 2,
      "content": "[CLS]",
      "single_word": false,
      "lstrip": false,
      "rstrip": false,
      "normalized": false,
      "special": true
    },
    {
      "id": 3,
      "content": "[SEP]",
      "single_word": false,
      "lstrip": false,
      "rstrip": false,
      "normalized": false,
      "special": true
    },
    {
      "id": 4,
      "content": "[MASK]",
      "single_word": false,
      "lstrip": false,
      "rstrip": false,
      "normalized": false,
      "special": true
    }
  ],
  "normalizer": {
    "type": "Sequence",
    "normalizers": [
      {
        "type": "NFKC"
      },
      {
        "type": "Lowercase"
      }
    ]
  },
  "pre_tokenizer": {
    "type": "ByteLevel",
    "add_prefix_space": false,
    "trim_offsets": true,
    "use_regex": true
  },
  "post_processor": null,
  "decoder": null,
  "model": {
    "type": "BPE",
    "dropout": null,
    "unk_token": "[UNK]",
    "continuing_subword_prefix": null,
    "end_of_word_suffix": null,
    "fuse_unk": false,
    "byte_fallback": false,
    "ignore_merges": false,
    "vocab": {
      "[PAD]": 0,
      "[UNK]": 1,
      "[CLS]": 2,
      "[SEP]": 3,
      "[MASK]": 4,
      "!": 5,
      "\"": 6,
      "#": 7,
      "$": 8,
      "%": 9,
      "&": 10,
      "'": 11,
      "(": 12,
      ")": 13,
      "*": 14,
      "+": 15,
      ",": 16,
      "-": 17,
      ".": 18,
      "/": 19,
      "0": 20,
      "1": 21,
      "2": 22,
      "3": 23,
      "4": 24,
      "5": 25,
      "6": 26,
      "7": 27,
      "8": 28,
      "9": 29,
      ":": 30,
      ";": 31,
      "<": 32,
      "=": 33,
      ">": 34,
      "?": 35,
      "@": 36,
      "[": 37,
      "\\": 38,
      "]": 39,
      "^": 40,
      "_": 41,
      "`": 42,
      "a": 43,
      "b": 44,
      "c": 45,
      "d": 46,
      "e": 47,
      "f": 48,
      "g": 49,
      "h": 50,
      "i": 51,
      "j": 52,
      "k": 53,
      "l": 54,
      "m": 55,
      "n": 56,
      "o": 57,
      "p": 58,
      "q": 59,
      "r": 60,
      "s": 61,
      "t": 62,
      "u": 63,
      "v": 64,
      "w": 65,
      "x": 66,
      "y": 67,
      "z": 68,
      "|": 69,
      "}": 70,
      "~": 71,
      "¡": 72,
      "¢": 73,
      "£": 74,
      "¤": 75,
      "¥": 76,
      "¦": 77,
      "§": 78,
      "¨": 79,
      "©": 80,
      "ª": 81,
      "«": 82,
      "¬": 83,
      "®": 84,
      "¯": 85,
      "°": 86,
      "±": 87,
      "²": 88,
      "³": 89,
      "´": 90,
      "µ": 91,
      "¶": 92,
      "·": 93,
      "¸": 94,
      "¹": 95,
      "º": 96,
      "»": 97,
      "¼": 98,
      "½": 99,
      "¾": 100,
      "¿": 101,
      "Â": 102,
      "Ã": 103,
      "Ä": 104,
      "Å": 105,
      "Æ": 106,
      "Ç": 107,
      "È": 108,
      "É": 109,
      "Ê": 110,
      "Ë": 111,
      "Ì": 112,
      "Í": 113,
      "Î": 114,
      "Ï": 115,
      "Ð": 116,
      "Ñ": 117,
      "Ö": 118,
      "×": 119,
      "Ø": 120,
      "Ù": 121,
      "Ü": 122,
      "à": 123,
      "á": 124,
      "â": 125,
      "ã": 126,
      "ä": 127,
      "å": 128,
      "æ": 129,
      "ç": 130,
      "è": 131,
      "é": 132,
      "ë": 133,
      "ì": 134,
      "ï": 135,
      "Ċ": 136,
      "č": 137,
      "Ě": 138,
      "Ġ": 139,
      "Ģ": 140,
      "ģ": 141,
      "Ĥ": 142,
      "ĥ": 143,
      "Ħ": 144,
      "ħ": 145,
      "Ĩ": 146,
      "ĩ": 147,
      "Ī": 148,
      "ī": 149,
      "Ĭ": 150,
      "ĭ": 151,
      "Į": 152,
      "į": 153,
      "İ": 154,
      "ı": 155,
      "Ĳ": 156,
      "ĳ": 157,
      "Ĵ": 158,
      "ĵ": 159,
      "Ķ": 160,
      "ķ": 161,
      "ĸ": 162,
      "Ĺ": 163,
      "ĺ": 164,
      "Ļ": 165,
      "ļ": 166,
      "Ľ": 167,
      "ľ": 168,
      "Ŀ": 169,
      "ŀ": 170,
      "Ł": 171,
      "ł": 172,
      "Ń": 173,
      "Ġt": 174,
      "he": 175,
      "Ġa": 176,
      "Ġthe": 177,
      "in": 178,
      "Ġs": 179,
      "Ġo": 180,
      "re": 181,
      "Ġw": 182,
      "nd": 183,
      "er": 184,
      "Ġb": 185,
      "ha": 186,
      "Ġc": 187,
      "on": 188,
      "Ġf": 189,
      "Ġm": 190,
      "it": 191,
      "ed": 192,
      "is": 193,
      "Ġand": 194,
      "or": 195,
      "Ġof": 196,
      "ou": 197,
      "en": 198,
      "es": 199,
      "Ġp": 200,
      "ing": 201,
      "Ġin": 202,
      "Ġd": 203,
      "ar": 204,
      "ll": 205,
      "at": 206,
      "Ġ,": 207,
      "an": 208,
      "Ġto": 209,
      "Ġl": 210,
      "as": 211,
      "Ġh": 212,
      "Ġn": 213,
      "Ġ.": 214,
      "om": 215,
      "Ġhe": 216,
      "Ġg": 217,
      "ic": 218,
      "le": 219,
      "Ġe": 220,
      "Ġbe": 221,
      "al": 222,
      "Ġha": 223,
      "ion": 224,
      "st": 225,
      "Ġth": 226,
      "ot": 227,
      "hat": 228,
      "Ġre": 229,
      "čĊ": 230,
      "Ġu": 231,
      "ent": 232,
      "ve": 233,
      "ow": 234,
      "Ġi": 235,
      "se": 236,
      "ut": 237,
      "id": 238,
      "Ġfor": 239,
      "Ġthat": 240,
      "ld": 241,
      "Ġwas": 242,
      "ac": 243,
      "ro": 244,
      "Ġon": 245,
      "Ġy": 246,
      "im": 247,
      "gh": 248,
      "ay": 249,
      "et": 250,
      "ly": 251,
      "ith": 252,
      "am": 253,
      "ver": 254,
      "ir": 255,
      "Ġst": 256,
      "Ġit": 257,
      "ur": 258,
      "Ġas": 259,
      "Ġ\"": 260,
      "ĠĊ": 261,
      "Ġis": 262,
      "Ġwith": 263,
      "ad": 264,
      "ri": 265,
      "th": 266,
      "Ġhis": 267,
      "Ġwh": 268,
      "Ġ=": 269,
      "and": 270,
      "ce": 271,
      "Ġ1": 272,
      "her": 273,
      "ter": 274,
      "Ġwe": 275,
      "Ġan": 276,
      "Ġse": 277,
      "Ġk": 278,
      "Ġj": 279,
      "od": 280,
      "il": 281,
      "ct": 282,
      "Ġr": 283,
      "Ġnot": 284,
      "ain": 285,
      "Ġyou": 286,
      "Ġ@": 287,
      "Ġat": 288,
      "ch": 289,
      "ght": 290,
      "Ġde": 291,
      "to": 292,
      "ill": 293,
      "all": 294,
      "Ġfr": 295,
      "Ġby": 296,
      "ation": 297,
      "ore": 298,
      "us": 299,
      "Ġ'": 300,
      "Ġun": 301,
      "est": 302,
      "Ġcom": 303,
      "ord": 304,
      "ĠĠ": 305,
      "Ġv": 306,
      "Ġcon": 307,
      "Ġsu": 308,
      "ak": 309,
      "ol": 310,
      "Ġal": 311,
      "pe": 312,
      "ul": 313,
      "Ġfrom": 314,
      "Ġme": 315,
      "red": 316,
      "Ġall": 317,
      "ag": 318,
      "-@": 319,
      "Ġ@-@": 320,
      "Ġsa": 321,
      "the": 322,
      "Ġ2": 323,
      "Ġher": 324,
      "ess": 325,
      "el": 326,
      "Ġhim": 327,
      "ra": 328,
      "Ġthey": 329,
      "Ġsha": 330,
      "Ġbut": 331,
      "Ġhad": 332,
      "ich": 333,
      "ers": 334,
      "Ġne": 335,
      "um": 336,
      "if": 337,
      "ould": 338,
      "qu": 339,
      "em": 340,
      "Ġwhe": 341,
      "os": 342,
      "Ġwere": 343,
      "res": 344,
      "ard": 345,
      "ong": 346,
      "ab": 347,
      "un": 348,
      "ant": 349,
      "Ġ(": 350,
      "ame": 351,
      "Ġwhich": 352,
      "Ġso": 353,
      "Ġhave": 354,
      "Ġshe": 355,
      "ight": 356,
      "Ġsh": 357,
      "ist": 358,
      "Ġare": 359,
      "Ġor": 360,
      "our": 361,
      "Ġup": 362,
      "ive": 363,
      "Ġthis": 364,
      "op": 365,
      "Ġthem": 366,
      "ie": 367,
      "art": 368,
      "Ġman": 369,
      "ate": 370,
      "Ġ)": 371,
      "ast": 372,
      "iv": 373,
      "pt": 374,
      "ies": 375,
      "Ġgo": 376,
      "ig": 377,
      "Ġmy": 378,
      "Ġle": 379,
      "Ġtheir": 380,
      "Ġpro": 381,
      "Ġex": 382,
      "Ġpl": 383,
      "Ġthou": 384,
      "pp": 385,
      "rou": 386,
      "ort": 387,
      "Ġ19": 388,
      "Ġshall": 389,
      "Ġlo": 390,
      "ok": 391,
      "ity": 392,
      "ud": 393,
      "Ġch": 394,
      "ust": 395,
      "ine": 396,
      "Ġthere": 397,
      "'s": 398,
      "00": 399,
      "han": 400,
      "out": 401,
      "Ġsaid": 402,
      "Ġye": 403,
      "ous": 404,
      "Ġab": 405,
      "--": 406,
      "Ġar": 407,
      "Ġone": 408,
      "Ġdo": 409,
      "own": 410,
      "Ġno": 411,
      "Ġam": 412,
      "ge": 413,
      "Ġaf": 414,
      "Ġsp": 415,
      "ome": 416,
      "very": 417,
      "ren": 418,
      "Ġro": 419,
      "Ġwho": 420,
      "Ġfe": 421,
      "Ġco": 422,
      "Ġout": 423,
      "ack": 424,
      "Ġwill": 425,
      "ke": 426,
      "Ġunto": 427,
      "ment": 428,
      "ven": 429,
      "so": 430,
      "ber": 431,
      "Ġwhen": 432,
      "Ġlord": 433,
      "we": 434,
      "Ġbr": 435,
      "one": 436,
      "Ġkn": 437,
      "Ġag": 438,
      "ip": 439,
      "Ġwor": 440,
      "Ġtr": 441,
      "Ġmo": 442,
      "ake": 443,
      "ated": 444,
      "ish": 445,
      "au": 446,
      "ind": 447,
      "fe": 448,
      "ide": 449,
      "ther": 450,
      "ck": 451,
      "sel": 452,
      "Ġen": 453,
      "ure": 454,
      "Ġtw": 455,
      "ian": 456,
      "ass": 457,
      "oun": 458,
      "Ġpr": 459,
      "ace": 460,
      "ally": 461,
      "fore": 462,
      "ound": 463,
      "Ġcha": 464,
      "lo": 465,
      "ia": 466,
      "cc": 467,
      "per": 468,
      "urn": 469,
      "ings": 470,
      "hed": 471,
      "Ġus": 472,
      "of": 473,
      "ue": 474,
      "itt": 475,
      "Ġad": 476,
      "Ġca": 477,
      "ice": 478,
      "Ġtim": 479,
      "Ġafter": 480,
      "Ġfir": 481,
      "Ġcomp": 482,
      "ite": 483,
      "reat": 484,
      "ild": 485,
      "Ġli": 486,
      "Ġbeen": 487,
      "av": 488,
      "Ġsc": 489,
      "Ġte": 490,
      "te": 491,
      "Ġmore": 492,
      "cl": 493,
      "ry": 494,
      "Ġper": 495,
      "ree": 496,
      "ary": 497,
      "ire": 498,
      "ade": 499,
      "Ġinto": 500,
      "Ġgod": 501,
      "Ġfirst": 502,
      "Ġpe": 503,
      "Ġwould": 504,
      "ars": 505,
      "ance": 506,
      "Ġday": 507,
      "Ġother": 508,
      "Ġthen": 509,
      "Ġcl": 510,
      "Ġover": 511,
      "Ġcan": 512,
      "Ġâ": 513,
      "Ġpo": 514,
      "nder": 515,
      "Ġagain": 516,
      "Ġoff": 517,
      "Ġalso": 518,
      "be": 519,
      "age": 520,
      "ions": 521,
      "Ġfo": 522,
      ".\"": 523,
      "Ġwhat": 524,
      "eth": 525,
      "Ġtwo": 526,
      "Ġbo": 527,
      "ĠâĢ": 528,
      "Ġ3": 529,
      "way": 530,
      "Ġdis": 531,
      "Ġcont": 532,
      "ence": 533,
      "Ġim": 534,
      "ile": 535,
      "Ġbec": 536,
      "ub": 537,
      "ather": 538,
      "Ġyour": 539,
      "Ġser": 540,
      "Ġthy": 541,
      "Ġmar": 542,
      "Ġcomm": 543,
      "ved": 544,
      "ne": 545,
      "Ġqu": 546,
      "for": 547,
      "other": 548,
      "Ġif": 549,
      "ount": 550,
      "co": 551,
      "self": 552,
      "Ġpart": 553,
      "ick": 554,
      "able": 555,
      "wn": 556,
      "les": 557,
      "ward": 558,
      "Ġtime": 559,
      "Ġdes": 560,
      "ign": 561,
      "Ġits": 562,
      "Ġsay": 563,
      "ach": 564,
      "Ġspe": 565,
      "ru": 566,
      "Ġear": 567,
      "Ġnow": 568,
      "Ġhas": 569,
      "ied": 570,
      "Ġri": 571,
      "Ġpre": 572,
      "Ġho": 573,
      "Ġthan": 574,
      "ial": 575,
      "Ġhow": 576,
      "Ġsome": 577,
      "Ġany": 578,
      "ap": 579,
      ",\"": 580,
      "are": 581,
      "Ġlike": 582,
      "Ġjo": 583,
      "ater": 584,
      "ress": 585,
      "Ġbefore": 586,
      "ction": 587,
      "ull": 588,
      "Ġbl": 589,
      "ted": 590,
      "Ġupon": 591,
      "ans": 592,
      "Ġmay": 593,
      "ory": 594,
      "Ġres": 595,
      "ious": 596,
      "ons": 597,
      "ouse": 598,
      "Ġgr": 599,
      "Ġnew": 600,
      "ath": 601,
      "ical": 602,
      "ble": 603,
      "ations": 604,
      "Ġthee": 605,
      "Ġcould": 606,
      "Ġ200": 607,
      "ts": 608,
      "ho": 609,
      "Ġking": 610,
      "pl": 611,
      "ĠĠĠĠ": 612,
      "ise": 613,
      "but": 614,
      "igh": 615,
      "Ġonly": 616,
      "Ġind": 617,
      "Ġvery": 618,
      "Ġfl": 619,
      "Ġnor": 620,
      "Ġhand": 621,
      "Ġdid": 622,
      "Ġgreat": 623,
      "man": 624,
      "Ġabout": 625,
      "Ġmade": 626,
      "Ġ;": 627,
      "ness": 628,
      "land": 629,
      "ink": 630,
      "oth": 631,
      "Ġknow": 632,
      "Ġwr": 633,
      "Ġwhere": 634,
      "ose": 635,
      "ep": 636,
      "Ġsee": 637,
      "Ġthese": 638,
      "orn": 639,
      "Ġrem": 640,
      "iz": 641,
      "Ġ20": 642,
      "Ġbet": 643,
      "Ġ4": 644,
      "Ġchar": 645,
      "ĠâĢĵ": 646,
      "iss": 647,
      "ause": 648,
      "Ġdown": 649,
      "Ġunder": 650,
      "Ġap": 651,
      "ople": 652,
      "Ġsuch": 653,
      "Ġcr": 654,
      "Ġ:": 655,
      "Ġplay": 656,
      "Ġrec": 657,
      "Ġacc": 658,
      "Ġsm": 659,
      "rough": 660,
      "Ġcame": 661,
      "act": 662,
      "ition": 663,
      "Ġwork": 664,
      "llow": 665,
      "ces": 666,
      "ife": 667,
      "Ġmost": 668,
      "Ġmr": 669,
      "Ġevery": 670,
      "ang": 671,
      "ult": 672,
      "ah": 673,
      "Ġbeg": 674,
      "Ġ5": 675,
      "Ġcome": 676,
      "uch": 677,
      "ittle": 678,
      "ough": 679,
      "Ġpeople": 680,
      "Ġeven": 681,
      "ood": 682,
      "Ġsou": 683,
      "Ġhar": 684,
      "Ġev": 685,
      "Ġatt": 686,
      "Ġhouse": 687,
      "Ġem": 688,
      "Ġgood": 689,
      "ced": 690,
      "Ġchild": 691,
      "Ġthrough": 692,
      "leas": 693,
      "ft": 694,
      "Ġland": 695,
      "og": 696,
      "Ġ18": 697,
      "Ġmen": 698,
      "Ġcall": 699,
      "Ġlong": 700,
      "ix": 701,
      "Ġwell": 702,
      "ens": 703,
      "uring": 704,
      "Ġlittle": 705,
      "Ġcar": 706,
      "Ġcons": 707,
      "Ġagainst": 708,
      "ily": 709,
      "Ġlet": 710,
      "ark": 711,
      "ff": 712,
      "ect": 713,
      "ors": 714,
      "vel": 715,
      "vers": 716,
      "Ġend": 717,
      "du": 718,
      "ph": 719,
      "Ġel": 720,
      ".@": 721,
      "Ġ@.@": 722,
      "Ġown": 723,
      "Ġlook": 724,
      "med": 725,
      "that": 726,
      "Ġfather": 727,
      "Ġson": 728,
      "ever": 729,
      "Ġrep": 730,
      "Ġwhile": 731,
      "clud": 732,
      "hes": 733,
      "Ġold": 734,
      "led": 735,
      "round": 736,
      "10": 737,
      "Ġthree": 738,
      "Ġla": 739,
      "ail": 740,
      "ful": 741,
      "Ġshould": 742,
      "Ġstr": 743,
      "Ġpass": 744,
      "Ġret": 745,
      "ents": 746,
      "ates": 747,
      "ale": 748,
      "Ġhigh": 749,
      "Ġbeing": 750,
      "me": 751,
      "li": 752,
      "Ġpres": 753,
      "Ġmuch": 754,
      "ves": 755,
      "Ġmany": 756,
      "Ġsong": 757,
      "ict": 758,
      "Ġway": 759,
      "Ġinter": 760,
      "Ġour": 761,
      "Ġset": 762,
      "ason": 763,
      "11": 764,
      "Ġwar": 765,
      "Ġcent": 766,
      "ited": 767,
      "Ġimp": 768,
      "ĠĠĠ": 769,
      "Ġent": 770,
      "ave": 771,
      "Ġke": 772,
      "Ġgen": 773,
      "Ġapp": 774,
      "Ġop": 775,
      "ert": 776,
      "Ġworld": 777,
      "rie": 778,
      "rael": 779,
      "ters": 780,
      "Ġbu": 781,
      "Ġwent": 782,
      "oss": 783,
      "ving": 784,
      "Ġfound": 785,
      "Ġturn": 786,
      "Ġob": 787,
      "Ġduring": 788,
      "Ġfin": 789,
      "Ġeng": 790,
      "Ġmake": 791,
      "alk": 792,
      "ried": 793,
      "Ġinclud": 794,
      "ning": 795,
      "ty": 796,
      "Ġac": 797,
      "Ġbecause": 798,
      "Ġsy": 799,
      "Ġsin": 800,
      "Ġsub": 801,
      ",@": 802,
      "Ġ@,@": 803,
      "Ġbel": 804,
      "Ġreg": 805,
      "Ġbre": 806,
      "Ġmon": 807,
      "ween": 808,
      "Ġ6": 809,
      "ished": 810,
      "ps": 811,
      "Ġhead": 812,
      "de": 813,
      "Ġback": 814,
      "als": 815,
      "Ġword": 816,
      "ci": 817,
      "Ġma": 818,
      "Ġcity": 819,
      "Ġfollow": 820,
      "Ġisrael": 821,
      "Ġact": 822,
      "att": 823,
      "Ġform": 824,
      "Ġbetween": 825,
      "12": 826,
      "'d": 827,
      "Ġchildren": 828,
      "13": 829,
      "ither": 830,
      "its": 831,
      "Ġ7": 832,
      "Ġmight": 833,
      "Ġsl": 834,
      "Ġmust": 835,
      "Ġmin": 836,
      "Ġgu": 837,
      "Ġmus": 838,
      "Ġz": 839,
      "wh": 840,
      "Ġinc": 841,
      "Ġgl": 842,
      "ular": 843,
      "cted": 844,
      "Ġfour": 845,
      "ank": 846,
      "Ġboth": 847,
      "Ġyears": 848,
      "ss": 849,
      "ase": 850,
      "Ġvo": 851,
      "with": 852,
      "'t": 853,
      "Ġsupp": 854,
      "rig": 855,
      "mo": 856,
      "Ġhath": 857,
      "ower": 858,
      "sh": 859,
      "Ġnever": 860,
      "int": 861,
      "ng": 862,
      "get": 863,
      "Ġaway": 864,
      "Ġappe": 865,
      "14": 866,
      "ody": 867,
      "ric": 868,
      "ield": 869,
      "?\"": 870,
      "ady": 871,
      "Ġsw": 872,
      "Ġlife": 873,
      "Ġrel": 874,
      "cond": 875,
      "ins": 876,
      "Ġcount": 877,
      "Ġjust": 878,
      "ubl": 879,
      "lt": 880,
      "ane": 881,
      "Ġyear": 882,
      "Ġgame": 883,
      "not": 884,
      "ities": 885,
      "ib": 886,
      "Ġnum": 887,
      "Ġey": 888,
      "Ġass": 889,
      "ual": 890,
      "ised": 891,
      "Ġname": 892,
      "lf": 893,
      "Ġpri": 894,
      "ived": 895,
      "Ġlar": 896,
      "Ġsur": 897,
      "amp": 898,
      "Ġinst": 899,
      "ared": 900,
      "Ġ9": 901,
      "Ġthose": 902,
      "Ġright": 903,
      "ating": 904,
      "ern": 905,
      "Ġgener": 906,
      "Ġsecond": 907,
      "Ġthink": 908,
      "Ġyet": 909,
      "Ġart": 910,
      "up": 911,
      "Ġ8": 912,
      "Ġed": 913,
      "15": 914,
      "Ġtake": 915,
      "Ġsame": 916,
      "Ġdr": 917,
      "Ġfil": 918,
      "ms": 919,
      "Ġsing": 920,
      "cept": 921,
      "ton": 922,
      "Ġjud": 923,
      "my": 924,
      "ject": 925,
      "ury": 926,
      "Ġlast": 927,
      "ird": 928,
      "ained": 929,
      "by": 930,
      "Ġcalled": 931,
      "ug": 932,
      "Ġopen": 933,
      "Ġrecord": 934,
      "air": 935,
      "Ġplace": 936,
      "Ġthough": 937,
      "oman": 938,
      "Ġele": 939,
      "Ġever": 940,
      "ames": 941,
      "ering": 942,
      "Ġdep": 943,
      "ron": 944,
      "Ġcol": 945,
      "Ġmiss": 946,
      "Ġthought": 947,
      "Ġput": 948,
      "hen": 949,
      "aking": 950,
      "Ġearth": 951,
      "riend": 952,
      "Ġair": 953,
      "Ġreturn": 954,
      "und": 955,
      "Ġste": 956,
      "Ġanother": 957,
      "ision": 958,
      "Ġsom": 959,
      "Ġchan": 960,
      "Ġserv": 961,
      "Ġgive": 962,
      "ote": 963,
      "iew": 964,
      "Ġpar": 965,
      "Ġlater": 966,
      "16": 967,
      "Ġthings": 968,
      "Ġprodu": 969,
      "hing": 970,
      "Ġamong": 971,
      "Ġfam": 972,
      "ible": 973,
      "Ġdist": 974,
      "Ġhowever": 975,
      "ines": 976,
      "Ġhimself": 977,
      "Ġheart": 978,
      "ments": 979,
      "Ġthing": 980,
      "Ġpol": 981,
      "ret": 982,
      "Ġnorth": 983,
      "you": 984,
      "Ġwithout": 985,
      "Ġsaw": 986,
      "hold": 987,
      "Ġpers": 988,
      "Ġmat": 989,
      "Ġadd": 990,
      "eric": 991,
      "tern": 992,
      "Ġship": 993,
      "Ġcommand": 994,
      "less": 995,
      "mb": 996,
      "Ġtook": 997,
      "Ġsim": 998,
      "Ġph": 999,
      "Ġseem": 1000,
      "ral": 1001,
      "cri": 1002,
      "ures": 1003,
      "ged": 1004,
      "row": 1005,
      "ational": 1006,
      "ific": 1007,
      "Ġtri": 1008,
      "Ġcapt": 1009,
      "mber": 1010,
      "ants": 1011,
      "no": 1012,
      "Ġrest": 1013,
      "Ġfriend": 1014,
      "Ġlove": 1015,
      "Ġspec": 1016,
      "Ġ199": 1017,
      "Ġstill": 1018,
      "ma": 1019,
      "Ġbro": 1020,
      "Ġnight": 1021,
      "fect": 1022,
      "Ġsaying": 1023,
      "Ġpubl": 1024,
      "Ġseason": 1025,
      "Ġje": 1026,
      "Ġinv": 1027,
      "Ġfar": 1028,
      "feren": 1029,
      "olog": 1030,
      "ined": 1031,
      "Ġsouth": 1032,
      "Ġknown": 1033,
      "ains": 1034,
      "Ġgiv": 1035,
      "Ġter": 1036,
      "ner": 1037,
      "Ġmid": 1038,
      "Ġcontin": 1039,
      "ross": 1040,
      "Ġbegan": 1041,
      "cy": 1042,
      "ling": 1043,
      "ired": 1044,
      "Ġdec": 1045,
      "Ġyoung": 1046,
      "cha": 1047,
      "Ġdire": 1048,
      "20": 1049,
      "az": 1050,
      "Ġtoo": 1051,
      "Ġused": 1052,
      "Ġnear": 1053,
      "Ġhere": 1054,
      "Ġtrans": 1055,
      "rew": 1056,
      "Ġrece": 1057,
      "!\"": 1058,
      "Ġexp": 1059,
      "any": 1060,
      "rop": 1061,
      "ys": 1062,
      "Ġameric": 1063,
      "Ġnat": 1064,
      "augh": 1065,
      "hn": 1066,
      "rought": 1067,
      "Ġbas": 1068,
      "aven": 1069,
      "ek": 1070,
      "Ġinf": 1071,
      "Ġdays": 1072,
      "Ġdif": 1073,
      "Ġ00": 1074,
      "Ġdeath": 1075,
      "Ġeach": 1076,
      "po": 1077,
      "Ġsent": 1078,
      "Ġstand": 1079,
      "Ġside": 1080,
      "Ġwha": 1081,
      "well": 1082,
      "Ġchr": 1083,
      "Ġdiv": 1084,
      "wards": 1085,
      "Ġce": 1086,
      "Ġreleas": 1087,
      "18": 1088,
      "Ġlight": 1089,
      "Ġconf": 1090,
      "ier": 1091,
      "Ġsea": 1092,
      "til": 1093,
      "Ġalb": 1094,
      "Ġwest": 1095,
      "Ġint": 1096,
      "Ġbelie": 1097,
      "Ġrun": 1098,
      "uth": 1099,
      "Ġpa": 1100,
      "ording": 1101,
      "17": 1102,
      "Ġhel": 1103,
      "Ġ10": 1104,
      "she": 1105,
      "Ġep": 1106,
      "pect": 1107,
      "Ġbatt": 1108,
      "Ġleft": 1109,
      "Ġest": 1110,
      "Ġjohn": 1111,
      "Ġbar": 1112,
      "ics": 1113,
      "ash": 1114,
      "Ġchur": 1115,
      "19": 1116,
      "ued": 1117,
      "Ġtherefore": 1118,
      "Ġwater": 1119,
      "Ġcare": 1120,
      "Ġshow": 1121,
      "bo": 1122,
      "Ġdel": 1123,
      "Ġcour": 1124,
      "ertain": 1125,
      "Ġang": 1126,
      "Ġheard": 1127,
      "Ġsign": 1128,
      "Ġnumber": 1129,
      "ork": 1130,
      "Ġstate": 1131,
      "Ġbest": 1132,
      "Ġwhom": 1133,
      "xt": 1134,
      "Ġref": 1135,
      "Ġfilm": 1136,
      "Ġsmall": 1137,
      "io": 1138,
      "Ġsix": 1139,
      "Ġmrs": 1140,
      "osed": 1141,
      "Ġmother": 1142,
      "Ġalbum": 1143,
      "ting": 1144,
      "Ġpur": 1145,
      "Ġwind": 1146,
      "Ġearly": 1147,
      "though": 1148,
      "Ġhist": 1149,
      "ites": 1150,
      "Ġmet": 1151,
      "Ġadv": 1152,
      "Ġcur": 1153,
      "most": 1154,
      "Ġport": 1155,
      "Ġmount": 1156,
      "Ġshalt": 1157,
      "ched": 1158,
      "gy": 1159,
      "Ġsch": 1160,
      "ten": 1161,
      "Ġstud": 1162,
      "Ġcharac": 1163,
      "form": 1164,
      "Ġinte": 1165,
      "ually": 1166,
      "Ġmil": 1167,
      "Ġalong": 1168,
      "Ġrev": 1169,
      "ured": 1170,
      "Ġsince": 1171,
      "Ġlaw": 1172,
      "nded": 1173,
      "aken": 1174,
      "Ġseries": 1175,
      "ets": 1176,
      "Ġins": 1177,
      "Ġbecame": 1178,
      "Ġtre": 1179,
      "Ġaccording": 1180,
      "Ġhum": 1181,
      "Ġuntil": 1182,
      "Ġra": 1183,
      "Ġhear": 1184,
      "Ġdav": 1185,
      "Ġsil": 1186,
      "ways": 1187,
      "gether": 1188,
      "rest": 1189,
      "Ġhast": 1190,
      "21": 1191,
      "Ġthus": 1192,
      "Ġhome": 1193,
      "Ġloc": 1194,
      "Ġsever": 1195,
      "Ġeyes": 1196,
      "what": 1197,
      "Ġlarge": 1198,
      "Ġ0": 1199,
      "here": 1200,
      "22": 1201,
      "Ġface": 1202,
      "ode": 1203,
      "Ġtell": 1204,
      "Ġhapp": 1205,
      "Ġprop": 1206,
      "Ġlead": 1207,
      "els": 1208,
      "Ġblo": 1209,
      "Ġposs": 1210,
      "Ġchurch": 1211,
      "Ġconc": 1212,
      "bed": 1213,
      "Ġfive": 1214,
      "Ġmusic": 1215,
      "der": 1216,
      "gr": 1217,
      "Ġtem": 1218,
      "Ġbrought": 1219,
      "Ġmain": 1220,
      "Ġpop": 1221,
      "Ġ000": 1222,
      "ently": 1223,
      "iah": 1224,
      "ple": 1225,
      "Ġheaven": 1226,
      "ked": 1227,
      "his": 1228,
      "Ġgre": 1229,
      "Ġseveral": 1230,
      "elt": 1231,
      "Ġfull": 1232,
      "ilt": 1233,
      "hip": 1234,
      "Ġcle": 1235,
      "Ġfire": 1236,
      "Ġhalf": 1237,
      "Ġconst": 1238,
      "Ġround": 1239,
      "ont": 1240,
      "Ġcoll": 1241,
      "Ġwat": 1242,
      "Ġdone": 1243,
      "ned": 1244,
      "Ġtra": 1245,
      "com": 1246,
      "ense": 1247,
      "Ġwhite": 1248,
      "Ġbook": 1249,
      "Ġorig": 1250,
      "ately": 1251,
      "Ġmill": 1252,
      "Ġ16": 1253,
      "Ġsoon": 1254,
      "Ġocc": 1255,
      "Ġfind": 1256,
      "Ġblack": 1257,
      "ute": 1258,
      "ided": 1259,
      "Ġpleas": 1260,
      "Ġdescri": 1261,
      "Ġes": 1262,
      "sha": 1263,
      "mer": 1264,
      "Ġdest": 1265,
      "Ġcomple": 1266,
      "Ġvoice": 1267,
      "ser": 1268,
      "Ġchrist": 1269,
      "Ġprom": 1270,
      "ember": 1271,
      "une": 1272,
      "Ġbehold": 1273,
      "Ġfore": 1274,
      "Ġdavid": 1275,
      "Ġnothing": 1276,
      "Ġ15": 1277,
      "yl": 1278,
      "now": 1279,
      "Ġpower": 1280,
      "Ġprov": 1281,
      "Ġstar": 1282,
      "Ġans": 1283,
      "Ġwant": 1284,
      "Ġ12": 1285,
      "br": 1286,
      "iet": 1287,
      "Ġsat": 1288,
      "Ġvis": 1289,
      "selves": 1290,
      "Ġprev": 1291,
      "velop": 1292,
      "Ġseen": 1293,
      "den": 1294,
      "Ġsec": 1295,
      "Ġcond": 1296,
      "ered": 1297,
      "Ġorigin": 1298,
      "Ġgave": 1299,
      "ized": 1300,
      "eter": 1301,
      "Ġche": 1302,
      "ement": 1303,
      "Ġinde": 1304,
      "iting": 1305,
      "uc": 1306,
      "iness": 1307,
      "Ġspir": 1308,
      "Ġstor": 1309,
      "Ġgold": 1310,
      "ham": 1311,
      "Ġwalk": 1312,
      "Ġsk": 1313,
      "Ġuse": 1314,
      "Ġonce": 1315,
      "Ġstart": 1316,
      "Ġcast": 1317,
      "vern": 1318,
      "anc": 1319,
      "Ġwithin": 1320,
      "let": 1321,
      "ister": 1322,
      "Ġvar": 1323,
      "Ġbrit": 1324,
      "na": 1325,
      "Ġshort": 1326,
      "Ġbring": 1327,
      "ative": 1328,
      "Ġincluding": 1329,
      "Ġsol": 1330,
      "Ġdon": 1331,
      "Ġepis": 1332,
      "Ġdam": 1333,
      "Ġ17": 1334,
      "ley": 1335,
      "there": 1336,
      "Ġdevelop": 1337,
      "Ġpresent": 1338,
      "gg": 1339,
      "ues": 1340,
      "Ġfollowing": 1341,
      "Ġdef": 1342,
      "23": 1343,
      "Ġwood": 1344,
      "ats": 1345,
      "dom": 1346,
      "Ġdra": 1347,
      "mp": 1348,
      "Ġsure": 1349,
      "hab": 1350,
      "amed": 1351,
      "used": 1352,
      "ages": 1353,
      "Ġgiven": 1354,
      "cess": 1355,
      "Ġ/": 1356,
      "Ġoper": 1357,
      "ened": 1358,
      "Ġmer": 1359,
      "Ġunited": 1360,
      "Ġcrit": 1361,
      "Ġstrong": 1362,
      "son": 1363,
      "Ġburn": 1364,
      "Ġsun": 1365,
      "was": 1366,
      "Ġext": 1367,
      "right": 1368,
      "they": 1369,
      "Ġteam": 1370,
      "Ġtown": 1371,
      "Ġwhale": 1372,
      "ime": 1373,
      "Ġtogether": 1374,
      "enn": 1375,
      "Ġhor": 1376,
      "Ġbody": 1377,
      "ĠâĢĶ": 1378,
      "ool": 1379,
      "Ġhands": 1380,
      "ident": 1381,
      "Ġspeak": 1382,
      "Ġfew": 1383,
      "eng": 1384,
      "Ġalthough": 1385,
      "Ġfield": 1386,
      "Ġ198": 1387,
      "pr": 1388,
      "Ġfall": 1389,
      "Ġget": 1390,
      "Ġhur": 1391,
      "Ġmean": 1392,
      "Ġsons": 1393,
      "Ġeu": 1394,
      "Ġfamily": 1395,
      "Ġwin": 1396,
      "Ġcor": 1397,
      "Ġcentury": 1398,
      "day": 1399,
      "Ġstre": 1400,
      "Ġdisc": 1401,
      "Ġmod": 1402,
      "Ġmag": 1403,
      "Ġjer": 1404,
      "Ġpriest": 1405,
      "stand": 1406,
      "Ġbus": 1407,
      "mon": 1408,
      "ccess": 1409,
      "Ġlive": 1410,
      "aces": 1411,
      "ified": 1412,
      "que": 1413,
      "Ġbuild": 1414,
      "Ġgovern": 1415,
      "Ġdirect": 1416,
      "ists": 1417,
      "24": 1418,
      "Ġoffic": 1419,
      "Ġriver": 1420,
      "ural": 1421,
      "Ġforth": 1422,
      "Ġsaith": 1423,
      "Ġcompany": 1424,
      "uck": 1425,
      "aim": 1426,
      "men": 1427,
      "ention": 1428,
      "ying": 1429,
      "30": 1430,
      "ides": 1431,
      "Ġpartic": 1432,
      "Ġfur": 1433,
      "Ġtimes": 1434,
      "Ġperson": 1435,
      "Ġaround": 1436,
      "Ġhaving": 1437,
      "Ġappear": 1438,
      "ives": 1439,
      "Ġfeel": 1440,
      "Ġline": 1441,
      "Ġham": 1442,
      "Ġless": 1443,
      "ung": 1444,
      "Ġroad": 1445,
      "Ġfa": 1446,
      "read": 1447,
      "Ġprin": 1448,
      "Ġmonth": 1449,
      "Ġred": 1450,
      "Ġmed": 1451,
      "Ġwoman": 1452,
      "ief": 1453,
      "Ġwords": 1454,
      "bs": 1455,
      "ething": 1456,
      "Ġstates": 1457,
      "Ġjes": 1458,
      "Ġnext": 1459,
      "Ġpat": 1460,
      "lish": 1461,
      "Ġcre": 1462,
      "Ġmaj": 1463,
      "aw": 1464,
      "ene": 1465,
      "jo": 1466,
      "Ġmos": 1467,
      "Ġdou": 1468,
      "aster": 1469,
      "Ġ194": 1470,
      "Ġsir": 1471,
      "Ġalways": 1472,
      "har": 1473,
      "Ġfeat": 1474,
      "Ġweek": 1475,
      "Ġcharacter": 1476,
      "Ġger": 1477,
      "af": 1478,
      "ows": 1479,
      "which": 1480,
      "25": 1481,
      "Ġty": 1482,
      "Ġflo": 1483,
      "Ġeat": 1484,
      "akes": 1485,
      "Ġreceived": 1486,
      "Ġpos": 1487,
      "aced": 1488,
      "Ġrepl": 1489,
      "Ġ196": 1490,
      "Ġhold": 1491,
      "ped": 1492,
      "Ġprof": 1493,
      "Ġbrother": 1494,
      "Ġamerican": 1495,
      "ery": 1496,
      "orning": 1497,
      "Ġcertain": 1498,
      "Ġeast": 1499,
      "oh": 1500,
      "Ġ197": 1501,
      "ude": 1502,
      "Ġhon": 1503,
      "Ġgra": 1504,
      "Ġgrou": 1505,
      "Ġopp": 1506,
      "Ġcamp": 1507,
      "Ġdesign": 1508,
      "Ġkill": 1509,
      "Ġhour": 1510,
      "Ġsuccess": 1511,
      "Ġwhole": 1512,
      "Ġcal": 1513,
      "ague": 1514,
      "Ġneither": 1515,
      "rom": 1516,
      "Ġtop": 1517,
      "Ġsoul": 1518,
      "Ġann": 1519,
      "ility": 1520,
      "aged": 1521,
      "Ġschool": 1522,
      "Ġwife": 1523,
      "ange": 1524,
      "Ġcried": 1525,
      "gan": 1526,
      "iter": 1527,
      "roy": 1528,
      "empt": 1529,
      "Ġuni": 1530,
      "pped": 1531,
      "itten": 1532,
      "Ġstru": 1533,
      "Ġepisode": 1534,
      "ience": 1535,
      "26": 1536,
      "Ġkind": 1537,
      "ca": 1538,
      "ient": 1539,
      "ism": 1540,
      "Ġquite": 1541,
      "Ġthird": 1542,
      "Ġdev": 1543,
      "Ġbetter": 1544,
      "Ġpublic": 1545,
      "Ġseemed": 1546,
      "Ġmom": 1547,
      "Ġge": 1548,
      "Ġdifferen": 1549,
      "Ġpoor": 1550,
      "Ġaust": 1551,
      "Ġkeep": 1552,
      "ards": 1553,
      "Ġfoot": 1554,
      "Ġmine": 1555,
      "Ġlate": 1556,
      "Ġarea": 1557,
      "omin": 1558,
      "hern": 1559,
      "Ġgeneral": 1560,
      "Ġdaugh": 1561,
      "Ã©": 1562,
      "ove": 1563,
      "Ġcommon": 1564,
      "Ġherself": 1565,
      "ott": 1566,
      "Ġbur": 1567,
      "Ġkne": 1568,
      "Ġincre": 1569,
      "aining": 1570,
      "iving": 1571,
      "ians": 1572,
      "Ġsound": 1573,
      "Ġreal": 1574,
      "Ġlist": 1575,
      "ots": 1576,
      "gypt": 1577,
      "undred": 1578,
      "ond": 1579,
      "ales": 1580,
      "Ġrather": 1581,
      "Ġalmost": 1582,
      "Ġleg": 1583,
      "orted": 1584,
      "Ġdead": 1585,
      "Ġhard": 1586,
      "Ġmorning": 1587,
      "Ġsle": 1588,
      "Ġbritish": 1589,
      "Ġmac": 1590,
      "ium": 1591,
      "Ġdoes": 1592,
      "Ġaug": 1593,
      "Ġ13": 1594,
      "Ġswe": 1595,
      "Ġmind": 1596,
      "par": 1597,
      "Ġtalk": 1598,
      "Ġeas": 1599,
      "thing": 1600,
      "Ġadm": 1601,
      "Ġvill": 1602,
      "Ġlow": 1603,
      "Ġseven": 1604,
      "Ġjesus": 1605,
      "Ġtit": 1606,
      "ison": 1607,
      "ution": 1608,
      "Ġnational": 1609,
      "Ġground": 1610,
      "Ġreleased": 1611,
      "Ġclo": 1612,
      "Ġwa": 1613,
      "Ġwon": 1614,
      "ached": 1615,
      "Ġlooked": 1616,
      ".--": 1617,
      "Ġmark": 1618,
      "Ġmillion": 1619,
      "irc": 1620,
      "Ġsomething": 1621,
      "outh": 1622,
      "aint": 1623,
      "ony": 1624,
      "Ġoften": 1625,
      "Ġdue": 1626,
      "Ġju": 1627,
      "Ġfeet": 1628,
      "Ġmajor": 1629,
      "ler": 1630,
      "Ġ14": 1631,
      "Ġpra": 1632,
      "Ġdark": 1633,
      "Ġant": 1634,
      "ones": 1635,
      "Ġtold": 1636,
      "Ġgoing": 1637,
      "Ġenough": 1638,
      "Ġfinal": 1639,
      "27": 1640,
      "use": 1641,
      "Ġfelt": 1642,
      "how": 1643,
      "Ġappro": 1644,
      "Ġcaptain": 1645,
      "stem": 1646,
      "sand": 1647,
      "Ġwhy": 1648,
      "Ġthine": 1649,
      "Ġaugust": 1650,
      "Ġarm": 1651,
      "iam": 1652,
      "go": 1653,
      "Ġten": 1654,
      "Ġrock": 1655,
      "Ġwhose": 1656,
      "ably": 1657,
      "Ġkm": 1658,
      "Ġplan": 1659,
      "..": 1660,
      "oke": 1661,
      "Ġroom": 1662,
      "con": 1663,
      "Ġstory": 1664,
      "this": 1665,
      "Ġegypt": 1666,
      "oud": 1667,
      "Ġhundred": 1668,
      "ament": 1669,
      "val": 1670,
      "Ġspirit": 1671,
      "Ġattack": 1672,
      "gn": 1673,
      "28": 1674,
      "Ġcut": 1675,
      "Ġread": 1676,
      "Ġthousand": 1677,
      "Ġcap": 1678,
      "ored": 1679,
      "Ġcontro": 1680,
      "Ġtaken": 1681,
      "ster": 1682,
      "Ġwall": 1683,
      "Ġdece": 1684,
      "Ġisland": 1685,
      "Ġpoint": 1686,
      "uary": 1687,
      "ob": 1688,
      "wer": 1689,
      "Ġcoun": 1690,
      "Ġill": 1691,
      "Ġemp": 1692,
      "Ġobser": 1693,
      "Ġsystem": 1694,
      "ken": 1695,
      "Ġneed": 1696,
      "Ġhistory": 1697,
      "vi": 1698,
      "Ġturned": 1699,
      "Ġid": 1700,
      "him": 1701,
      "Ġver": 1702,
      "arch": 1703,
      "Ġclass": 1704,
      "Ġcountry": 1705,
      "Ġwild": 1706,
      "ches": 1707,
      "ances": 1708,
      "Ġtill": 1709,
      "Ġsept": 1710,
      "alem": 1711,
      "Ġsuper": 1712,
      "Ġbow": 1713,
      "Ġequ": 1714,
      "from": 1715,
      "Ġwritten": 1716,
      "ising": 1717,
      "Ġheav": 1718,
      "thy": 1719,
      "usalem": 1720,
      "Ġrequ": 1721,
      "Ġ195": 1722,
      "Ġstood": 1723,
      "Ġcannot": 1724,
      "Ġhost": 1725,
      "Ġfree": 1726,
      "omen": 1727,
      "Ġdestroy": 1728,
      "Ġexpl": 1729,
      "ex": 1730,
      "Ġbrown": 1731,
      "Ġevil": 1732,
      "Ġlady": 1733,
      "Ġreco": 1734,
      "Ġblood": 1735,
      "Ġdecl": 1736,
      "Ġseptember": 1737,
      "ring": 1738,
      "Ġmeet": 1739,
      "ges": 1740,
      "Ġmoment": 1741,
      "inted": 1742,
      "vered": 1743,
      "Ġ%": 1744,
      "Ġdefe": 1745,
      "fic": 1746,
      "ina": 1747,
      "Ġsit": 1748,
      "Ġfort": 1749,
      "Ġtour": 1750,
      "nding": 1751,
      "Ġii": 1752,
      "Ġprot": 1753,
      "ney": 1754,
      "Ġfear": 1755,
      "Ġgames": 1756,
      "Ġstorm": 1757,
      "Ġcat": 1758,
      "Ġgun": 1759,
      "ully": 1760,
      "Ġdri": 1761,
      "Ġaustral": 1762,
      "ye": 1763,
      "chan": 1764,
      "ship": 1765,
      "che": 1766,
      "Ġoct": 1767,
      "Ġthemselves": 1768,
      "rent": 1769,
      "ock": 1770,
      "Ġmarch": 1771,
      "Ġsqu": 1772,
      "Ġallow": 1773,
      "Ġque": 1774,
      "Ġled": 1775,
      "Ġphil": 1776,
      "Ġbuilt": 1777,
      "Ġsingle": 1778,
      "Ġpal": 1779,
      "Ġothers": 1780,
      "Ġwrote": 1781,
      "su": 1782,
      "enty": 1783,
      "Ġestab": 1784,
      "shall": 1785,
      "Ġsus": 1786,
      "Ġview": 1787,
      "ically": 1788,
      "Ġpit": 1789,
      "ressed": 1790,
      "ai": 1791,
      "Ġ25": 1792,
      "hind": 1793,
      "Ġve": 1794,
      "Ġlost": 1795,
      "Ġsold": 1796,
      "Ġhope": 1797,
      "Ġgerman": 1798,
      "Ġattempt": 1799,
      "Ġcontinued": 1800,
      "Ġ11": 1801,
      "ere": 1802,
      "house": 1803,
      "ks": 1804,
      "side": 1805,
      "ceed": 1806,
      "Ġbattle": 1807,
      "when": 1808,
      "Ġleast": 1809,
      "ĠĠĠĠĠĠĠĠ": 1810,
      "ology": 1811,
      "Ġparticular": 1812,
      "Ġer": 1813,
      "Ġbegin": 1814,
      "had": 1815,
      "Ġevent": 1816,
      "port": 1817,
      "Ġgent": 1818,
      "wered": 1819,
      "lu": 1820,
      "where": 1821,
      "Ġmoses": 1822,
      "Ġjan": 1823,
      "Ġjune": 1824,
      "ital": 1825,
      "oney": 1826,
      "Ġengland": 1827,
      "ession": 1828,
      "Ġreturned": 1829,
      "Ġcirc": 1830,
      "Ġx": 1831,
      "Ġcross": 1832,
      "them": 1833,
      "Ġpray": 1834,
      "Ġfurther": 1835,
      "29": 1836,
      "icked": 1837,
      "Ġindeed": 1838,
      "Ġplayed": 1839,
      "like": 1840,
      "Ġdescribed": 1841,
      "Ġgovernment": 1842,
      "Ġmad": 1843,
      "Ġpeace": 1844,
      "do": 1845,
      "Ġbecome": 1846,
      "reg": 1847,
      "Ġmor": 1848,
      "itude": 1849,
      "Ġsum": 1850,
      "Ġsal": 1851,
      "lled": 1852,
      "fort": 1853,
      "Ġnamed": 1854,
      "Ġgroup": 1855,
      "vo": 1856,
      "Ġhill": 1857,
      "Ġtrack": 1858,
      "Ġsight": 1859,
      "Ġlay": 1860,
      "Ġauth": 1861,
      "ider": 1862,
      "ger": 1863,
      "Ġfif": 1864,
      "Ġdoor": 1865,
      "Ġwo": 1866,
      "Ġvide": 1867,
      "Ġhelp": 1868,
      "sa": 1869,
      "Ġdesp": 1870,
      "Ġkingdom": 1871,
      "Ġreview": 1872,
      "Ġvi": 1873,
      "Ġthereof": 1874,
      "Ġspecies": 1875,
      "Ġvict": 1876,
      "Ġknew": 1877,
      "ball": 1878,
      "head": 1879,
      "Ġcontr": 1880,
      "ffect": 1881,
      "Ġdepart": 1882,
      "Ġunivers": 1883,
      "Ġbill": 1884,
      "Ġcommun": 1885,
      "iously": 1886,
      "Ġdifferent": 1887,
      "atter": 1888,
      "Ġreally": 1889,
      "Ġclub": 1890,
      "mr": 1891,
      "Ġfair": 1892,
      "itions": 1893,
      "Ġide": 1894,
      "Ġstat": 1895,
      "Ġabove": 1896,
      "Ġbehind": 1897,
      "ruction": 1898,
      "Ġlab": 1899,
      "king": 1900,
      "Ġtou": 1901,
      "Ġpost": 1902,
      "iod": 1903,
      "hel": 1904,
      "Ġfle": 1905,
      "Ġhen": 1906,
      "ops": 1907,
      "Ġjerusalem": 1908,
      "31": 1909,
      "Ġbelieve": 1910,
      "Ġheld": 1911,
      "ril": 1912,
      "reng": 1913,
      "Ġleague": 1914,
      "who": 1915,
      "Ġfre": 1916,
      "ober": 1917,
      "ream": 1918,
      "Ġmouth": 1919,
      "ices": 1920,
      "Ġmyself": 1921,
      "Ġ[": 1922,
      "Ġstri": 1923,
      "Ġperform": 1924,
      "Ġoctober": 1925,
      "Ġorder": 1926,
      "Ġsongs": 1927,
      "pend": 1928,
      "Ġ...": 1929,
      "Ġsupport": 1930,
      "Ġwomen": 1931,
      "ulation": 1932,
      "Ġsword": 1933,
      "Ġjudah": 1934,
      "rench": 1935,
      "Ġmoved": 1936,
      "Ġbear": 1937,
      "rope": 1938,
      "ilar": 1939,
      "Ġasked": 1940,
      "Ġorgan": 1941,
      "Ġperiod": 1942,
      "Ġhuman": 1943,
      "Ġ$": 1944,
      "Ġpark": 1945,
      "Ġtech": 1946,
      "Ġeffect": 1947,
      "Ġgrand": 1948,
      "Ġintern": 1949,
      "Ġmove": 1950,
      "ropical": 1951,
      "Ġ30": 1952,
      "!--": 1953,
      "ior": 1954,
      "Ġanswered": 1955,
      "Ġyork": 1956,
      "iment": 1957,
      "Ġable": 1958,
      "Ġboy": 1959,
      "Ġholy": 1960,
      "anger": 1961,
      "Ġaddition": 1962,
      "Ġimport": 1963,
      "ought": 1964,
      "Ġformer": 1965,
      "Ġdet": 1966,
      "Ġaff": 1967,
      "Ġvers": 1968,
      "Ġfig": 1969,
      "cil": 1970,
      "ax": 1971,
      "aut": 1972,
      "haps": 1973,
      "Ġtowards": 1974,
      "ribut": 1975,
      "then": 1976,
      "sp": 1977,
      "Ġjuly": 1978,
      "Ġgone": 1979,
      "ression": 1980,
      "Ġunderstand": 1981,
      "ogra": 1982,
      "will": 1983,
      "Ġdraw": 1984,
      "dle": 1985,
      "Ġenglish": 1986,
      "Ġ]": 1987,
      "Ġmaking": 1988,
      "Ġinterest": 1989,
      "Ġpast": 1990,
      "irl": 1991,
      "Ġrout": 1992,
      "cher": 1993,
      "Ġband": 1994,
      "itary": 1995,
      "Ġcause": 1996,
      "Ġoriginal": 1997,
      "Ġreason": 1998,
      "Ġoffering": 1999,
      "Ġclose": 2000,
      "cial": 2001,
      "Ġval": 2002,
      "body": 2003,
      "cle": 2004,
      "ze": 2005,
      "Ġvideo": 2006,
      "Ġsister": 2007,
      "32": 2008,
      "ey": 2009,
      "Ġeight": 2010,
      "Ġapril": 2011,
      "Ġincluded": 2012,
      "lly": 2013,
      "idered": 2014,
      "Ġfav": 2015,
      "ety": 2016,
      "Ġexper": 2017,
      "Ġrose": 2018,
      "Ġbased": 2019,
      "ager": 2020,
      "come": 2021,
      "ially": 2022,
      "work": 2023,
      "Ġir": 2024,
      "Ġrus": 2025,
      "bert": 2026,
      "medi": 2027,
      "ston": 2028,
      "Ġstreng": 2029,
      "Ġgot": 2030,
      "enth": 2031,
      "Ġdoub": 2032,
      "Ġfight": 2033,
      "Ġpassed": 2034,
      "Ġdaughter": 2035,
      "Ġincreas": 2036,
      "Ġjanuary": 2037,
      "Ġchamp": 2038,
      "lord": 2039,
      "ching": 2040,
      "Ġdear": 2041,
      "ead": 2042,
      "Ġwhether": 2043,
      "have": 2044,
      "ries": 2045,
      "Ġworks": 2046,
      "Ġdivision": 2047,
      "under": 2048,
      "Ġsort": 2049,
      "itted": 2050,
      "Ġeurope": 2051,
      "Ġarmy": 2052,
      "ively": 2053,
      "Ġelse": 2054,
      "Ġeye": 2055,
      "utes": 2056,
      "Ġstop": 2057,
      "fered": 2058,
      "Ġjack": 2059,
      "inor": 2060,
      "Ġdeal": 2061,
      "Ġfriends": 2062,
      "Ġiss": 2063,
      "formed": 2064,
      "Ġmult": 2065,
      "Ġarri": 2066,
      "33": 2067,
      "Ġcam": 2068,
      "Ġgrow": 2069,
      "Ġsimilar": 2070,
      "Ġterr": 2071,
      "Ġbab": 2072,
      "Ġnove": 2073,
      "band": 2074,
      "Ġmic": 2075,
      "tar": 2076,
      "yal": 2077,
      "Ġconsidered": 2078,
      "Ġnone": 2079,
      "Ġtrad": 2080,
      "Ġben": 2081,
      "imes": 2082,
      "Ġoffer": 2083,
      "Ġage": 2084,
      "yle": 2085,
      "lling": 2086,
      "Ġthr": 2087,
      "wood": 2088,
      "por": 2089,
      "Ġdied": 2090,
      "Ġfell": 2091,
      "'ll": 2092,
      "ump": 2093,
      "aves": 2094,
      "Ġbreak": 2095,
      "Ġbes": 2096,
      "Ġnovember": 2097,
      "Ġfail": 2098,
      "Ġhus": 2099,
      "ize": 2100,
      "Ġauthor": 2101,
      "Ġfact": 2102,
      "Ġemma": 2103,
      "Ġtot": 2104,
      "Ġthroughout": 2105,
      "Ġservice": 2106,
      "Ġsan": 2107,
      "Ġvir": 2108,
      "Ġleave": 2109,
      "mar": 2110,
      "Ġfrench": 2111,
      "Ġtrue": 2112,
      "Ġenem": 2113,
      "Ġsett": 2114,
      "Ġcas": 2115,
      "Ġhy": 2116,
      "Ġperfect": 2117,
      "Ġclaim": 2118,
      "Ġpolit": 2119,
      "sc": 2120,
      "ination": 2121,
      "Ġsugg": 2122,
      "uit": 2123,
      "Ġsuggest": 2124,
      "fully": 2125,
      "Ġfed": 2126,
      "Ġhero": 2127,
      "Ġgard": 2128,
      "sequ": 2129,
      "Ġforce": 2130,
      "bit": 2131,
      "Ġdi": 2132,
      "Ġcourt": 2133,
      "Ġtropical": 2134,
      "iled": 2135,
      "Ġsuff": 2136,
      "Ġcy": 2137,
      "aught": 2138,
      "Ġeither": 2139,
      "Ġabs": 2140,
      "Ġsecret": 2141,
      "dden": 2142,
      "Ġstay": 2143,
      "Ġdecember": 2144,
      "Ġbrig": 2145,
      "Ġmot": 2146,
      "Ġcolon": 2147,
      "Ġcreat": 2148,
      "Ġproject": 2149,
      "rodu": 2150,
      "Ġcoast": 2151,
      "Ġtele": 2152,
      "mbers": 2153,
      "bes": 2154,
      "fer": 2155,
      "Ġgreen": 2156,
      "Ġjew": 2157,
      "eous": 2158,
      "Ġhig": 2159,
      "Ġacross": 2160,
      "Ġbroad": 2161,
      "Ġwit": 2162,
      "Ġfaith": 2163,
      "line": 2164,
      "Ġcase": 2165,
      "Ġrad": 2166,
      "iction": 2167,
      "Ġbusiness": 2168,
      "Ġball": 2169,
      "their": 2170,
      "Ġbless": 2171,
      "Ġlocal": 2172,
      "riet": 2173,
      "Ġbird": 2174,
      "Ġlim": 2175,
      "ift": 2176,
      "Ġhurric": 2177,
      "Ġbed": 2178,
      "Ġinit": 2179,
      "Ġden": 2180,
      "ianne": 2181,
      "Ġfill": 2182,
      "Ġmeas": 2183,
      "Ġsho": 2184,
      "Ġspake": 2185,
      "Ġplayer": 2186,
      "Ġentire": 2187,
      "arn": 2188,
      "Ġnet": 2189,
      "Ġparty": 2190,
      "Ġstreet": 2191,
      "ius": 2192,
      "Ġmur": 2193,
      "idence": 2194,
      "ission": 2195,
      "field": 2196,
      "ented": 2197,
      "ien": 2198,
      "Ġ100": 2199,
      "Ġhistor": 2200,
      "zz": 2201,
      "Ġmoney": 2202,
      "soci": 2203,
      "Ġdeep": 2204,
      "Ġgirl": 2205,
      "Ġappeared": 2206,
      "umb": 2207,
      "Ġlevel": 2208,
      "Ġhappy": 2209,
      "Ġgentle": 2210,
      "Ġru": 2211,
      "Ġopened": 2212,
      "Ġcolle": 2213,
      "Ġdisco": 2214,
      "raft": 2215,
      "Ġinstead": 2216,
      "ray": 2217,
      "Ġcong": 2218,
      "Ġborn": 2219,
      "Ġliving": 2220,
      "ption": 2221,
      "--\"": 2222,
      "ging": 2223,
      "Ġcou": 2224,
      "Ġtruth": 2225,
      "Ġfollowed": 2226,
      "Ġsam": 2227,
      "Ġpain": 2228,
      "Ġdisp": 2229,
      "rove": 2230,
      "thren": 2231,
      "Ġ2009": 2232,
      "ixed": 2233,
      "aur": 2234,
      "Ġquest": 2235,
      "Ġrespect": 2236,
      "Ġ2010": 2237,
      "ades": 2238,
      "Ġships": 2239,
      "cent": 2240,
      "Ġtest": 2241,
      "Ġsor": 2242,
      "Ġstars": 2243,
      "Ġchief": 2244,
      "Ġ2008": 2245,
      "Ġlooking": 2246,
      "ndon": 2247,
      "Ġrepres": 2248,
      "ointed": 2249,
      "Ġmis": 2250,
      "Ġut": 2251,
      "Ġassoci": 2252,
      "Ġcities": 2253,
      "Ġresult": 2254,
      "Ġbal": 2255,
      "Ġconv": 2256,
      "Ġsudden": 2257,
      "Ġjoy": 2258,
      "ico": 2259,
      "Ġ24": 2260,
      "cut": 2261,
      "Ġtor": 2262,
      "set": 2263,
      "idge": 2264,
      "Ġmass": 2265,
      "Ġcoming": 2266,
      "Ġrelease": 2267,
      "Ġalone": 2268,
      "Ġrole": 2269,
      "Ġadded": 2270,
      "Ġitself": 2271,
      "Ġcareer": 2272,
      "Ġmilitary": 2273,
      "Ġcomplete": 2274,
      "34": 2275,
      "cr": 2276,
      "Ġcorn": 2277,
      "Ġbeaut": 2278,
      "Ġfront": 2279,
      "Ġdrink": 2280,
      "Ġinflu": 2281,
      "Ġbey": 2282,
      "Ġstra": 2283,
      "bar": 2284,
      "Ġdwell": 2285,
      "Ġimmedi": 2286,
      "Ġwaters": 2287,
      "ming": 2288,
      "Ġquick": 2289,
      "ograph": 2290,
      "Ġda": 2291,
      "estern": 2292,
      "Ġcomb": 2293,
      "tered": 2294,
      "over": 2295,
      "Ġbra": 2296,
      "Ġran": 2297,
      "Ġtrou": 2298,
      "Ġpress": 2299,
      "Ġ26": 2300,
      "Ġtro": 2301,
      "Ġwish": 2302,
      "Ġciv": 2303,
      "Ġfem": 2304,
      "ception": 2305,
      "Ġuniversity": 2306,
      "nds": 2307,
      "Ġgar": 2308,
      "bb": 2309,
      "ready": 2310,
      "Ġrecorded": 2311,
      "min": 2312,
      "Ġlou": 2313,
      "Ġord": 2314,
      "Ġnature": 2315,
      "Ġ&": 2316,
      "Ġcro": 2317,
      "Ġaccount": 2318,
      "Ġhair": 2319,
      "bull": 2320,
      "Ġsac": 2321,
      "ator": 2322,
      "igned": 2323,
      "wor": 2324,
      "Ġpen": 2325,
      "Ġ21": 2326,
      "Ġlondon": 2327,
      "Ġmiddle": 2328,
      "Ġtwenty": 2329,
      "Ġperhaps": 2330,
      "Ġwriting": 2331,
      "ensive": 2332,
      "ik": 2333,
      "alth": 2334,
      "acy": 2335,
      "Ġquar": 2336,
      "Ġhurricane": 2337,
      "36": 2338,
      "atic": 2339,
      "str": 2340,
      "Ġjour": 2341,
      "Ġleng": 2342,
      "Ġroman": 2343,
      "Ġnav": 2344,
      "Ġarg": 2345,
      "Ġoccur": 2346,
      "Ġhorse": 2347,
      "Ġmodern": 2348,
      "Ġmaster": 2349,
      "Ġbattal": 2350,
      "Ġbig": 2351,
      "Ġmatter": 2352,
      "Ġproduction": 2353,
      "Ġaw": 2354,
      "unt": 2355,
      "Ġenc": 2356,
      "Ġregard": 2357,
      "Ġpublished": 2358,
      "Ġnations": 2359,
      "lesh": 2360,
      "Ġtur": 2361,
      "Ġfast": 2362,
      "riage": 2363,
      "Ġdie": 2364,
      "Ġacqu": 2365,
      "yed": 2366,
      "Ġevening": 2367,
      "ell": 2368,
      "Ġbad": 2369,
      "Ġcho": 2370,
      "Ġgods": 2371,
      "Ġcourse": 2372,
      "Ġheavy": 2373,
      "sed": 2374,
      "Ġblue": 2375,
      "Ġ2007": 2376,
      "ledge": 2377,
      "Ġpresident": 2378,
      "Ġvisit": 2379,
      "ingly": 2380,
      "Ġproduced": 2381,
      "iers": 2382,
      "Ġfly": 2383,
      "Ġrese": 2384,
      "Ġ23": 2385,
      "Ġroyal": 2386,
      "Ġfathers": 2387,
      "Ġpie": 2388,
      "Ġ28": 2389,
      "Ġresp": 2390,
      "Ġbrethren": 2391,
      "ficult": 2392,
      "Ġmary": 2393,
      "cer": 2394,
      "Ġhat": 2395,
      "Ġforces": 2396,
      "osp": 2397,
      "Ġpossible": 2398,
      "37": 2399,
      "bour": 2400,
      "lished": 2401,
      "Ġsweet": 2402,
      "vation": 2403,
      "Ġcru": 2404,
      "antly": 2405,
      "Ġaward": 2406,
      "Ġwide": 2407,
      "raid": 2408,
      "Ġobject": 2409,
      "Ġpopular": 2410,
      "gl": 2411,
      "gen": 2412,
      "Ġnort": 2413,
      "Ġmembers": 2414,
      "Ġ22": 2415,
      "Ġsilver": 2416,
      "Ġposition": 2417,
      "Ġtoward": 2418,
      "asion": 2419,
      "uel": 2420,
      "ama": 2421,
      "Ġbread": 2422,
      "Ġservant": 2423,
      "Ġdifficult": 2424,
      "Ġwanted": 2425,
      "Ġcult": 2426,
      "Ġly": 2427,
      "Ġmanner": 2428,
      "aring": 2429,
      "Ġmatch": 2430,
      "ĠÂ": 2431,
      "Ġtree": 2432,
      "Ġhot": 2433,
      "Ġreached": 2434,
      "Ġaccept": 2435,
      "35": 2436,
      "Ġroute": 2437,
      "Ġcompet": 2438,
      "Ġhusband": 2439,
      "Ġgi": 2440,
      "Ġrul": 2441,
      "Ġinvol": 2442,
      "Ġbelieved": 2443,
      "Ġcounty": 2444,
      "orts": 2445,
      "Ġangel": 2446,
      "more": 2447,
      "aked": 2448,
      "app": 2449,
      "Ġahab": 2450,
      "Ġsout": 2451,
      "itar": 2452,
      "etimes": 2453,
      "Ġcompan": 2454,
      "Ġsoci": 2455,
      "Ġshew": 2456,
      "oms": 2457,
      "ality": 2458,
      "Ġstone": 2459,
      "Ġsail": 2460,
      ",'": 2461,
      "iqu": 2462,
      "Ġba": 2463,
      "were": 2464,
      "itting": 2465,
      "play": 2466,
      "Ġsubject": 2467,
      "ference": 2468,
      "lic": 2469,
      "lls": 2470,
      "Ġconne": 2471,
      "Ġaccom": 2472,
      "vision": 2473,
      "unto": 2474,
      "cks": 2475,
      "Ġmiles": 2476,
      "Ġtotal": 2477,
      "mor": 2478,
      "Ġsepar": 2479,
      "Ġconsider": 2480,
      "Ġkept": 2481,
      "Ġprophe": 2482,
      "Ġtitle": 2483,
      "Ġwicked": 2484,
      "ams": 2485,
      "Ġelect": 2486,
      "bru": 2487,
      "tr": 2488,
      "Ġcry": 2489,
      "antic": 2490,
      "Ġdeli": 2491,
      "Ġproper": 2492,
      "Ġcontrol": 2493,
      "Ġinternational": 2494,
      "ints": 2495,
      "Ġintrodu": 2496,
      "Ġfun": 2497,
      "Ġthir": 2498,
      "acle": 2499,
      "Ġdan": 2500,
      "ask": 2501,
      "Ġfruit": 2502,
      "isted": 2503,
      "Ġservants": 2504,
      "Ġlength": 2505,
      "isf": 2506,
      "Ġlam": 2507,
      "Ġjudg": 2508,
      "Ġchampions": 2509,
      "Ġflesh": 2510,
      "Ġmonths": 2511,
      "Ġanim": 2512,
      "Ġdem": 2513,
      "Ġ27": 2514,
      "ument": 2515,
      "oured": 2516,
      "Ġcover": 2517,
      "Ġwestern": 2518,
      "Ġfac": 2519,
      "Ġforward": 2520,
      "Ġalready": 2521,
      "Ġremained": 2522,
      "cially": 2523,
      "Ġforest": 2524,
      "Ġgeor": 2525,
      "Ġestablished": 2526,
      "Ġpay": 2527,
      "Ġdevelopment": 2528,
      "Ġsouthern": 2529,
      "Ġcentral": 2530,
      "Ġamerica": 2531,
      "Ġannoun": 2532,
      "Ġdespite": 2533,
      "light": 2534,
      "Ġbull": 2535,
      "Ġlang": 2536,
      "Ġexc": 2537,
      "Ġtyp": 2538,
      "Ġviol": 2539,
      "Ġfrank": 2540,
      "omb": 2541,
      "Ġanne": 2542,
      "Ġjap": 2543,
      "Ġalice": 2544,
      "tend": 2545,
      "Ġ2011": 2546,
      "Ġchange": 2547,
      "Ġbeginning": 2548,
      "Ġoh": 2549,
      "Ġversion": 2550,
      "ught": 2551,
      "Ġwal": 2552,
      "Ġbir": 2553,
      "Ġcanad": 2554,
      "Ġtrees": 2555,
      "off": 2556,
      "Ġ2006": 2557,
      "Ġcommanded": 2558,
      "Ġmist": 2559,
      "Ġiron": 2560,
      "Ġpaul": 2561,
      "gin": 2562,
      "ners": 2563,
      "Ġmarianne": 2564,
      "Ġactiv": 2565,
      "ground": 2566,
      "Ġfine": 2567,
      "iding": 2568,
      "Ġkings": 2569,
      "pected": 2570,
      "Ġcivil": 2571,
      "bruary": 2572,
      "Ġfebruary": 2573,
      "Ġimportant": 2574,
      "pre": 2575,
      "Ġarch": 2576,
      "gar": 2577,
      "aled": 2578,
      "Ġnorthern": 2579,
      "Ġglory": 2580,
      "Ġstrength": 2581,
      "fall": 2582,
      "Ġstyle": 2583,
      "Ġvol": 2584,
      "Ġwis": 2585,
      "Ġreported": 2586,
      "after": 2587,
      "yes": 2588,
      "your": 2589,
      "lli": 2590,
      "Ġformed": 2591,
      "Ġrain": 2592,
      "Ġprogr": 2593,
      "Ġpoem": 2594,
      "Ġdoubt": 2595,
      "Ġod": 2596,
      "Ġhop": 2597,
      "Ġhous": 2598,
      "Ġstarted": 2599,
      "Ġsleep": 2600,
      "ford": 2601,
      "Ġprote": 2602,
      "Ġcritic": 2603,
      "Ġbuilding": 2604,
      "ining": 2605,
      "Ġsignific": 2606,
      "Ġvarious": 2607,
      "Ġcup": 2608,
      "Ġcloud": 2609,
      "Ġregion": 2610,
      "Ġidea": 2611,
      "Ġgarden": 2612,
      "cing": 2613,
      "down": 2614,
      "Ġdu": 2615,
      "Ġnovel": 2616,
      "ordan": 2617,
      "Ġsometimes": 2618,
      "Ġbroken": 2619,
      "Ġfish": 2620,
      "Ġze": 2621,
      "Ġclear": 2622,
      "Ġav": 2623,
      "Ġdeter": 2624,
      "ature": 2625,
      "anes": 2626,
      "aching": 2627,
      "Ġreplied": 2628,
      "Ġwonder": 2629,
      "Ġwilliam": 2630,
      "Ġelinor": 2631,
      "Ġrighteous": 2632,
      "ify": 2633,
      "Ġprim": 2634,
      "Ġstep": 2635,
      "ume": 2636,
      "Ġnar": 2637,
      "Ġrank": 2638,
      "can": 2639,
      "Ġkilled": 2640,
      "bu": 2641,
      "thou": 2642,
      "Ġjames": 2643,
      "ylan": 2644,
      "Ġhours": 2645,
      "Ġeastern": 2646,
      "Ġsite": 2647,
      "Ġforg": 2648,
      "Ġafric": 2649,
      "Ġ!": 2650,
      "Ġpha": 2651,
      "Ġdylan": 2652,
      "Ġcold": 2653,
      "Ġber": 2654,
      "Ġcaused": 2655,
      "pter": 2656,
      "xim": 2657,
      "Ġric": 2658,
      "Ġprob": 2659,
      "wise": 2660,
      "Ġtaking": 2661,
      "Ġearli": 2662,
      "olution": 2663,
      "Ġknight": 2664,
      "itive": 2665,
      "Ġire": 2666,
      "pel": 2667,
      "Ġrelig": 2668,
      "Ġ2012": 2669,
      "Ġtelevision": 2670,
      "nes": 2671,
      "Ġtab": 2672,
      "Ġaltar": 2673,
      "rupt": 2674,
      "Ġanswer": 2675,
      "Ġcop": 2676,
      "ille": 2677,
      "Ġban": 2678,
      "cture": 2679,
      "Ġlonger": 2680,
      "Ġneigh": 2681,
      "Ġenter": 2682,
      "Ġafraid": 2683,
      "Ġlaid": 2684,
      "Ġinclude": 2685,
      "Ġglad": 2686,
      "athe": 2687,
      "hu": 2688,
      "Ġdream": 2689,
      "Ġjordan": 2690,
      "usion": 2691,
      "Ġboat": 2692,
      "Ġhighway": 2693,
      "Ġcreated": 2694,
      "Ġloss": 2695,
      "Ġrich": 2696,
      "Ġshar": 2697,
      "Ġexamp": 2698,
      "'m": 2699,
      "osing": 2700,
      "action": 2701,
      "aff": 2702,
      "Ġreve": 2703,
      "Ġfourth": 2704,
      "bl": 2705,
      "Ġhall": 2706,
      "Ġusing": 2707,
      "Ġstrange": 2708,
      "Ġslow": 2709,
      "Ġtable": 2710,
      "ids": 2711,
      "aving": 2712,
      "ubb": 2713,
      "Ġcarried": 2714,
      "40": 2715,
      "craft": 2716,
      "Ġ_": 2717,
      "Ġfat": 2718,
      "ening": 2719,
      "Ġlad": 2720,
      "Ġask": 2721,
      "Ġjac": 2722,
      "iful": 2723,
      "oken": 2724,
      "Ġbattalion": 2725,
      "bor": 2726,
      "pass": 2727,
      "Ġbase": 2728,
      "Ġimmediately": 2729,
      "39": 2730,
      "Ġtechn": 2731,
      "Ġireland": 2732,
      "Ġox": 2733,
      "Ġcrew": 2734,
      "Ġmi": 2735,
      "Ġlif": 2736,
      "Ġindust": 2737,
      "ological": 2738,
      "ctor": 2739,
      "Ġpriv": 2740,
      "je": 2741,
      "Ġmess": 2742,
      "Ġlaugh": 2743,
      "ush": 2744,
      "Ġtrust": 2745,
      "Ġimag": 2746,
      "Ġprep": 2747,
      "Ġflow": 2748,
      "Ġsitu": 2749,
      "38": 2750,
      "Ġbound": 2751,
      "Ġremain": 2752,
      "Ġprevious": 2753,
      "Ġfellow": 2754,
      "Ġlangu": 2755,
      "Ġaud": 2756,
      "Ġ50": 2757,
      "said": 2758,
      "oc": 2759,
      "Ã¡": 2760,
      "Ġstated": 2761,
      "Ġbecom": 2762,
      "Ġsummer": 2763,
      "Ġgal": 2764,
      "Ġplayers": 2765,
      "Ġfan": 2766,
      "Ġmater": 2767,
      "Ġbeast": 2768,
      "Ġ2013": 2769,
      "Ġletter": 2770,
      "cast": 2771,
      "nor": 2772,
      "Ġself": 2773,
      "alley": 2774,
      "Ġevents": 2775,
      "Ġnatural": 2776,
      "Ġperformed": 2777,
      "Ġremo": 2778,
      "ipp": 2779,
      "Äģ": 2780,
      "Ġsev": 2781,
      "Ġplaces": 2782,
      "Ġagre": 2783,
      "Ġpleasure": 2784,
      "cip": 2785,
      "pro": 2786,
      "Ġperformance": 2787,
      "Ġbay": 2788,
      "Ġatl": 2789,
      "Ġ29": 2790,
      "Ġdelight": 2791,
      "cul": 2792,
      "Ġsn": 2793,
      "Ġrap": 2794,
      "Ġtemple": 2795,
      "Ġappearance": 2796,
      "Ġhonour": 2797,
      "Ġemplo": 2798,
      "Ġft": 2799,
      "Ġdro": 2800,
      "Ġur": 2801,
      "ips": 2802,
      "Ġspecial": 2803,
      "Ġweston": 2804,
      "Ġpopulation": 2805,
      "Ġnoted": 2806,
      "ivid": 2807,
      "ously": 2808,
      "reek": 2809,
      "Ġrelations": 2810,
      "old": 2811,
      "ises": 2812,
      "Ġcomfort": 2813,
      "Ġanything": 2814,
      "Ġjane": 2815,
      "look": 2816,
      "Ġguitar": 2817,
      "Ġsense": 2818,
      "Ġol": 2819,
      "Ġlower": 2820,
      "Ġaffe": 2821,
      "Ġengine": 2822,
      "Ġready": 2823,
      "Ġsend": 2824,
      "ctions": 2825,
      "Ġconstruction": 2826,
      "Ġofficial": 2827,
      "Ġfut": 2828,
      "Ġmort": 2829,
      "Ġknowledge": 2830,
      "Ġfinished": 2831,
      "Ġdecided": 2832,
      "Ġpurp": 2833,
      "yn": 2834,
      "Ġrac": 2835,
      "Ġ190": 2836,
      "Ġmidst": 2837,
      "Ġflood": 2838,
      "rem": 2839,
      "Ġeff": 2840,
      "Ġven": 2841,
      "Ġquestion": 2842,
      "again": 2843,
      "Ġminutes": 2844,
      "ino": 2845,
      "Ġlived": 2846,
      "Ġscient": 2847,
      "tended": 2848,
      "Ġseek": 2849,
      "Ġbrigade": 2850,
      "gest": 2851,
      "Ġgate": 2852,
      "otion": 2853,
      "Ġrace": 2854,
      "Ġmountain": 2855,
      "Ġdeveloped": 2856,
      "osition": 2857,
      "Ġprocess": 2858,
      "Ġspace": 2859,
      "Ġremember": 2860,
      "Ġpriests": 2861,
      "ech": 2862,
      "Ġbi": 2863,
      "Ġserved": 2864,
      "Ġchampionship": 2865,
      "hy": 2866,
      "ls": 2867,
      "ny": 2868,
      "Ġvan": 2869,
      "Ġobl": 2870,
      "Ġcondu": 2871,
      "anch": 2872,
      "Ġsave": 2873,
      "Ġfootball": 2874,
      "ds": 2875,
      "rang": 2876,
      "Ġasse": 2877,
      "50": 2878,
      "Ġbord": 2879,
      "isa": 2880,
      "Ġlie": 2881,
      "aded": 2882,
      "Ġmeans": 2883,
      "Ġimm": 2884,
      "Ġsatisf": 2885,
      "hest": 2886,
      "Ġbeyond": 2887,
      "Ġoil": 2888,
      "Ġcra": 2889,
      "Ġpot": 2890,
      "Ġdut": 2891,
      "Ġsafe": 2892,
      "Ġentered": 2893,
      "Ġindepend": 2894,
      "Ġpract": 2895,
      "Ġmach": 2896,
      "Ġhom": 2897,
      "Ġrange": 2898,
      "Ġexcept": 2899,
      "why": 2900,
      "Ġpraise": 2901,
      "eness": 2902,
      "ences": 2903,
      "Ġpred": 2904,
      "Ġrepe": 2905,
      "Ġves": 2906,
      "Ġharriet": 2907,
      "Ġsurv": 2908,
      "tw": 2909,
      "Ġgreater": 2910,
      "Ġmal": 2911,
      "Ġcrow": 2912,
      "Ġgenerally": 2913,
      "Ġcircum": 2914,
      "god": 2915,
      "just": 2916,
      "Ġtar": 2917,
      "Ġmart": 2918,
      "itation": 2919,
      "Ġpeter": 2920,
      "ils": 2921,
      "ivered": 2922,
      "Ġturnbull": 2923,
      "Ġcharacters": 2924,
      "Ġoriginally": 2925,
      "Ġaustralia": 2926,
      "Ġsociety": 2927,
      "Ġparts": 2928,
      "itor": 2929,
      "Ġpu": 2930,
      "Ġsaul": 2931,
      "Ġfood": 2932,
      "Ġcarry": 2933,
      "Ġwinds": 2934,
      "erer": 2935,
      "Ġfer": 2936,
      "Ġlu": 2937,
      "aly": 2938,
      "ste": 2939,
      "ria": 2940,
      "Ġsex": 2941,
      "Ġflight": 2942,
      "ization": 2943,
      "board": 2944,
      "Ġvillage": 2945,
      "Ġder": 2946,
      "agement": 2947,
      "Ġsyme": 2948,
      "ires": 2949,
      "ÃŃ": 2950,
      "Ġbit": 2951,
      "Ġmention": 2952,
      "Ġund": 2953,
      "Ġseas": 2954,
      "regation": 2955,
      "ae": 2956,
      "Ġspread": 2957,
      "Ġcrown": 2958,
      "Ġbank": 2959,
      "Ġeld": 2960,
      "Ġoutside": 2961,
      "Ġtouch": 2962,
      "Ġjacob": 2963,
      "nel": 2964,
      "ration": 2965,
      "while": 2966,
      "Ġnine": 2967,
      "Ġnecess": 2968,
      "Ġwheel": 2969,
      "Ġareas": 2970,
      "than": 2971,
      "Ġhaue": 2972,
      "pecially": 2973,
      "unk": 2974,
      "van": 2975,
      "Ġnon": 2976,
      "oted": 2977,
      "Ġrail": 2978,
      "Ġmere": 2979,
      "ival": 2980,
      "Ġplaying": 2981,
      "Ġtradition": 2982,
      "back": 2983,
      "Ġweeks": 2984,
      "Ġcampa": 2985,
      "Ġnames": 2986,
      "Ġjos": 2987,
      "bered": 2988,
      "Ġparticularly": 2989,
      "cus": 2990,
      "Ġglo": 2991,
      "Ġscri": 2992,
      "Ġmicha": 2993,
      "Ġmeant": 2994,
      "Ġmighty": 2995,
      "Ġdomin": 2996,
      "Ġuncle": 2997,
      "Ġstanding": 2998,
      "Ġdeterm": 2999,
      "Ġcard": 3000,
      "Ġseed": 3001,
      "Ġram": 3002,
      "Ġrepresent": 3003,
      "Ġprogram": 3004,
      "Ġvessel": 3005,
      "Ġbene": 3006,
      "umed": 3007,
      "ba": 3008,
      "Ġlack": 3009,
      "Ġneg": 3010,
      "ucle": 3011,
      "Ġeventually": 3012,
      "some": 3013,
      "Ġbright": 3014,
      "Ġinhab": 3015,
      "face": 3016,
      "iel": 3017,
      "Ġmm": 3018,
      "Ġcost": 3019,
      "Ġtwel": 3020,
      "Ġcompl": 3021,
      "upon": 3022,
      "Ġestim": 3023,
      "Ġaction": 3024,
      "Ġupper": 3025,
      "Ġspoken": 3026,
      "Ġjose": 3027,
      "Ġfamil": 3028,
      "Ġident": 3029,
      "fl": 3030,
      "gu": 3031,
      "isher": 3032,
      "Ġopening": 3033,
      "ville": 3034,
      "Ġstation": 3035,
      "Ġexe": 3036,
      "Ġpolitical": 3037,
      "kn": 3038,
      "vest": 3039,
      "Ġwine": 3040,
      "Ġthick": 3041,
      "Ġplain": 3042,
      "Ġregular": 3043,
      "Ġrunning": 3044,
      ".'": 3045,
      "Ġach": 3046,
      "Ġren": 3047,
      "Ġrejo": 3048,
      "ores": 3049,
      "Ġelton": 3050,
      "Ġhu": 3051,
      "Ġshad": 3052,
      "Ġrobert": 3053,
      "Ġjoined": 3054,
      "Ġwatch": 3055,
      "Ġtreat": 3056,
      "Ġsour": 3057,
      "verse": 3058,
      "Ġopin": 3059,
      "Ġqueen": 3060,
      "Ġlat": 3061,
      "Ġredu": 3062,
      "resh": 3063,
      "Ġburnt": 3064,
      "Ġfeatures": 3065,
      "Ġrise": 3066,
      "Ġcomes": 3067,
      "osaur": 3068,
      "before": 3069,
      "Ġcenter": 3070,
      "Ġsacri": 3071,
      "Ġcampaign": 3072,
      "Ġtail": 3073,
      "Ġoffice": 3074,
      "Ġchart": 3075,
      "Ġkey": 3076,
      "pher": 3077,
      "Ġreign": 3078,
      "istic": 3079,
      "Ġindivid": 3080,
      "Ġappointed": 3081,
      "Ġhouses": 3082,
      "Ġfrance": 3083,
      "Ġinterv": 3084,
      "Ġfemale": 3085,
      "Ġgrass": 3086,
      "Ġpolice": 3087,
      "Ġguns": 3088,
      "iling": 3089,
      "aker": 3090,
      "Ġpoet": 3091,
      "Ġserve": 3092,
      "Ġseeing": 3093,
      "Ġreceive": 3094,
      "gress": 3095,
      "Ġlocated": 3096,
      "hard": 3097,
      "Ġworking": 3098,
      "orses": 3099,
      "Ġvoc": 3100,
      "Ġtemper": 3101,
      "Ġallowed": 3102,
      "Ġquarter": 3103,
      "Ġfuture": 3104,
      "inct": 3105,
      "Ġcaes": 3106,
      "Ġfool": 3107,
      "Ġconcer": 3108,
      "Ġcollect": 3109,
      "Ġmagaz": 3110,
      "Ġdirector": 3111,
      "Ġwise": 3112,
      "Ġpet": 3113,
      "Ġhell": 3114,
      "iles": 3115,
      "Ġcommer": 3116,
      "Ġeduc": 3117,
      "Ġcritics": 3118,
      "Ġcouncil": 3119,
      "Ġrecogn": 3120,
      "ios": 3121,
      "Ġoce": 3122,
      "Ġleading": 3123,
      "Ġknightley": 3124,
      "Ġtal": 3125,
      "Ġgall": 3126,
      "see": 3127,
      "Ġyes": 3128,
      "hens": 3129,
      "Ġfigure": 3130,
      "?--": 3131,
      "aron": 3132,
      "Ġ40": 3133,
      "Ġ189": 3134,
      "Ġdin": 3135,
      "Ġdoing": 3136,
      "Ġenjo": 3137,
      "Ġ2004": 3138,
      "Ġsubst": 3139,
      "Ġannounced": 3140,
      "miss": 3141,
      "Ġtong": 3142,
      "Ġaver": 3143,
      "antry": 3144,
      "Ġpoints": 3145,
      "Ġways": 3146,
      "Ġminute": 3147,
      "cape": 3148,
      "Ġexample": 3149,
      "Ġmaterial": 3150,
      "Ġwound": 3151,
      "Ġcub": 3152,
      "ald": 3153,
      "room": 3154,
      "Ġshot": 3155,
      "Ġ2005": 3156,
      "Ġassist": 3157,
      "Ġclean": 3158,
      "Ġfavour": 3159,
      "cious": 3160,
      "say": 3161,
      "Ġwel": 3162,
      "Ġjudge": 3163,
      "Ġtravel": 3164,
      "Ġcompleted": 3165,
      "Ġought": 3166,
      "Ġbott": 3167,
      "Ġplaced": 3168,
      "ram": 3169,
      "sy": 3170,
      "Ġboard": 3171,
      "Ġincreased": 3172,
      "ators": 3173,
      "Ġhol": 3174,
      "Ġsurpr": 3175,
      "Ġespecially": 3176,
      "Ġcertainly": 3177,
      "Ġsuddenly": 3178,
      "Ġassemb": 3179,
      "car": 3180,
      "Ġnucle": 3181,
      "Ġsele": 3182,
      "Ġmel": 3183,
      "Ġlev": 3184,
      "Ġspring": 3185,
      "Ġlands": 3186,
      "Ġnearly": 3187,
      "Ġdelivered": 3188,
      "Ġmakes": 3189,
      "Ġbeat": 3190,
      "enter": 3191,
      "vere": 3192,
      "Ġcomment": 3193,
      "Ġpret": 3194,
      "hood": 3195,
      "Ġpresence": 3196,
      "Ġedward": 3197,
      "Ġcolonel": 3198,
      "Ġdeliver": 3199,
      "Ġbirth": 3200,
      "inc": 3201,
      "Ġforced": 3202,
      "cell": 3203,
      "Ġvalley": 3204,
      "Ġconce": 3205,
      "Ġgoal": 3206,
      "Ġdestroyed": 3207,
      "every": 3208,
      "Ġpow": 3209,
      "Ġinn": 3210,
      "into": 3211,
      "andon": 3212,
      "iff": 3213,
      "Ġwrong": 3214,
      "Ġslight": 3215,
      "Ġgiving": 3216,
      "Ġdamage": 3217,
      "Ġfleet": 3218,
      "Ġprobably": 3219,
      "Ġsoft": 3220,
      "Ġexist": 3221,
      "ĠâĢĻ": 3222,
      "Ġseems": 3223,
      "Ġoffered": 3224,
      "Ġinform": 3225,
      "ota": 3226,
      "Ġdebut": 3227,
      "Ġflor": 3228,
      "Ġsyn": 3229,
      "Ġpossib": 3230,
      "Ġpun": 3231,
      "aries": 3232,
      "Ġbox": 3233,
      "airs": 3234,
      "Ġinvest": 3235,
      "athered": 3236,
      "Ġjoseph": 3237,
      "Ġcand": 3238,
      "Ġdig": 3239,
      "Ġoccasion": 3240,
      "Ġpath": 3241,
      "teen": 3242,
      "Ġgrace": 3243,
      "cient": 3244,
      "Ġaustralian": 3245,
      "Ġnews": 3246,
      "Ġstudy": 3247,
      "Ġoccup": 3248,
      "would": 3249,
      "Ġsens": 3250,
      "Ġscored": 3251,
      "Ġwil": 3252,
      "Ġdw": 3253,
      "omon": 3254,
      "imin": 3255,
      "Ġjon": 3256,
      "Ġcharles": 3257,
      "Ġconcern": 3258,
      "Ġgrey": 3259,
      "Ġsquad": 3260,
      ",)": 3261,
      "bre": 3262,
      "ara": 3263,
      "Ġlines": 3264,
      "Ġstage": 3265,
      "thee": 3266,
      "Ġlikely": 3267,
      "Ġwoodhouse": 3268,
      "Ġsurely": 3269,
      "Ġsand": 3270,
      "Ġga": 3271,
      "Ġgrant": 3272,
      "Ġwherefore": 3273,
      "Ġaut": 3274,
      "Ġhealth": 3275,
      "Ġdiss": 3276,
      "Ġintell": 3277,
      "Ġdiscip": 3278,
      "Ġfeelings": 3279,
      "Ġneighbour": 3280,
      ";--": 3281,
      "Ġpac": 3282,
      "Ġhit": 3283,
      "Ġyards": 3284,
      "Ġarms": 3285,
      "Ġsubsequ": 3286,
      "Ġwindow": 3287,
      "Ġhighest": 3288,
      "Ġpan": 3289,
      "Ġpull": 3290,
      "Ġyea": 3291,
      "Ġbelong": 3292,
      "Ġprovided": 3293,
      "Ġprince": 3294,
      "Ġadmir": 3295,
      "Ġrelationship": 3296,
      "Ġaaron": 3297,
      "Ġhorses": 3298,
      "Ġyard": 3299,
      "Ġproble": 3300,
      "Ġexcl": 3301,
      "Ġmarried": 3302,
      "Ġwitness": 3303,
      "oint": 3304,
      "Ġlot": 3305,
      "agon": 3306,
      "Ġspo": 3307,
      "Ġspent": 3308,
      "Ġclot": 3309,
      "Ġvictory": 3310,
      "Ġjudgment": 3311,
      "nal": 3312,
      "has": 3313,
      "Ġfal": 3314,
      "Ġbeha": 3315,
      "Ġelements": 3316,
      "Ġchristian": 3317,
      "Ġwalked": 3318,
      "bury": 3319,
      "Ġfund": 3320,
      "Ġhorn": 3321,
      "Ġmanager": 3322,
      "ishing": 3323,
      "Ġ31": 3324,
      "Ġstruck": 3325,
      ",--": 3326,
      "Ġcred": 3327,
      "Ġdanger": 3328,
      "Ġenemies": 3329,
      "Ġocean": 3330,
      "Ġbor": 3331,
      "Ġhabit": 3332,
      "vert": 3333,
      "ulf": 3334,
      "Ġmeat": 3335,
      "Ġexact": 3336,
      "Ġtry": 3337,
      "Ġscene": 3338,
      "Ġcommission": 3339,
      "Ġlaun": 3340,
      "attle": 3341,
      "ernacle": 3342,
      "!'": 3343,
      "ding": 3344,
      "gs": 3345,
      "night": 3346,
      "athan": 3347,
      "Ġarcha": 3348,
      "Ġprison": 3349,
      "Ġmichael": 3350,
      "hand": 3351,
      "Ġliter": 3352,
      "Ġhid": 3353,
      "Ġyouth": 3354,
      "dered": 3355,
      "Ġsky": 3356,
      "icated": 3357,
      "Ġthreat": 3358,
      "ults": 3359,
      "Ġshut": 3360,
      "Ġgreatest": 3361,
      "Ġoblig": 3362,
      "kes": 3363,
      "spe": 3364,
      "Ġawards": 3365,
      "Ġsmith": 3366,
      "ida": 3367,
      "venant": 3368,
      "Ġimage": 3369,
      "rief": 3370,
      "Ġparli": 3371,
      "Ġdirected": 3372,
      "Ġrefer": 3373,
      "ylon": 3374,
      "iety": 3375,
      "Ġmercy": 3376,
      "pan": 3377,
      "Ġbod": 3378,
      "orm": 3379,
      "Ġraised": 3380,
      "Ġprofess": 3381,
      "mrs": 3382,
      "Ġtwelve": 3383,
      "Ġot": 3384,
      "erness": 3385,
      "road": 3386,
      "Ġdeg": 3387,
      "Ġunion": 3388,
      "Ġsays": 3389,
      "Ġspeed": 3390,
      "Ġguard": 3391,
      "Ġsuppose": 3392,
      "Ġprofession": 3393,
      "Ġfilled": 3394,
      "mn": 3395,
      "Ġinher": 3396,
      "Ġlatter": 3397,
      "Ġplant": 3398,
      "Ġindian": 3399,
      "Ġaircraft": 3400,
      "Ġrefle": 3401,
      "Ġcurrent": 3402,
      "Ġtype": 3403,
      "Ġmacian": 3404,
      "Ġblessed": 3405,
      "Ġstraight": 3406,
      "uff": 3407,
      "Ġtried": 3408,
      "ential": 3409,
      "child": 3410,
      "Ġ2003": 3411,
      "Ġvirgin": 3412,
      "Ġbirds": 3413,
      "Ġthirty": 3414,
      "Ġmale": 3415,
      "ica": 3416,
      "Ġsocial": 3417,
      "Ġremains": 3418,
      "Ġrecords": 3419,
      "Ġphys": 3420,
      "Ġdirectly": 3421,
      "Ġsquare": 3422,
      "Ġsad": 3423,
      "isters": 3424,
      "Ġdom": 3425,
      "ata": 3426,
      "Ġnation": 3427,
      "Ġign": 3428,
      "Ġwrite": 3429,
      "Ġinsp": 3430,
      "Ġgentleman": 3431,
      "father": 3432,
      "west": 3433,
      "Ġfit": 3434,
      "ana": 3435,
      "Ġspoke": 3436,
      "Ġprem": 3437,
      "Ġattention": 3438,
      "Ġoperations": 3439,
      "Ġmagn": 3440,
      "Ġsuccessful": 3441,
      "Ġsignificant": 3442,
      "wr": 3443,
      "rab": 3444,
      "about": 3445,
      "pping": 3446,
      "cked": 3447,
      "bec": 3448,
      "Ġ2015": 3449,
      "Ġcharge": 3450,
      "Ġspirits": 3451,
      "Ġdaughters": 3452,
      "Ġcongregation": 3453,
      "Ġachie": 3454,
      "Ġcab": 3455,
      "Ġpict": 3456,
      "stood": 3457,
      "urs": 3458,
      "Ġmarriage": 3459,
      "Ġearlier": 3460,
      ".)": 3461,
      "Ġtast": 3462,
      "Ġbreat": 3463,
      "Ġpil": 3464,
      "Ġhun": 3465,
      "Ġnin": 3466,
      "Ġelli": 3467,
      "ago": 3468,
      "Ġmoon": 3469,
      "Ġworked": 3470,
      "Ġheads": 3471,
      "Ġrecording": 3472,
      "Ġwait": 3473,
      "Ġsituation": 3474,
      "Ġparliament": 3475,
      "reme": 3476,
      "Ġdash": 3477,
      "Ġmex": 3478,
      "Ġcovered": 3479,
      "Ġscar": 3480,
      "Ġmont": 3481,
      "inary": 3482,
      "isto": 3483,
      "Ġdress": 3484,
      "Ġwarm": 3485,
      "Ġarchae": 3486,
      "41": 3487,
      "owed": 3488,
      "Ġpossess": 3489,
      "Ġeuropean": 3490,
      "Ġarrived": 3491,
      "known": 3492,
      "Ġmagazine": 3493,
      "Ġast": 3494,
      "Ġsilence": 3495,
      "Ġrule": 3496,
      "turn": 3497,
      "Ġmuse": 3498,
      "ency": 3499,
      "olic": 3500,
      "Ġevidence": 3501,
      "Ġthoughts": 3502,
      "Ġath": 3503,
      "Ġhan": 3504,
      "alled": 3505,
      "Ġchanged": 3506,
      "Ġfrequ": 3507,
      "worth": 3508,
      "pa": 3509,
      "ince": 3510,
      "Ġhosp": 3511,
      "Ġgathered": 3512,
      "amin": 3513,
      "ification": 3514,
      "Ġmountains": 3515,
      "Ġmeaning": 3516,
      "Ġatlantic": 3517,
      "iar": 3518,
      "Ġheat": 3519,
      "Ġreser": 3520,
      "Ġended": 3521,
      "Ġfifth": 3522,
      "Ġbid": 3523,
      "Ġthrow": 3524,
      "rian": 3525,
      "Ġleaving": 3526,
      "Ġ35": 3527,
      "Ġspeaking": 3528,
      "Ġenemy": 3529,
      "bel": 3530,
      "ov": 3531,
      "Ġstret": 3532,
      "Ġconvers": 3533,
      "Ġsole": 3534,
      "Ġamb": 3535,
      "Ġmoving": 3536,
      "Ġsolomon": 3537,
      "'ve": 3538,
      "Ġow": 3539,
      "Ġhung": 3540,
      "Ġwithd": 3541,
      "Ġsequ": 3542,
      "Ġmember": 3543,
      "Ġmaint": 3544,
      "Ġlanguage": 3545,
      "mas": 3546,
      "ply": 3547,
      "ta": 3548,
      "Ġsnow": 3549,
      "Ġstones": 3550,
      "Ġinfantry": 3551,
      "Ġcarey": 3552,
      "Ġesc": 3553,
      "ky": 3554,
      "uments": 3555,
      "Ġquiet": 3556,
      "Ġlargest": 3557,
      "Ġbeautiful": 3558,
      "Ġgeorge": 3559,
      "don": 3560,
      "Ġhang": 3561,
      "odes": 3562,
      "Ġscen": 3563,
      "bey": 3564,
      "Ġ188": 3565,
      "Ġedge": 3566,
      "Ġanger": 3567,
      "ography": 3568,
      "Ġjourney": 3569,
      "Ġzeal": 3570,
      "Ġlear": 3571,
      "Ġplat": 3572,
      "Ġdesire": 3573,
      "Ġestablish": 3574,
      "zy": 3575,
      "Ġwales": 3576,
      "Ġbare": 3577,
      "Ġpenn": 3578,
      "Ġris": 3579,
      "Ġrecon": 3580,
      "iquity": 3581,
      "Ġpurpose": 3582,
      "ban": 3583,
      "bers": 3584,
      "Ġq": 3585,
      "Ġgather": 3586,
      "Ġliber": 3587,
      "Ġcolour": 3588,
      "ancis": 3589,
      "Ġincrease": 3590,
      "Ġpraised": 3591,
      "Ġinhabit": 3592,
      "leg": 3593,
      "Ġthom": 3594,
      "othing": 3595,
      "Ġprincip": 3596,
      "Ġmeasure": 3597,
      "ii": 3598,
      "may": 3599,
      "such": 3600,
      "enced": 3601,
      "Ġtower": 3602,
      "Ġfederer": 3603,
      "48": 3604,
      "Ġcaught": 3605,
      "Ġinj": 3606,
      "Ġvain": 3607,
      "raoh": 3608,
      "Ġdistance": 3609,
      "Ġpreviously": 3610,
      "Ġhosts": 3611,
      "Ġnetwork": 3612,
      "uous": 3613,
      "Ġwing": 3614,
      "Ġfow": 3615,
      "Ġsuf": 3616,
      "Ġexpected": 3617,
      "Ġ36": 3618,
      "long": 3619,
      "oring": 3620,
      "Ġseat": 3621,
      "Ġconclud": 3622,
      "Ġspan": 3623,
      "Ġscre": 3624,
      "Ġsurround": 3625,
      "Ġadvant": 3626,
      "Ġdiscus": 3627,
      "Ġquickly": 3628,
      "Ġstaff": 3629,
      "osen": 3630,
      "Ġcovenant": 3631,
      "Ġcarol": 3632,
      "Ġbooks": 3633,
      "Ġdarkness": 3634,
      "Ġprotest": 3635,
      "Ġtroops": 3636,
      "Ġtheat": 3637,
      "Ġdrew": 3638,
      "Ġthunder": 3639,
      "Ġviet": 3640,
      "Ġnative": 3641,
      "Ġfeatured": 3642,
      "Ġpretty": 3643,
      "Ġsize": 3644,
      "hal": 3645,
      "eds": 3646,
      "rose": 3647,
      "Ġremoved": 3648,
      "Ġaston": 3649,
      "Ġsake": 3650,
      "ari": 3651,
      "omy": 3652,
      "uster": 3653,
      "Ġrecom": 3654,
      "Ġreport": 3655,
      "Ġoperation": 3656,
      "Ġofficers": 3657,
      "Ġsoldiers": 3658,
      "Ġsanct": 3659,
      "Ġrapid": 3660,
      "might": 3661,
      "Ġfresh": 3662,
      "Ġmcc": 3663,
      "Ġexpect": 3664,
      "Ġyellow": 3665,
      "Ġinstit": 3666,
      "Ġgolden": 3667,
      "Ġrequired": 3668,
      "Ġvictor": 3669,
      "Ġradio": 3670,
      "Ġutter": 3671,
      "42": 3672,
      "could": 3673,
      "cons": 3674,
      "lor": 3675,
      "Ġble": 3676,
      "ita": 3677,
      "Ġlink": 3678,
      "Ġshape": 3679,
      "erson": 3680,
      "Ġark": 3681,
      "Ġsought": 3682,
      "Ġsilent": 3683,
      "Ġissue": 3684,
      "Ġassociation": 3685,
      "arily": 3686,
      "ller": 3687,
      "ims": 3688,
      "Ġproceed": 3689,
      "Ġbru": 3690,
      "chapter": 3691,
      "Ġexpress": 3692,
      "ancing": 3693,
      "ability": 3694,
      "Ġgrad": 3695,
      "Ġpaper": 3696,
      "Ġhardly": 3697,
      "anese": 3698,
      "Ġprivate": 3699,
      "Ġwheeler": 3700,
      "yer": 3701,
      "acc": 3702,
      "Ġscore": 3703,
      "appe": 3704,
      "host": 3705,
      "Ġhart": 3706,
      "Ġ186": 3707,
      "Ġminor": 3708,
      "Ġchance": 3709,
      "Ġextreme": 3710,
      "Ġmeeting": 3711,
      "Ġavail": 3712,
      "Ġtabernacle": 3713,
      "Ġopinion": 3714,
      "Ġta": 3715,
      "eding": 3716,
      "Ġtru": 3717,
      "Ġfinally": 3718,
      "Ġcritical": 3719,
      "Ġhenry": 3720,
      "Ġrespons": 3721,
      "Ġmuseum": 3722,
      "pes": 3723,
      "Ġ-": 3724,
      "ouri": 3725,
      "hath": 3726,
      "these": 3727,
      "Ġros": 3728,
      "arer": 3729,
      "Ġdepression": 3730,
      "Ġplease": 3731,
      "Ġbabylon": 3732,
      "Ġthrone": 3733,
      "nam": 3734,
      "Ġmixed": 3735,
      "Ġlives": 3736,
      "Ġheight": 3737,
      "Ġreception": 3738,
      "Ġminister": 3739,
      "Ġglass": 3740,
      "Ġprior": 3741,
      "Ġcapital": 3742,
      "Ġcircumst": 3743,
      "Ġinherit": 3744,
      "Ġgrew": 3745,
      "Ġancient": 3746,
      "Ġrom": 3747,
      "ronic": 3748,
      "Ġtransport": 3749,
      "Ġconstru": 3750,
      "ributed": 3751,
      "Ġintroduced": 3752,
      "Ġborder": 3753,
      "iest": 3754,
      "sm": 3755,
      "erm": 3756,
      "using": 3757,
      "ublic": 3758,
      "Ġlarger": 3759,
      "Ġrepeated": 3760,
      "Ġcommercial": 3761,
      "Ġelliot": 3762,
      "even": 3763,
      "ki": 3764,
      "Ġsen": 3765,
      "Ġecon": 3766,
      "anded": 3767,
      "cts": 3768,
      "Ġspot": 3769,
      "Ġremark": 3770,
      "Ġshows": 3771,
      "Ġjews": 3772,
      "Ġhigher": 3773,
      "Ġprepared": 3774,
      "Ġflorida": 3775,
      "ost": 3776,
      "Ġere": 3777,
      "adem": 3778,
      "Ġkil": 3779,
      "Ġ2014": 3780,
      "Ġbelow": 3781,
      "Ġobserved": 3782,
      "Ġinitially": 3783,
      "against": 3784,
      "apt": 3785,
      "lin": 3786,
      "Ġnomin": 3787,
      "Ġforget": 3788,
      "Ġnavy": 3789,
      "Ġfamilies": 3790,
      "Ġconcerning": 3791,
      "Ġavo": 3792,
      "Ġfier": 3793,
      "emed": 3794,
      "Ġearn": 3795,
      "Ġeverything": 3796,
      "Ġturning": 3797,
      "Ġmissouri": 3798,
      "Ġinfluence": 3799,
      "hua": 3800,
      "44": 3801,
      "eper": 3802,
      "Ġah": 3803,
      "Ġsick": 3804,
      "Ġmeth": 3805,
      "atory": 3806,
      "acted": 3807,
      "Ġdeb": 3808,
      "Ġarrang": 3809,
      "Ġregiment": 3810,
      "Ġdouble": 3811,
      "Ġtrouble": 3812,
      "lement": 3813,
      "bell": 3814,
      "Ġfox": 3815,
      "Ġyourself": 3816,
      "Ġ500": 3817,
      "Ġdiscovered": 3818,
      "Ġdaily": 3819,
      "Ġpharaoh": 3820,
      "ee": 3821,
      "fa": 3822,
      "hib": 3823,
      "hem": 3824,
      "Ġfro": 3825,
      "Ġrang": 3826,
      "raham": 3827,
      "Ġordered": 3828,
      "Ġletters": 3829,
      "should": 3830,
      "Ġcommander": 3831,
      "Ġterri": 3832,
      "Ġstories": 3833,
      "iced": 3834,
      "Ġmemor": 3835,
      "Ġdesigned": 3836,
      "Ġdetail": 3837,
      "Ġinvolved": 3838,
      "Ġmas": 3839,
      "arm": 3840,
      "Ġlake": 3841,
      "ication": 3842,
      "Ġfrancis": 3843,
      "Ġpros": 3844,
      "oked": 3845,
      "Ġ38": 3846,
      "Ġcontem": 3847,
      "Ġinstr": 3848,
      "Ġmultip": 3849,
      "Ġinterview": 3850,
      "áĥ": 3851,
      "Ġtoday": 3852,
      "Ġhaw": 3853,
      "Ġsel": 3854,
      "Ġwrit": 3855,
      "char": 3856,
      "Ġtalking": 3857,
      "Ġfailed": 3858,
      "Ġpacific": 3859,
      "ties": 3860,
      "Ġcreek": 3861,
      "Ġdread": 3862,
      "Ġreach": 3863,
      "Ġrid": 3864,
      "Ġremaining": 3865,
      "Ġinstant": 3866,
      "Ġgrave": 3867,
      "Ġsides": 3868,
      "Ġjenn": 3869,
      "ilities": 3870,
      "aging": 3871,
      "Ġrob": 3872,
      "Ġ185": 3873,
      "Ġdistr": 3874,
      "Ġterm": 3875,
      "Ġsuggested": 3876,
      "Ġresearch": 3877,
      "Ġdashwood": 3878,
      "Ġbell": 3879,
      "roud": 3880,
      "Ġ2001": 3881,
      "Ġextra": 3882,
      "Ġcommunity": 3883,
      "Ġoliv": 3884,
      "Ġdetermined": 3885,
      "Ġsuffered": 3886,
      "iation": 3887,
      "rison": 3888,
      "Ġfaces": 3889,
      "Ġmc": 3890,
      "key": 3891,
      "Ġwriter": 3892,
      "Ġacadem": 3893,
      "Ġhearts": 3894,
      "Ġmedia": 3895,
      "ij": 3896,
      "eral": 3897,
      "inger": 3898,
      "Ġlest": 3899,
      "Ġneck": 3900,
      "ements": 3901,
      "Ġlearn": 3902,
      "rents": 3903,
      "Ġbrut": 3904,
      "Ġafterwards": 3905,
      "Ġcentre": 3906,
      "Ġpolic": 3907,
      "Ġwilderness": 3908,
      "Ġpiece": 3909,
      "Ġindustry": 3910,
      "Ġeducation": 3911,
      "rid": 3912,
      "Ġtall": 3913,
      "Ġwilt": 3914,
      "Ġdoth": 3915,
      "Ġscience": 3916,
      "Ġindia": 3917,
      "Ġwisdom": 3918,
      "la": 3919,
      "Ġtakes": 3920,
      "ased": 3921,
      "icate": 3922,
      "Ġdoc": 3923,
      "Ġenv": 3924,
      "Ġbackground": 3925,
      "Ġsurface": 3926,
      "Ġspecific": 3927,
      "ashion": 3928,
      "Ġadditional": 3929,
      "Ġcycl": 3930,
      "Ġcollege": 3931,
      "Ġaverage": 3932,
      "ket": 3933,
      "time": 3934,
      "xas": 3935,
      "Ġcath": 3936,
      "thur": 3937,
      "Ġconsequ": 3938,
      "ula": 3939,
      "Ġchosen": 3940,
      "Ġusually": 3941,
      "Ġcalling": 3942,
      "Ġwinter": 3943,
      "Ġburied": 3944,
      "Ġrichard": 3945,
      "fice": 3946,
      "itable": 3947,
      "Ġnotes": 3948,
      "ols": 3949,
      "ossible": 3950,
      "comm": 3951,
      "Ġfeeling": 3952,
      "Ġreplaced": 3953,
      "Ġcathed": 3954,
      "porary": 3955,
      "dis": 3956,
      "Ġmir": 3957,
      "acher": 3958,
      "imony": 3959,
      "Ġweather": 3960,
      "ulted": 3961,
      "Ġgoes": 3962,
      "Ġserious": 3963,
      "Ġrepublic": 3964,
      "Ġshortly": 3965,
      "Ġera": 3966,
      "Ġentirely": 3967,
      "Ġfiction": 3968,
      "Ġny": 3969,
      "acing": 3970,
      "imate": 3971,
      "Ġgoals": 3972,
      "Ġdisplay": 3973,
      "Ġspeech": 3974,
      "Ġpleased": 3975,
      "Ġequal": 3976,
      "Ġprophet": 3977,
      "Ġreligious": 3978,
      "bur": 3979,
      "did": 3980,
      "zer": 3981,
      "erous": 3982,
      "Ġremem": 3983,
      "Ġ187": 3984,
      "Ġmusical": 3985,
      "Ġmarket": 3986,
      "Ġhence": 3987,
      "certain": 3988,
      "Ġded": 3989,
      "Ġweak": 3990,
      "oso": 3991,
      "Ġfled": 3992,
      "Ġemer": 3993,
      "Ġsigned": 3994,
      "Ġprinces": 3995,
      "Ġagreed": 3996,
      "Ġrachel": 3997,
      "Ġhind": 3998,
      "sell": 3999,
      "aches": 4000,
      "ays": 4001,
      "people": 4002,
      "new": 4003,
      "Ġpersu": 4004,
      "Ġescape": 4005,
      "Ġsusan": 4006,
      "Ġfifty": 4007,
      "Ġclaimed": 4008,
      "Ġcaesar": 4009,
      "Ġing": 4010,
      "asse": 4011,
      "Ġweap": 4012,
      "Ġsearch": 4013,
      "oses": 4014,
      "Ġintended": 4015,
      "Ġrequest": 4016,
      "bled": 4017,
      "Ġstubb": 4018,
      "theast": 4019,
      "ishment": 4020,
      "Ġscot": 4021,
      "Ġthyself": 4022,
      "Ġattr": 4023,
      "Ġcell": 4024,
      "Ġinside": 4025,
      "Ġchurchill": 4026,
      "Ġstreets": 4027,
      "Ġ1970": 4028,
      "Ġdeclared": 4029,
      "ĠĠĠĠĠĠĠĠĠĠĠĠĠĠĠĠ": 4030,
      "Ġjapanese": 4031,
      "Ġexecut": 4032,
      "because": 4033,
      "rees": 4034,
      "Ġinno": 4035,
      "Ġuk": 4036,
      "aming": 4037,
      "Ġsem": 4038,
      "Ġunits": 4039,
      "Ġthinking": 4040,
      "Ġtransfer": 4041,
      "Ġstudio": 4042,
      "Ġprevent": 4043,
      "Ġinformation": 4044,
      "ipped": 4045,
      "nat": 4046,
      "Ġmut": 4047,
      "Ġincl": 4048,
      "Ġdry": 4049,
      "Ġloved": 4050,
      "Ġworth": 4051,
      "Ġrelated": 4052,
      "Ġfields": 4053,
      "Ġestimated": 4054,
      "part": 4055,
      "iny": 4056,
      "inist": 4057,
      "Ġwid": 4058,
      "anced": 4059,
      "through": 4060,
      "Ġsection": 4061,
      "Ġvoy": 4062,
      "Ġbroke": 4063,
      "Ġmounted": 4064,
      "Ġcastle": 4065,
      "Ġstructure": 4066,
      "Ġphilist": 4067,
      "Ġirish": 4068,
      "Ġoccurred": 4069,
      "Ġpieces": 4070,
      "ĠÂ£": 4071,
      "Ġathlet": 4072,
      "Ġbath": 4073,
      "Ġpure": 4074,
      "Ġdate": 4075,
      "Ġcometh": 4076,
      "Ġworship": 4077,
      "Ġforms": 4078,
      "Ġdecision": 4079,
      "bet": 4080,
      "Ġloud": 4081,
      "umn": 4082,
      "rous": 4083,
      "Ġabraham": 4084,
      "Ġsperm": 4085,
      "Ġtrade": 4086,
      "Ġfirm": 4087,
      "Ġmarry": 4088,
      "Ġ2000": 4089,
      "Ġopport": 4090,
      "Ġexperience": 4091,
      "Ġthomas": 4092,
      "good": 4093,
      "lied": 4094,
      "met": 4095,
      "Ġears": 4096,
      "enture": 4097,
      "Ġrow": 4098,
      "Ġplot": 4099,
      "Ġpersonal": 4100,
      "Ġapproxim": 4101,
      "43": 4102,
      "ique": 4103,
      "tle": 4104,
      "Ġsaint": 4105,
      "Ġsitting": 4106,
      "israel": 4107,
      "Ġnote": 4108,
      "ulated": 4109,
      "raw": 4110,
      "Ġens": 4111,
      "Ġboats": 4112,
      "Ġdrive": 4113,
      "Ġreviews": 4114,
      "Ġrighteousness": 4115,
      "Ġcrowd": 4116,
      "ga": 4117,
      "whe": 4118,
      "Ġult": 4119,
      "rence": 4120,
      "Ġpreser": 4121,
      "Ġmultitude": 4122,
      "Ġcanada": 4123,
      "Ã³": 4124,
      "rel": 4125,
      "Ġbul": 4126,
      "Ġcust": 4127,
      "omet": 4128,
      "Ġimpro": 4129,
      "Ġsinging": 4130,
      "Ġtribe": 4131,
      "Ġintens": 4132,
      "Ġunderstanding": 4133,
      "Ġofferings": 4134,
      "ĠÂ°": 4135,
      "Ġmexico": 4136,
      "Ġmph": 4137,
      "Ġghost": 4138,
      "lebr": 4139,
      "sey": 4140,
      "Ġforty": 4141,
      "ivity": 4142,
      "Ġperce": 4143,
      "Ġdidn": 4144,
      "Ġ45": 4145,
      "Ġcounter": 4146,
      "Ġprotect": 4147,
      "Ġshoot": 4148,
      "Ġflying": 4149,
      "Ġcathedral": 4150,
      "Ġopportun": 4151,
      "fast": 4152,
      "Ġale": 4153,
      "oration": 4154,
      "Ġeager": 4155,
      "Ġbridge": 4156,
      "Ġblind": 4157,
      "Ġoldham": 4158,
      "Ġchanges": 4159,
      "Ġ1990": 4160,
      "aimed": 4161,
      "Ġdeparted": 4162,
      "Ġsorrow": 4163,
      "Ġscript": 4164,
      "great": 4165,
      "mal": 4166,
      "Ġones": 4167,
      "Ġattend": 4168,
      "Ġtraining": 4169,
      "ounds": 4170,
      "Ġemb": 4171,
      "Ġstead": 4172,
      "serv": 4173,
      "Ġiii": 4174,
      "Ġcad": 4175,
      "Ġpian": 4176,
      "Ġring": 4177,
      "Ġsheep": 4178,
      "Ġchair": 4179,
      "Ġskin": 4180,
      "Ġfallen": 4181,
      "ike": 4182,
      "jud": 4183,
      "ergy": 4184,
      "Ġclosed": 4185,
      "icks": 4186,
      "Ġhighly": 4187,
      "Ġterms": 4188,
      "Ġnecessary": 4189,
      "Ġfalse": 4190,
      "ev": 4191,
      "eque": 4192,
      "Ġmix": 4193,
      "Ġhal": 4194,
      "Ġash": 4195,
      "Ġrare": 4196,
      "Ġshown": 4197,
      "Ġexceed": 4198,
      "Ġarcher": 4199,
      "Ġpaid": 4200,
      "Ġcontract": 4201,
      "Ġperfectly": 4202,
      "Ġtaste": 4203,
      "equeg": 4204,
      "fax": 4205,
      "hor": 4206,
      "Ġcass": 4207,
      "Ġsuc": 4208,
      "Ġcook": 4209,
      "Ġtwice": 4210,
      "Ġnumbers": 4211,
      "Ġsimple": 4212,
      "Ġschol": 4213,
      "Ġwinning": 4214,
      "Ġpositive": 4215,
      "Ġbecoming": 4216,
      "Ġtongue": 4217,
      "Ġavailable": 4218,
      "Ġolivier": 4219,
      "Ġgates": 4220,
      "stone": 4221,
      "Ġunknown": 4222,
      "Ġsav": 4223,
      "icket": 4224,
      "Ġresol": 4225,
      "ffic": 4226,
      "Ġcelebr": 4227,
      "Ġlifted": 4228,
      "49": 4229,
      "Ġfol": 4230,
      "otten": 4231,
      "together": 4232,
      "quar": 4233,
      "Ġamount": 4234,
      "Ġpassing": 4235,
      "Ġappears": 4236,
      "inese": 4237,
      "Ġhappened": 4238,
      "Ġbottom": 4239,
      "Ġadvantage": 4240,
      "45": 4241,
      "46": 4242,
      "ping": 4243,
      "rance": 4244,
      "uals": 4245,
      "yet": 4246,
      "iser": 4247,
      "ada": 4248,
      "Ġexcell": 4249,
      "Ġairport": 4250,
      "Ġsmaller": 4251,
      "atively": 4252,
      "change": 4253,
      "Ġseparate": 4254,
      "Ġfixed": 4255,
      "Ġiniquity": 4256,
      "Ġ60": 4257,
      "Ġpurcha": 4258,
      "Ġbritain": 4259,
      "Ġstopped": 4260,
      "Ġdisciples": 4261,
      "Ġmethod": 4262,
      "fo": 4263,
      "Ġbrief": 4264,
      "Ġsund": 4265,
      "Ġprepar": 4266,
      "Ġwhales": 4267,
      "Ġwalking": 4268,
      "Ġdamaged": 4269,
      "Ġeffects": 4270,
      "Ġbodies": 4271,
      "Ġprofessor": 4272,
      "gory": 4273,
      "put": 4274,
      "Ġ?": 4275,
      "Ġweight": 4276,
      "Ġvine": 4277,
      "Ġleaves": 4278,
      "Ġchinese": 4279,
      "lands": 4280,
      "Ġjustice": 4281,
      "Ġhelped": 4282,
      "book": 4283,
      "Ġadvance": 4284,
      "Ġparticip": 4285,
      "Ġgrowing": 4286,
      "Ġzealand": 4287,
      "Ġfest": 4288,
      "Ġthin": 4289,
      "Ġdeck": 4290,
      "Ġvast": 4291,
      "Ġsupported": 4292,
      "Ġstudents": 4293,
      "Ġfeature": 4294,
      "Ġfighting": 4295,
      "Ġapproximately": 4296,
      "isions": 4297,
      "Ġagree": 4298,
      "Ġdrum": 4299,
      "Ġcontinue": 4300,
      "Ġfully": 4301,
      "Ġprovide": 4302,
      "Ġcompletely": 4303,
      "Ġaffection": 4304,
      "Ġmachine": 4305,
      "Ġtaught": 4306,
      "Ġtom": 4307,
      "aug": 4308,
      "aped": 4309,
      "Ġsixth": 4310,
      "Ġconstant": 4311,
      "Ġ1960": 4312,
      "Ġlimited": 4313,
      "Ġlyric": 4314,
      "Ġslowly": 4315,
      "Ġinhabitants": 4316,
      "rat": 4317,
      "Ġfred": 4318,
      "itory": 4319,
      "Ġrate": 4320,
      "Ġago": 4321,
      "Ġadop": 4322,
      "Ġbond": 4323,
      "Ġspect": 4324,
      "Ġconfir": 4325,
      "Ġgroups": 4326,
      "Ġstrugg": 4327,
      "Ġdegree": 4328,
      "Ġess": 4329,
      "Ġcompared": 4330,
      "Ġdivine": 4331,
      "Ġhappiness": 4332,
      "Ġstarting": 4333,
      "Ġafrica": 4334,
      "Ġlevites": 4335,
      "Ġintellig": 4336,
      "cies": 4337,
      "des": 4338,
      "rer": 4339,
      "Ġeph": 4340,
      "Ġjin": 4341,
      "Ġrat": 4342,
      "uses": 4343,
      "Ġshame": 4344,
      "Ġarmed": 4345,
      "Ġconsist": 4346,
      "Ġbaby": 4347,
      "Ġbeauty": 4348,
      "Ġencour": 4349,
      "Ġprofessional": 4350,
      "Ġjennings": 4351,
      "know": 4352,
      "Ġbud": 4353,
      "Ġpap": 4354,
      "Ġital": 4355,
      "theless": 4356,
      "hant": 4357,
      "Ġnoise": 4358,
      "Ġcontent": 4359,
      "Ġlooks": 4360,
      "Ġentertain": 4361,
      "Ġportion": 4362,
      "Ġcollection": 4363,
      "Ġlamb": 4364,
      "Ġarose": 4365,
      "Ġlion": 4366,
      "Ġnest": 4367,
      "lymp": 4368,
      "ado": 4369,
      "ushed": 4370,
      "Ġblow": 4371,
      "Ġnewsp": 4372,
      "Ġ2002": 4373,
      "Ġstranger": 4374,
      "standing": 4375,
      "Ġfairfax": 4376,
      "Ġbehavi": 4377,
      "cont": 4378,
      "end": 4379,
      "mit": 4380,
      "oul": 4381,
      "Ġdance": 4382,
      "Ġsevere": 4383,
      "Ġshout": 4384,
      "Ġoverall": 4385,
      "Ġdrawing": 4386,
      "Ġseventh": 4387,
      "children": 4388,
      "bc": 4389,
      "Ġarab": 4390,
      "Ġos": 4391,
      "Ġolymp": 4392,
      "onse": 4393,
      "idents": 4394,
      "aketh": 4395,
      "emma": 4396,
      "ishop": 4397,
      "Ġwrath": 4398,
      "Ġsmile": 4399,
      "Ġhills": 4400,
      "stein": 4401,
      "Ġjoshua": 4402,
      "Ġsucceed": 4403,
      "lict": 4404,
      "Ġfans": 4405,
      "Ġmile": 4406,
      "cend": 4407,
      "Ġvp": 4408,
      "Ġvs": 4409,
      "Ġplans": 4410,
      "Ġthence": 4411,
      "place": 4412,
      "Ġincludes": 4413,
      "Ġcountries": 4414,
      "Ġdivided": 4415,
      "Ġdepartment": 4416,
      "Ġmovement": 4417,
      "Ġfancy": 4418,
      "Ġsacrifice": 4419,
      "rd": 4420,
      "Ġshore": 4421,
      "Ġmarked": 4422,
      "Ġcalm": 4423,
      "Ġadminist": 4424,
      "Ġvirt": 4425,
      "Ġclothes": 4426,
      "Ġbatter": 4427,
      "urity": 4428,
      "Ġrough": 4429,
      "Ġcompass": 4430,
      "Ġjob": 4431,
      "ixon": 4432,
      "Ġbowl": 4433,
      "Ġdwelt": 4434,
      "Ġexactly": 4435,
      "Ġrecomme": 4436,
      "buck": 4437,
      "Ġtay": 4438,
      "Ġwave": 4439,
      "Ġpale": 4440,
      "Ġarthur": 4441,
      "Ġmostly": 4442,
      "oughby": 4443,
      "Ġelection": 4444,
      "Ġsomer": 4445,
      "Ġproposed": 4446,
      "Ġcomplex": 4447,
      "Ġcreate": 4448,
      "Ġwalter": 4449,
      "Ġassembly": 4450,
      "Ġtax": 4451,
      "Ġfisher": 4452,
      "Ġpor": 4453,
      "Ġcool": 4454,
      "Ġworse": 4455,
      "Ġboys": 4456,
      "Ġengaged": 4457,
      "Ġglor": 4458,
      "Ġartist": 4459,
      "Ġcaptured": 4460,
      "Ġpressure": 4461,
      "Ġcanadian": 4462,
      "47": 4463,
      "kan": 4464,
      "rated": 4465,
      "uf": 4466,
      "wha": 4467,
      "ann": 4468,
      "Ġlips": 4469,
      "aine": 4470,
      "Ġtherein": 4471,
      "Ġfeast": 4472,
      "Ġteach": 4473,
      "Ġdise": 4474,
      "Ġapart": 4475,
      "Ġactually": 4476,
      "Ġnumerous": 4477,
      "Ġpresented": 4478,
      "Ġcalif": 4479,
      "Ġtalked": 4480,
      "Ġbroadcast": 4481,
      "Ġsamuel": 4482,
      "Ġacquaint": 4483,
      "Ġresponse": 4484,
      "Ġvessels": 4485,
      "hou": 4486,
      "tis": 4487,
      "Ġmu": 4488,
      "Ġpair": 4489,
      "ingu": 4490,
      "Ġdim": 4491,
      "Ġdyn": 4492,
      "Ġcomed": 4493,
      "eless": 4494,
      "Ġlean": 4495,
      "izing": 4496,
      "Ġsmote": 4497,
      "Ġemper": 4498,
      "Ġgovernor": 4499,
      "Ġwalls": 4500,
      "born": 4501,
      "fir": 4502,
      "ole": 4503,
      "ror": 4504,
      "take": 4505,
      "Ġbeach": 4506,
      "Ġrising": 4507,
      "Ġscott": 4508,
      "Ġdeser": 4509,
      "Ġjoin": 4510,
      "Ġpassage": 4511,
      "Ġrefused": 4512,
      "Ġanti": 4513,
      "Ġbeside": 4514,
      "Ġjapan": 4515,
      "da": 4516,
      "lim": 4517,
      "Ġwand": 4518,
      "Ġtow": 4519,
      "irt": 4520,
      "Ġjam": 4521,
      "Ġimper": 4522,
      "forth": 4523,
      "Ġpromise": 4524,
      "Ġempire": 4525,
      "Ġmentioned": 4526,
      "osaurus": 4527,
      "Ġcaliforn": 4528,
      "sing": 4529,
      "Ġtone": 4530,
      "Ġpul": 4531,
      "Ġdare": 4532,
      "Ġlin": 4533,
      "Ġhate": 4534,
      "Ġwhis": 4535,
      "Ġwhoso": 4536,
      "Ġbasket": 4537,
      "Ġstandard": 4538,
      "Ġruns": 4539,
      "Ġsuffer": 4540,
      "Ġculture": 4541,
      "Ġhospital": 4542,
      "Ġscenes": 4543,
      "hamed": 4544,
      "Ġcate": 4545,
      "attered": 4546,
      "Ġgro": 4547,
      "Ġexam": 4548,
      "Ġspr": 4549,
      "without": 4550,
      "Ġrelief": 4551,
      "Ġtreas": 4552,
      "Ġconcert": 4553,
      "Ġdevil": 4554,
      "Ġdefeated": 4555,
      "gra": 4556,
      "jamin": 4557,
      "ka": 4558,
      "kind": 4559,
      "Ġfashion": 4560,
      "Ġpill": 4561,
      "Ġdemon": 4562,
      "estic": 4563,
      "Ġdoll": 4564,
      "Ġwentworth": 4565,
      "Ġdrawn": 4566,
      "Ġauthority": 4567,
      "Ġcompanies": 4568,
      "Ġsquadron": 4569,
      "Ġtaylor": 4570,
      "mitted": 4571,
      "Ġcm": 4572,
      "enance": 4573,
      "Ġdun": 4574,
      "llen": 4575,
      "send": 4576,
      "Ġaspect": 4577,
      "Ġshr": 4578,
      "soever": 4579,
      "ibility": 4580,
      "Ġlargely": 4581,
      "Ġcheer": 4582,
      "Ġterritory": 4583,
      "Ġjournal": 4584,
      "Ġinheritance": 4585,
      "Ġfrancisco": 4586,
      "Ġtenn": 4587,
      "inent": 4588,
      "Ġreject": 4589,
      "Ġfilms": 4590,
      "Ġchristmas": 4591,
      "Ġcorps": 4592,
      "Ġbuildings": 4593,
      "Ġprophets": 4594,
      "Ġindependent": 4595,
      "Ġpowers": 4596,
      "Ġcatholic": 4597,
      "arent": 4598,
      "Ġsisters": 4599,
      "Ġdum": 4600,
      "vey": 4601,
      "Ġdog": 4602,
      "never": 4603,
      "Ġcarriage": 4604,
      "Ġ80": 4605,
      "Ġparents": 4606,
      "Ġconstit": 4607,
      "Ġapproach": 4608,
      "Ġbillboard": 4609,
      "Ġrevealed": 4610,
      "cise": 4611,
      "dr": 4612,
      "Ġtv": 4613,
      "Ġcher": 4614,
      "uries": 4615,
      "Ġanal": 4616,
      "illery": 4617,
      "Ġunable": 4618,
      "pty": 4619,
      "Ġadam": 4620,
      "Ġcompos": 4621,
      "Ġliver": 4622,
      "Ġwhatever": 4623,
      "Ġmaid": 4624,
      "Ġsupposed": 4625,
      "Ġcolor": 4626,
      "Ġxen": 4627,
      "little": 4628,
      "ses": 4629,
      "tic": 4630,
      "uing": 4631,
      "Ġwed": 4632,
      "Ġdust": 4633,
      "Ġheark": 4634,
      "ifa": 4635,
      "Ġproved": 4636,
      "Ġnoble": 4637,
      "Ġcoach": 4638,
      "Ġclos": 4639,
      "Ġcontains": 4640,
      "Ġcommitt": 4641,
      "Ġsymb": 4642,
      "Ġsteel": 4643,
      "Ġcere": 4644,
      "Ġlabour": 4645,
      "?'": 4646,
      "bal": 4647,
      "gian": 4648,
      "last": 4649,
      "Ġbol": 4650,
      "tering": 4651,
      "Ġrh": 4652,
      "Ġunlike": 4653,
      "lock": 4654,
      "Ġ39": 4655,
      "Ġbegat": 4656,
      "Ġshowed": 4657,
      "Ġsuperior": 4658,
      "Ġfavor": 4659,
      "Ġmotion": 4660,
      "Ġshadow": 4661,
      "Ġsource": 4662,
      "Ġlatin": 4663,
      "only": 4664,
      "Ġmoreover": 4665,
      "Ġperfor": 4666,
      "Ġbegins": 4667,
      "Ġ1995": 4668,
      "Ġdirection": 4669,
      "Ġrevolution": 4670,
      "Ġpowerful": 4671,
      "Ġeasy": 4672,
      "Ġsubsequently": 4673,
      "Ġproblems": 4674,
      "Ġobliged": 4675,
      "ias": 4676,
      "som": 4677,
      "Ġwings": 4678,
      "Ġbomb": 4679,
      "Ġinqu": 4680,
      "Ġloose": 4681,
      "Ġross": 4682,
      "Ġmov": 4683,
      "Ġcomposed": 4684,
      "Ġrivers": 4685,
      "Ġobt": 4686,
      "Ġhonest": 4687,
      "Ġarchite": 4688,
      "Ġindividual": 4689,
      "rant": 4690,
      "word": 4691,
      "Ġproud": 4692,
      "asy": 4693,
      "Ġdepend": 4694,
      "Ġtheme": 4695,
      "Ġpeak": 4696,
      "Ġdesol": 4697,
      "Ġ1980": 4698,
      "Ġstrike": 4699,
      "ares": 4700,
      "mble": 4701,
      "oy": 4702,
      "pic": 4703,
      "Ġbones": 4704,
      "Ġfant": 4705,
      "Ġdj": 4706,
      "Ġrear": 4707,
      "Ġanx": 4708,
      "Ġjun": 4709,
      "aints": 4710,
      "Ġshare": 4711,
      "osop": 4712,
      "Ġchic": 4713,
      "Ġfoundation": 4714,
      "Ġbrook": 4715,
      "pool": 4716,
      "Ġforeign": 4717,
      "Ġvilla": 4718,
      "Ġreferred": 4719,
      "Ġconversation": 4720,
      "Ġphilistines": 4721,
      "Ġacquaintance": 4722,
      "ault": 4723,
      "bon": 4724,
      "aling": 4725,
      "secut": 4726,
      "Ġusual": 4727,
      "Ġcompar": 4728,
      "Ġcomput": 4729,
      "Ġgreatly": 4730,
      "Ġimpossible": 4731,
      "Ġreturning": 4732,
      "Ġpurs": 4733,
      "Ġofficer": 4734,
      "Ġunclean": 4735,
      "Ġinvestig": 4736,
      "nothing": 4737,
      "Ġfought": 4738,
      "Ġdiam": 4739,
      "Ġharpo": 4740,
      "Ġnevertheless": 4741,
      "Ġtraffic": 4742,
      "Ġteams": 4743,
      "Ġranked": 4744,
      "Ġdropped": 4745,
      "quarters": 4746,
      "erick": 4747,
      "Ġbon": 4748,
      "Ġstock": 4749,
      "illed": 4750,
      "Ġsaved": 4751,
      "Ġwilloughby": 4752,
      "Ġdisapp": 4753,
      "white": 4754,
      "Ġartillery": 4755,
      "Ġpromised": 4756,
      "Ġschools": 4757,
      "Ġdefeat": 4758,
      "Ġprimary": 4759,
      "Ġcalifornia": 4760,
      "rate": 4761,
      "ora": 4762,
      "Ġnaked": 4763,
      "Ġnobody": 4764,
      "Ġmole": 4765,
      "Ġadapt": 4766,
      "Ġpercent": 4767,
      "Ġportug": 4768,
      "Ġstudies": 4769,
      "Ġpossession": 4770,
      "Ġmacb": 4771,
      "Ġmajority": 4772,
      "Ġfortune": 4773,
      "Ġexperien": 4774,
      "Ġsettled": 4775,
      "Ġcorner": 4776,
      "Ġladies": 4777,
      "Ġscientology": 4778,
      "Ġdinner": 4779,
      "nament": 4780,
      "ws": 4781,
      "Ġunf": 4782,
      "Ġteeth": 4783,
      "Ġ32": 4784,
      "Ġaccess": 4785,
      "Ġrepro": 4786,
      "Ġapparent": 4787,
      "Ġguest": 4788,
      "Ġswift": 4789,
      "Ġdistinct": 4790,
      "Ġmetres": 4791,
      "Ġneeded": 4792,
      "Ġbreath": 4793,
      "mission": 4794,
      "ancy": 4795,
      "Ġhaifa": 4796,
      "Ġalive": 4797,
      "umber": 4798,
      "Ġbranch": 4799,
      "Ġactive": 4800,
      "Ġcommandment": 4801,
      "Ġfarmer": 4802,
      "capt": 4803,
      "Ġislands": 4804,
      "Ġfigures": 4805,
      "Ġvalue": 4806,
      "Ġcroat": 4807,
      "Ġchoice": 4808,
      "Ġemperor": 4809,
      "give": 4810,
      "hon": 4811,
      "mother": 4812,
      "mark": 4813,
      "Ġack": 4814,
      "arther": 4815,
      "cket": 4816,
      "Ġ2016": 4817,
      "Ġassigned": 4818,
      "Ġservices": 4819,
      "Ġlocation": 4820,
      "Ġstruct": 4821,
      "Ġconduct": 4822,
      "Ġconstructed": 4823,
      "much": 4824,
      "Ġwished": 4825,
      "Ġamaz": 4826,
      "Ġpoly": 4827,
      "Ġyourselves": 4828,
      "Ġknows": 4829,
      "Ġlisted": 4830,
      "Ġsharp": 4831,
      "Ġlaunched": 4832,
      "Ġxenon": 4833,
      "pri": 4834,
      "Ġaer": 4835,
      "Ġdur": 4836,
      "sea": 4837,
      "Ġvision": 4838,
      "Ġbrad": 4839,
      "Ġflag": 4840,
      "Ġactor": 4841,
      "Ġparis": 4842,
      "Ġwoe": 4843,
      "Ġcontrast": 4844,
      "Ġsorry": 4845,
      "Ġrejoice": 4846,
      "Ġconcluded": 4847,
      "heart": 4848,
      "eration": 4849,
      "iments": 4850,
      "iva": 4851,
      "Ġsport": 4852,
      "Ġimages": 4853,
      "Ġimprove": 4854,
      "Ġheadquarters": 4855,
      "Ġvariety": 4856,
      "Ġdefence": 4857,
      "onym": 4858,
      "Ġlouisa": 4859,
      "Ġmerely": 4860,
      "Ġlyrics": 4861,
      "ĠÃ": 4862,
      "Ġwives": 4863,
      "Ġwond": 4864,
      "Ġhide": 4865,
      "icient": 4866,
      "uted": 4867,
      "iring": 4868,
      "Ġrhy": 4869,
      "Ġunit": 4870,
      "Ġentrance": 4871,
      "Ġguine": 4872,
      "Ġ1999": 4873,
      "Ġexpressed": 4874,
      "Ġangry": 4875,
      "Ġpursu": 4876,
      "Ġgetting": 4877,
      "Ġcatch": 4878,
      "Ġbenjamin": 4879,
      "Ġaccepted": 4880,
      "Ġenjoy": 4881,
      "Ġpossibly": 4882,
      "col": 4883,
      "sal": 4884,
      "amb": 4885,
      "Ġshop": 4886,
      "Ġtrying": 4887,
      "Ġflu": 4888,
      "Ġending": 4889,
      "Ġfamous": 4890,
      "Ġpleasant": 4891,
      "Ġphilosop": 4892,
      "Ġpitched": 4893,
      "Ġsatisfied": 4894,
      "gal": 4895,
      "Ġluc": 4896,
      "icted": 4897,
      "Ġspl": 4898,
      "Ġearned": 4899,
      "Ġconsid": 4900,
      "Ġgeneration": 4901,
      "Ġfarm": 4902,
      "Ġbarbar": 4903,
      "Ġfinding": 4904,
      "Ġsolid": 4905,
      "Ġslew": 4906,
      "Ġissued": 4907,
      "Ġjewish": 4908,
      "Ġcouple": 4909,
      "Ġcompetition": 4910,
      "Ġgalvest": 4911,
      "Ġspanish": 4912,
      "Ġchicago": 4913,
      "Ġgalveston": 4914,
      "era": 4915,
      "Ġbuster": 4916,
      "happ": 4917,
      "onc": 4918,
      "iron": 4919,
      "Ġtrain": 4920,
      "ension": 4921,
      "Ġannual": 4922,
      "Ġ1950": 4923,
      "Ġcombat": 4924,
      "hum": 4925,
      "pleas": 4926,
      "Ġtun": 4927,
      "Ġrein": 4928,
      "etic": 4929,
      "Ġaside": 4930,
      "Ġmyst": 4931,
      "Ġlock": 4932,
      "Ġenergy": 4933,
      "areth": 4934,
      "Ġends": 4935,
      "Ġsins": 4936,
      "Ġ70": 4937,
      "Ġorders": 4938,
      "Ġviolence": 4939,
      "Ġconducted": 4940,
      "Ġearnest": 4941,
      "Ġacknow": 4942,
      "aan": 4943,
      "away": 4944,
      "bird": 4945,
      "kins": 4946,
      "Ġcattle": 4947,
      "Ġabandon": 4948,
      "Ġlikewise": 4949,
      "Ġbreast": 4950,
      "Ġphot": 4951,
      "Ġburst": 4952,
      "Ġobserv": 4953,
      "Ġqueequeg": 4954,
      "Ġaudience": 4955,
      "bot": 4956,
      "ez": 4957,
      "ear": 4958,
      "went": 4959,
      "Ġtons": 4960,
      "Ġaven": 4961,
      "Ġwars": 4962,
      "atops": 4963,
      "acles": 4964,
      "Ġconference": 4965,
      "Ġsaf": 4966,
      "Ġlevi": 4967,
      "Ġdoctor": 4968,
      "Ġbuy": 4969,
      "Ġslay": 4970,
      "Ġtribes": 4971,
      "Ġepisodes": 4972,
      "Ġgraph": 4973,
      "Ġthousands": 4974,
      "Ġterror": 4975,
      "Ġcreature": 4976,
      "water": 4977,
      "yard": 4978,
      "edar": 4979,
      "Ġluck": 4980,
      "ads": 4981,
      "raim": 4982,
      "Ġchina": 4983,
      "Ġchronic": 4984,
      "Ġfocus": 4985,
      "Ġsomewhat": 4986,
      "Ġeliz": 4987,
      "Ġhearing": 4988,
      "Ġwaiting": 4989,
      "Ġcounsel": 4990,
      "Ġmurder": 4991,
      "Ġaccompl": 4992,
      "Ġitalian": 4993,
      "een": 4994,
      "orney": 4995,
      "ases": 4996,
      "Ġetern": 4997,
      "ading": 4998,
      "Ġconcept": 4999,
      "eman": 5000,
      "Ġextended": 5001,
      "Ġresc": 5002,
      "Ġbegun": 5003,
      "Ġincor": 5004,
      "Ġsingles": 5005,
      "Ġdescription": 5006,
      "Ġhonor": 5007,
      "Ġdifference": 5008,
      "Ġrequire": 5009,
      "Ġbesides": 5010,
      "Ġaffected": 5011,
      "Ġtraditional": 5012,
      "Ġhuge": 5013,
      "Ġcontemporary": 5014,
      "Ġceremon": 5015,
      "bid": 5016,
      "Ġwaves": 5017,
      "Ġfarther": 5018,
      "rog": 5019,
      "Ġanth": 5020,
      "Ġprogress": 5021,
      "bery": 5022,
      "Ġchari": 5023,
      "Ġtexas": 5024,
      "Ġclay": 5025,
      "Ġ37": 5026,
      "Ġ400": 5027,
      "ogue": 5028,
      "Ġpassion": 5029,
      "Ġsimply": 5030,
      "Ġconfess": 5031,
      "Ġleaders": 5032,
      "Ġburns": 5033,
      "Ġeasily": 5034,
      "Ġafrican": 5035,
      "Ġott": 5036,
      "Ġwriters": 5037,
      "Ġdistrict": 5038,
      "rical": 5039,
      "inal": 5040,
      "lle": 5041,
      "Ġkick": 5042,
      "Ġjump": 5043,
      "Ġrand": 5044,
      "elinor": 5045,
      "ifying": 5046,
      "Ġrod": 5047,
      "Ġtears": 5048,
      "Ġconser": 5049,
      "Ġslain": 5050,
      "Ġpolish": 5051,
      "Ġfloor": 5052,
      "Ġdemand": 5053,
      "Ġnarrow": 5054,
      "Ġbeasts": 5055,
      "Ġadmiral": 5056,
      "Ġtheatre": 5057,
      "Ġpiano": 5058,
      "bing": 5059,
      "Ġbri": 5060,
      "Ġfright": 5061,
      "Ġnap": 5062,
      "Ġmem": 5063,
      "Ġmanagement": 5064,
      "Ġfond": 5065,
      "Ġ33": 5066,
      "Ġrif": 5067,
      "Ġjoe": 5068,
      "Ġcarp": 5069,
      "Ġartic": 5070,
      "Ġdelay": 5071,
      "Ġsecretary": 5072,
      "morrow": 5073,
      "Ġinspired": 5074,
      "sion": 5075,
      "held": 5076,
      "Ġdar": 5077,
      "Ġgaz": 5078,
      "Ġkr": 5079,
      "Ġdemo": 5080,
      "ems": 5081,
      "Ġ75": 5082,
      "ekiah": 5083,
      "Ġmetal": 5084,
      "Ġcondoms": 5085,
      "Ġholding": 5086,
      "Ġattacks": 5087,
      "Ġheavily": 5088,
      "Ġattempts": 5089,
      "Ġattempted": 5090,
      "Ġtracks": 5091,
      "Ġinitial": 5092,
      "Ġwounded": 5093,
      "Ġavoid": 5094,
      "uk": 5095,
      "Ġmour": 5096,
      "Ġgain": 5097,
      "astic": 5098,
      "Ġarts": 5099,
      "Ġarise": 5100,
      "Ġmoab": 5101,
      "Ġsched": 5102,
      "aret": 5103,
      "Ġ47": 5104,
      "Ġ90": 5105,
      "Ġrights": 5106,
      "Ġassociated": 5107,
      "Ġawarded": 5108,
      "Ġmartin": 5109,
      "Ġcubits": 5110,
      "aper": 5111,
      "pret": 5112,
      "Ġhither": 5113,
      "Ġsust": 5114,
      "olute": 5115,
      "ulations": 5116,
      "Ġdepth": 5117,
      "Ġproduce": 5118,
      "Ġ1940": 5119,
      "Ġcontrovers": 5120,
      "Ġconvin": 5121,
      "Ġbecomes": 5122,
      "hire": 5123,
      "Ġwol": 5124,
      "Ġbart": 5125,
      "Ġgained": 5126,
      "abeth": 5127,
      "Ġleon": 5128,
      "Ġdoct": 5129,
      "Ġ300": 5130,
      "Ġqual": 5131,
      "Ġprey": 5132,
      "Ġgrown": 5133,
      "Ġ1998": 5134,
      "Ġplanned": 5135,
      "Ġimportance": 5136,
      "Ġproteins": 5137,
      "Ġdomestic": 5138,
      "Ġcyclone": 5139,
      "Ã³n": 5140,
      "came": 5141,
      "mes": 5142,
      "rey": 5143,
      "Ġlies": 5144,
      "Ġrede": 5145,
      "Ġalle": 5146,
      "istics": 5147,
      "Ġfeed": 5148,
      "Ġquality": 5149,
      "Ġwherein": 5150,
      "Ġremn": 5151,
      "Ġmaxim": 5152,
      "Ġexped": 5153,
      "Ġstatus": 5154,
      "Ġmortal": 5155,
      "Ġseasons": 5156,
      "Ġslightly": 5157,
      "Ġvirginia": 5158,
      "Ġsunday": 5159,
      "asons": 5160,
      "omic": 5161,
      "Ġrebu": 5162,
      "ental": 5163,
      "Ġiv": 5164,
      "Ġyield": 5165,
      "Ġashamed": 5166,
      "Ġvic": 5167,
      "Ġsports": 5168,
      "Ġattorney": 5169,
      "Ġsubur": 5170,
      "Ġraise": 5171,
      "Ġruss": 5172,
      "Ġrussell": 5173,
      "Ġcasual": 5174,
      "Ġhistorical": 5175,
      "Ġcommented": 5176,
      "Ġscotland": 5177,
      "lady": 5178,
      "Ġaz": 5179,
      "Ġmast": 5180,
      "Ġnur": 5181,
      "Ġreward": 5182,
      "Ġalkan": 5183,
      "Ġplum": 5184,
      "Ġ1930": 5185,
      "Ġlog": 5186,
      "ountain": 5187,
      "mances": 5188,
      "Ġunderstood": 5189,
      "Ġapple": 5190,
      "Ġtribut": 5191,
      "Ġtransl": 5192,
      "Ġwindows": 5193,
      "Ġcurious": 5194,
      "Ġheavens": 5195,
      "Ġdefense": 5196,
      "Ġtownsend": 5197,
      "Ġappearances": 5198,
      "Ġpositions": 5199,
      "Ġscreen": 5200,
      "Ġliverpool": 5201,
      "hic": 5202,
      "Ġton": 5203,
      "Ġlane": 5204,
      "icip": 5205,
      "Ġec": 5206,
      "chief": 5207,
      "berg": 5208,
      "Ġknock": 5209,
      "Ġuses": 5210,
      "Ġaccident": 5211,
      "Ġ1993": 5212,
      "Ġalbums": 5213,
      "ylvan": 5214,
      "Ġstarbuck": 5215,
      "Ġsecure": 5216,
      "Ġlisten": 5217,
      "Ġgirls": 5218,
      "Ġsurprise": 5219,
      "Ġterrible": 5220,
      "Ġexcellent": 5221,
      "Ġsomerset": 5222,
      "Ġperformances": 5223,
      "found": 5224,
      "lings": 5225,
      "yria": 5226,
      "Ġ+": 5227,
      "Ġcous": 5228,
      "Ġlod": 5229,
      "Ġnixon": 5230,
      "Ġdoors": 5231,
      "Ġbold": 5232,
      "Ġmarg": 5233,
      "119": 5234,
      "Ġgives": 5235,
      "Ġbapt": 5236,
      "oon": 5237,
      "Ġice": 5238,
      "Ġray": 5239,
      "Ġmechan": 5240,
      "ours": 5241,
      "Ġabund": 5242,
      "Ġpride": 5243,
      "Ġthanks": 5244,
      "Ġrecent": 5245,
      "Ġproducer": 5246,
      "Ġcecil": 5247,
      "Ġtemp": 5248,
      "Ġimagine": 5249,
      "Ġlearned": 5250,
      "Ġfrederick": 5251,
      "51": 5252,
      "del": 5253,
      "pres": 5254,
      "Ġmap": 5255,
      "Ġbeth": 5256,
      "ali": 5257,
      "Ġshock": 5258,
      "Ġchamber": 5259,
      "Ġtender": 5260,
      "Ġhousehold": 5261,
      "Ġcountenance": 5262,
      "Ġpersons": 5263,
      "Ġtrial": 5264,
      "ribution": 5265,
      "Ġencoun": 5266,
      "ella": 5267,
      "Ġtarget": 5268,
      "Ġcustom": 5269,
      "Ġopportunity": 5270,
      "first": 5271,
      "iently": 5272,
      "lers": 5273,
      "haz": 5274,
      "Ġfulf": 5275,
      "entions": 5276,
      "ura": 5277,
      "odon": 5278,
      "Ġnotice": 5279,
      "Ġaltern": 5280,
      "rows": 5281,
      "ologist": 5282,
      "Ġlegs": 5283,
      "Ġpractice": 5284,
      "Ġlucy": 5285,
      "Ġextremely": 5286,
      "lest": 5287,
      "made": 5288,
      "Ġbought": 5289,
      "Ġcert": 5290,
      "itz": 5291,
      "Ġdrop": 5292,
      "asp": 5293,
      "Ġeth": 5294,
      "acious": 5295,
      "things": 5296,
      "ilst": 5297,
      "Ġrome": 5298,
      "rable": 5299,
      "Ġmanaged": 5300,
      "pted": 5301,
      "Ġchose": 5302,
      "Ġtext": 5303,
      "Ġflower": 5304,
      "Ġsets": 5305,
      "Ġactions": 5306,
      "Ġguess": 5307,
      "Ġsinger": 5308,
      "Ġportray": 5309,
      "Ġdestruction": 5310,
      "Ġchem": 5311,
      "engers": 5312,
      "Ġmosley": 5313,
      "Ġlabor": 5314,
      "Ġcombined": 5315,
      "Ġactivity": 5316,
      "Ġindependence": 5317,
      "Ġwithdraw": 5318,
      "Ġalex": 5319,
      "Ġcommittee": 5320,
      "Ġmales": 5321,
      "Ġpine": 5322,
      "anas": 5323,
      "Ġnigh": 5324,
      "Ġisa": 5325,
      "Ġattended": 5326,
      "Ġvia": 5327,
      "ulous": 5328,
      "arest": 5329,
      "Ġ1996": 5330,
      "Ġbusch": 5331,
      "Ġorganization": 5332,
      "Ġdetect": 5333,
      "Ġclouds": 5334,
      "Ġelders": 5335,
      "Ġvocal": 5336,
      "Ġselected": 5337,
      "Ġfowler": 5338,
      "ijah": 5339,
      "full": 5340,
      "lie": 5341,
      "sylvan": 5342,
      "vis": 5343,
      "Ġaid": 5344,
      "Ġahead": 5345,
      "inite": 5346,
      "Ġsar": 5347,
      "Ġbat": 5348,
      "Ġna": 5349,
      "Ġisab": 5350,
      "cting": 5351,
      "pered": 5352,
      "Ġotherwise": 5353,
      "Ġknowing": 5354,
      "Ġmission": 5355,
      "Ġproperty": 5356,
      "Ġanimal": 5357,
      "Ġflowers": 5358,
      "Ġnuclear": 5359,
      "Ġpennsylvan": 5360,
      "cour": 5361,
      "Ġcow": 5362,
      "Ġpick": 5363,
      "Ġlos": 5364,
      "Ġgos": 5365,
      "Ġfrag": 5366,
      "Ġroof": 5367,
      "iana": 5368,
      "Ġthank": 5369,
      "Ġadvanced": 5370,
      "Ġvisited": 5371,
      "Ġmodel": 5372,
      "chester": 5373,
      "Ġhoped": 5374,
      "Ġcandid": 5375,
      "Ġcircumstances": 5376,
      "till": 5377,
      "Ġbos": 5378,
      "Ġmun": 5379,
      "Ġeve": 5380,
      "Ġworst": 5381,
      "Ġrespo": 5382,
      "Ġindu": 5383,
      "Ġtrave": 5384,
      "Ġpromotion": 5385,
      "Ġcondition": 5386,
      "Ġcarolina": 5387,
      "Ġbass": 5388,
      "Ġcott": 5389,
      "Ġstir": 5390,
      "quod": 5391,
      "abor": 5392,
      "Ġaffect": 5393,
      "Ġscale": 5394,
      "Ġoffensive": 5395,
      "been": 5396,
      "Ġplays": 5397,
      "mond": 5398,
      "Ġsteam": 5399,
      "pole": 5400,
      "Ġattacked": 5401,
      "Ġallowing": 5402,
      "Ġfederal": 5403,
      "Ġdifficulty": 5404,
      "two": 5405,
      "ipe": 5406,
      "Ġcit": 5407,
      "Ġmam": 5408,
      "Ġpity": 5409,
      "aria": 5410,
      "Ġlying": 5411,
      "Ġwashing": 5412,
      "imately": 5413,
      "verted": 5414,
      "Ġstad": 5415,
      "Ġjim": 5416,
      "ulate": 5417,
      "osite": 5418,
      "Ġlose": 5419,
      "Ġprice": 5420,
      "Ġchains": 5421,
      "Ġturns": 5422,
      "Ġnearby": 5423,
      "Ġsecurity": 5424,
      "Ġreading": 5425,
      "Ġgentlemen": 5426,
      "Ġreduced": 5427,
      "Ġvoyage": 5428,
      "Ġwhosoever": 5429,
      "law": 5430,
      "Ġmars": 5431,
      "llect": 5432,
      "Ġnico": 5433,
      "Ġweaken": 5434,
      "unning": 5435,
      "loved": 5436,
      "Ġbob": 5437,
      "phy": 5438,
      "Ġgermany": 5439,
      "Ġcultural": 5440,
      "Ġreligion": 5441,
      "Ġpicture": 5442,
      "ieth": 5443,
      "ker": 5444,
      "Ġfel": 5445,
      "Ġfame": 5446,
      "uten": 5447,
      "Ġkid": 5448,
      "alls": 5449,
      "Ġsabb": 5450,
      "Ġabomin": 5451,
      "Ġinches": 5452,
      "Ġcommandments": 5453,
      "Ġangels": 5454,
      "Ġburning": 5455,
      "Ġhotel": 5456,
      "Ġduke": 5457,
      "Ġsteps": 5458,
      "rupted": 5459,
      "Ġvocals": 5460,
      "saying": 5461,
      "Ġwelcome": 5462,
      "Ġweapons": 5463,
      "Ġfestival": 5464,
      "Ġanalys": 5465,
      "Ġsafety": 5466,
      "Ġsabbath": 5467,
      "'re": 5468,
      "),": 5469,
      "bod": 5470,
      "mod": 5471,
      "Ġfurn": 5472,
      "Ġstore": 5473,
      "essa": 5474,
      "Ġthemes": 5475,
      "udes": 5476,
      "Ġtrump": 5477,
      "Ġperry": 5478,
      "apo": 5479,
      "Ġsym": 5480,
      "Ġacts": 5481,
      "Ġmusg": 5482,
      "Ġdistingu": 5483,
      "Ġaddress": 5484,
      "Ġbattles": 5485,
      "Ġburned": 5486,
      "Ġcreation": 5487,
      "iami": 5488,
      "Ġclaims": 5489,
      "Ġregarded": 5490,
      "Ġchoose": 5491,
      "Ġwidely": 5492,
      "Ġcompanion": 5493,
      "Ġduty": 5494,
      "Ġfierce": 5495,
      "wick": 5496,
      "Ġcin": 5497,
      "Ġreasons": 5498,
      "Ġmeyer": 5499,
      "Ġchor": 5500,
      "Ġcole": 5501,
      "force": 5502,
      "Ġprefer": 5503,
      "ĠĠĠĠĠĠ": 5504,
      "Ġcricket": 5505,
      "Ġsmoke": 5506,
      "cript": 5507,
      "Ġspecim": 5508,
      "Ġmeanwhile": 5509,
      "Ġanimals": 5510,
      "Ġemployed": 5511,
      "Ġsexual": 5512,
      "Ġscarce": 5513,
      "Ġpennsylvania": 5514,
      ").": 5515,
      "kin": 5516,
      "mosp": 5517,
      "sen": 5518,
      "orous": 5519,
      "Ġdag": 5520,
      "Ġet": 5521,
      "imp": 5522,
      "Ġsell": 5523,
      "Ġridge": 5524,
      "iance": 5525,
      "Ġpool": 5526,
      "Ġfold": 5527,
      "Ġ48": 5528,
      "Ġshoulder": 5529,
      "Ġentering": 5530,
      "Ġfounded": 5531,
      "Ġ1997": 5532,
      "Ġconcent": 5533,
      "Ġtowns": 5534,
      "Ġvehic": 5535,
      "Ġfreed": 5536,
      "Ġcases": 5537,
      "Ġfolk": 5538,
      "Ġdisease": 5539,
      "Ġmiami": 5540,
      "itated": 5541,
      "Ġstro": 5542,
      "rial": 5543,
      "Ġatmosp": 5544,
      "Ġexer": 5545,
      "Ġexhib": 5546,
      "Ġperman": 5547,
      "Ġworkers": 5548,
      "Ġeverybody": 5549,
      "Ġolder": 5550,
      "Ġsetting": 5551,
      "Ġsupply": 5552,
      "Ġedition": 5553,
      "Ġjerem": 5554,
      "boam": 5555,
      "Ġconditions": 5556,
      "Ġillust": 5557,
      "Ġdeclare": 5558,
      "Ġpalace": 5559,
      "Ġideas": 5560,
      "Ġflee": 5561,
      "Ġbeyonc": 5562,
      "Ġpuzz": 5563,
      "Ġcabin": 5564,
      "Ġrapidly": 5565,
      "Ġinstrument": 5566,
      "Ġnewspaper": 5567,
      "Ġcomedy": 5568,
      "ĠbeyoncÃ©": 5569,
      "pie": 5570,
      "reth": 5571,
      "Ġlift": 5572,
      "seen": 5573,
      "vering": 5574,
      "Ġjaw": 5575,
      "Ġrum": 5576,
      "Ġconqu": 5577,
      "ardon": 5578,
      "Ġsche": 5579,
      "tending": 5580,
      "Ġclim": 5581,
      "Ġpointed": 5582,
      "Ġnorthwest": 5583,
      "boy": 5584,
      "Ġblock": 5585,
      "Ġlegal": 5586,
      "Ġlevels": 5587,
      "Ġprotein": 5588,
      "Ġcopies": 5589,
      "Ġlaughing": 5590,
      "Ã¡n": 5591,
      "Ġbeneath": 5592,
      "Ġjonathan": 5593,
      "Ġcadm": 5594,
      "bles": 5595,
      "ris": 5596,
      "rane": 5597,
      "va": 5598,
      "Ġsi": 5599,
      "Ġoffe": 5600,
      "ander": 5601,
      "Ġkiss": 5602,
      "Ġrab": 5603,
      "Ġconve": 5604,
      "inde": 5605,
      "Ġpeaked": 5606,
      "Ġflank": 5607,
      "Ġemotion": 5608,
      "Ġmatches": 5609,
      "Ġsimon": 5610,
      "Ġalongside": 5611,
      "Ġhurt": 5612,
      "Ġpattern": 5613,
      "Ġexplained": 5614,
      "Ġconsiderable": 5615,
      "track": 5616,
      "culiar": 5617,
      "Ġacademy": 5618,
      "za": 5619,
      "hah": 5620,
      "ican": 5621,
      "alous": 5622,
      "ros": 5623,
      "irs": 5624,
      "Ġanton": 5625,
      "agan": 5626,
      "Ġmanners": 5627,
      "Ġouter": 5628,
      "Ġprime": 5629,
      "Ġchapel": 5630,
      "Ġcontain": 5631,
      "Ġreports": 5632,
      "Ġinterse": 5633,
      "Ġholds": 5634,
      "Ġmemory": 5635,
      "lies": 5636,
      "Ġic": 5637,
      "Ġheb": 5638,
      "Ġgrie": 5639,
      "Ġreigned": 5640,
      "acts": 5641,
      "Ġjul": 5642,
      "Ġrug": 5643,
      "ainted": 5644,
      "Ġsov": 5645,
      "Ġabroad": 5646,
      "Ġnose": 5647,
      "Ġroll": 5648,
      "Ġbrass": 5649,
      "Ġmock": 5650,
      "Ġ34": 5651,
      "Ġfollows": 5652,
      "aughter": 5653,
      "Ġconfidence": 5654,
      "Ġfalling": 5655,
      "Ġjackson": 5656,
      "Ġrespectively": 5657,
      "Ġephraim": 5658,
      "Ġcadmium": 5659,
      "ox": 5660,
      "sl": 5661,
      "Ġbishop": 5662,
      "Ġfet": 5663,
      "ington": 5664,
      "Ġinch": 5665,
      "Ġeag": 5666,
      "Ġhaven": 5667,
      "Ġthro": 5668,
      "Ġreven": 5669,
      "Ġwhither": 5670,
      "cho": 5671,
      "istry": 5672,
      "Ġwilling": 5673,
      "Ġchapter": 5674,
      "Ġteacher": 5675,
      "Ġpequod": 5676,
      "beer": 5677,
      "iedro": 5678,
      "Ġgenus": 5679,
      "Ġchannel": 5680,
      "Ġcorre": 5681,
      "Ġbrothers": 5682,
      "Ġpitch": 5683,
      "Ġeffort": 5684,
      "Ġefforts": 5685,
      "whale": 5686,
      "Ġrejected": 5687,
      "Ġmovie": 5688,
      "Ġdemocr": 5689,
      "60": 5690,
      "gent": 5691,
      "tim": 5692,
      "Ġori": 5693,
      "Ġnes": 5694,
      "Ġreaching": 5695,
      "Ġtend": 5696,
      "fulness": 5697,
      "Ġacting": 5698,
      "Ġformation": 5699,
      "Ġnumbered": 5700,
      "Ġartists": 5701,
      "Ġcolumb": 5702,
      "Ġ1991": 5703,
      "Ġsentence": 5704,
      "Ġopposite": 5705,
      "Ġsoundtrack": 5706,
      "Ġincreasing": 5707,
      "Ġarrival": 5708,
      "Ġgrowth": 5709,
      "Ġdaniel": 5710,
      "Ġpoems": 5711,
      "Ġachieved": 5712,
      "Ġsolemn": 5713,
      "Ġresponsible": 5714,
      "Ġentertainment": 5715,
      "Ġbehaviour": 5716,
      "ufact": 5717,
      "iated": 5718,
      "lar": 5719,
      "lot": 5720,
      "Ġsales": 5721,
      "isation": 5722,
      "Ġpack": 5723,
      "ani": 5724,
      "Ġgil": 5725,
      "Ġka": 5726,
      "Ġscoring": 5727,
      "Ġcommitted": 5728,
      "Ġgrat": 5729,
      "Ġgray": 5730,
      "Ġswim": 5731,
      "Ġelement": 5732,
      "Ġchris": 5733,
      "Ġdescribes": 5734,
      "Ġtitles": 5735,
      "Ġillino": 5736,
      "Ġtypes": 5737,
      "Ġtypically": 5738,
      "Ġforgotten": 5739,
      "looking": 5740,
      "ele": 5741,
      "ãĥ": 5742,
      "Ġinner": 5743,
      "atives": 5744,
      "ashed": 5745,
      "oty": 5746,
      "Ġstick": 5747,
      "Ġkak": 5748,
      "hanna": 5749,
      "Ġworthy": 5750,
      "perhaps": 5751,
      "Ġadvert": 5752,
      "Ġdisappe": 5753,
      "ailed": 5754,
      "Ġminnes": 5755,
      "Ġcapture": 5756,
      "Ġyounger": 5757,
      "Ġabsolute": 5758,
      "Ġlouis": 5759,
      "Ġactivities": 5760,
      "Ġnarr": 5761,
      "Ġbitter": 5762,
      "Ġtouchdown": 5763,
      "Ġfrequently": 5764,
      "Ġhartfield": 5765,
      "Ġenviron": 5766,
      "Ġdedicated": 5767,
      "Ġstadium": 5768,
      "iable": 5769,
      "must": 5770,
      "Ġanderson": 5771,
      "Ġdub": 5772,
      "Ġgab": 5773,
      "Ġgreek": 5774,
      "Ġreference": 5775,
      "those": 5776,
      "Ġweep": 5777,
      "took": 5778,
      "uled": 5779,
      "Ġprove": 5780,
      "Ġspite": 5781,
      "Ġcanaan": 5782,
      "Ġ49": 5783,
      "Ġowned": 5784,
      "Ġretired": 5785,
      "Ġimpact": 5786,
      "azz": 5787,
      "Ġobserve": 5788,
      "Ġruler": 5789,
      "iosity": 5790,
      "Ġbrutus": 5791,
      "Ġelizabeth": 5792,
      "Ġisabella": 5793,
      "bro": 5794,
      "gad": 5795,
      "iant": 5796,
      "mel": 5797,
      "isl": 5798,
      "ories": 5799,
      "Ġstating": 5800,
      "ills": 5801,
      "Ġshel": 5802,
      "Ġresist": 5803,
      "Ġnortheast": 5804,
      "Ġseconds": 5805,
      "Ġ1992": 5806,
      "Ġ1994": 5807,
      "Ġnathan": 5808,
      "Ġbringing": 5809,
      "Ġdriven": 5810,
      "Ġsalvation": 5811,
      "Ġbraat": 5812,
      "Ġnaval": 5813,
      "Ġfoolish": 5814,
      "Ġminnesota": 5815,
      "burn": 5816,
      "dy": 5817,
      "Ġtent": 5818,
      "inity": 5819,
      "Ġlosing": 5820,
      "Ġner": 5821,
      "Ġbeloved": 5822,
      "ione": 5823,
      "sec": 5824,
      "Ġrolling": 5825,
      "Ġresulted": 5826,
      "Ġengagement": 5827,
      "Ġactress": 5828,
      "Ġzion": 5829,
      "Ġdistant": 5830,
      "Ġcaptains": 5831,
      "Ġconflict": 5832,
      "Ġcurse": 5833,
      "Ġmainly": 5834,
      "Ġcondom": 5835,
      "Ġplanet": 5836,
      "Ġdefend": 5837,
      "Ġferr": 5838,
      "Ġphysical": 5839,
      "Ġhawai": 5840,
      "Ġdemonstr": 5841,
      "wide": 5842,
      "Åį": 5843,
      "inn": 5844,
      "Ġsink": 5845,
      "Ġcart": 5846,
      "Ġlit": 5847,
      "stru": 5848,
      "among": 5849,
      "Ġstan": 5850,
      "anta": 5851,
      "Ġlords": 5852,
      "Ġscul": 5853,
      "Ġresidents": 5854,
      "Ġharm": 5855,
      "Ġkindness": 5856,
      "Ġmorrow": 5857,
      "Ġissues": 5858,
      "Ġconnected": 5859,
      "Ġexclaimed": 5860,
      "Ġintelligence": 5861,
      "friend": 5862,
      "jer": 5863,
      "walk": 5864,
      "erate": 5865,
      "Ġcraft": 5866,
      "Ġtomb": 5867,
      "Ġhez": 5868,
      "Ġkir": 5869,
      "Ġjur": 5870,
      "Ġunus": 5871,
      "Ġvn": 5872,
      "Ġmanufact": 5873,
      "Ġlege": 5874,
      "Ġspain": 5875,
      "ounded": 5876,
      "Ġscattered": 5877,
      "athus": 5878,
      "inkel": 5879,
      "Ġcrime": 5880,
      "Ġattached": 5881,
      "Ġapplic": 5882,
      "Ġbreaking": 5883,
      "Ġelev": 5884,
      "coming": 5885,
      "Ġeurop": 5886,
      "Ġhamlet": 5887,
      "Ġfeaturing": 5888,
      "Ġprayer": 5889,
      "Ġauthorities": 5890,
      "Ġearliest": 5891,
      "Ġemploy": 5892,
      "Ġgranted": 5893,
      "Ġrisk": 5894,
      "Ġtruly": 5895,
      "Ġottoman": 5896,
      "Ġkakapo": 5897,
      "Ġsang": 5898,
      "erable": 5899,
      "Ġfate": 5900,
      "isha": 5901,
      "Ġnay": 5902,
      "Ġgang": 5903,
      "otes": 5904,
      "Ġrend": 5905,
      "Ġwaste": 5906,
      "Ġrub": 5907,
      "Ġvul": 5908,
      "Ġshell": 5909,
      "Ġability": 5910,
      "Ġfeared": 5911,
      "Ġprecious": 5912,
      "Ġappoint": 5913,
      "Ġassure": 5914,
      "Ġassault": 5915,
      "Ġjeho": 5916,
      "Ġleader": 5917,
      "Ġopera": 5918,
      "Ġmoments": 5919,
      "Ġrosebery": 5920,
      "Ġsettle": 5921,
      "Ġkilomet": 5922,
      "Ġmeyerbeer": 5923,
      "uer": 5924,
      "yr": 5925,
      "ãģ": 5926,
      "Ġtig": 5927,
      "Ġtied": 5928,
      "Ġax": 5929,
      "Ġbates": 5930,
      "isy": 5931,
      "ourable": 5932,
      "ano": 5933,
      "Ġease": 5934,
      "Ġbeard": 5935,
      "utions": 5936,
      "think": 5937,
      "Ġwhilst": 5938,
      "Ġwebs": 5939,
      "Ġuns": 5940,
      "Ġaltogether": 5941,
      "Ġshiva": 5942,
      "Ġmob": 5943,
      "Ġgodd": 5944,
      "Ġdidst": 5945,
      "Ġempty": 5946,
      "Ġfinals": 5947,
      "Ġ76": 5948,
      "Ġvoices": 5949,
      "Ġelected": 5950,
      "Ġdistress": 5951,
      "Ġstands": 5952,
      "Ġwatching": 5953,
      "Ġwoods": 5954,
      "Ġlegisl": 5955,
      "Ġegyptian": 5956,
      "Ġtournament": 5957,
      "Ġmessage": 5958,
      "Ġoccupied": 5959,
      "Ġadopted": 5960,
      "Ġdesolate": 5961,
      "Ġconvinced": 5962,
      "chen": 5963,
      "pers": 5964,
      "Ġai": 5965,
      "Ġoak": 5966,
      "Ġcore": 5967,
      "Ġfinkel": 5968,
      "Ġandrew": 5969,
      "Ġthither": 5970,
      "Ġkh": 5971,
      "Ġunre": 5972,
      "umes": 5973,
      "quis": 5974,
      "Ġbrain": 5975,
      "Ġpeculiar": 5976,
      "Ġresults": 5977,
      "Ġflat": 5978,
      "Ġ42": 5979,
      "angers": 5980,
      "Ġguide": 5981,
      "Ġchurches": 5982,
      "Ġrevol": 5983,
      "Ġwatched": 5984,
      "Ġoppon": 5985,
      "Ġthrown": 5986,
      "Ġshewed": 5987,
      "Ġexcav": 5988,
      "Ġwalpole": 5989,
      "break": 5990,
      "Ġmemorial": 5991,
      "Ġguinea": 5992,
      "Ġincorpor": 5993,
      "Ġcasualties": 5994,
      "Ġfinkelstein": 5995,
      "pent": 5996,
      "Ġtessa": 5997,
      "Ġmild": 5998,
      "Ġthor": 5999,
      "Ġyue": 6000,
      "Ġalab": 6001,
      "Ġdismiss": 6002,
      "Ġyours": 6003,
      "Ġsmo": 6004,
      "hess": 6005,
      "Ġzo": 6006,
      "Ġtermin": 6007,
      "Ġsigns": 6008,
      "Ġlaws": 6009,
      "Ġ150": 6010,
      "anches": 6011,
      "Ġvert": 6012,
      "Ġaccompan": 6013,
      "Ġvolume": 6014,
      "Ġsurrounding": 6015,
      "Ġgradually": 6016,
      "Ġconsequence": 6017,
      "Ġremembered": 6018,
      "Ġultimately": 6019,
      "Ġbattery": 6020,
      "78": 6021,
      "fts": 6022,
      "iro": 6023,
      "Ġpig": 6024,
      "Ġpaint": 6025,
      "Ġles": 6026,
      "Ġnick": 6027,
      "ache": 6028,
      "thought": 6029,
      "Ġkit": 6030,
      "achment": 6031,
      "Ġ44": 6032,
      "Ġimpat": 6033,
      "Ġprize": 6034,
      "maha": 6035,
      "Ġhelms": 6036,
      "Ġcondem": 6037,
      "therefore": 6038,
      "uese": 6039,
      "Ġsacrific": 6040,
      "Ġdissip": 6041,
      "Ġheathen": 6042,
      "Ġsanctuary": 6043,
      "Ġgospel": 6044,
      "Ġnicole": 6045,
      "pet": 6046,
      "ato": 6047,
      "Ġgas": 6048,
      "Ġgay": 6049,
      "behold": 6050,
      "Ġinvited": 6051,
      "Ġjohnson": 6052,
      "Ġerr": 6053,
      "Ġcompanions": 6054,
      "Ġspoil": 6055,
      "asseh": 6056,
      "Ġportuguese": 6057,
      "Ġwashington": 6058,
      "Ġillinois": 6059,
      "hus": 6060,
      "rets": 6061,
      "Ġple": 6062,
      "Ġpip": 6063,
      "Ġnaz": 6064,
      "Ġthrew": 6065,
      "oles": 6066,
      "Ġneut": 6067,
      "Ġsoil": 6068,
      "Ġarrest": 6069,
      "Ġcoat": 6070,
      "Ġcontaining": 6071,
      "Ġdesert": 6072,
      "Ġsmiling": 6073,
      "Ġ180": 6074,
      "Ġrestr": 6075,
      "Ġreceiving": 6076,
      "Ġeaten": 6077,
      "himself": 6078,
      "helm": 6079,
      "Ġindividuals": 6080,
      "Ġeternal": 6081,
      "Ġbraathens": 6082,
      "Ġlb": 6083,
      "Ġnice": 6084,
      "Ġhait": 6085,
      "Ġkent": 6086,
      "esty": 6087,
      "rap": 6088,
      "Ġlew": 6089,
      "Ġroles": 6090,
      "Ġcomposition": 6091,
      "Ġliked": 6092,
      "Ġwhatsoever": 6093,
      "ilead": 6094,
      "Ġcommit": 6095,
      "Ġcolony": 6096,
      "Ġbelief": 6097,
      "Ġspiritual": 6098,
      "Ġcapable": 6099,
      "Ġviewers": 6100,
      "Ġsuffering": 6101,
      "Ġinfluenced": 6102,
      "Ġprimarily": 6103,
      "Ġsequence": 6104,
      "Ġvietnam": 6105,
      "something": 6106,
      "onymous": 6107,
      "Ġcecilia": 6108,
      "Ġsoviet": 6109,
      "bitt": 6110,
      "iate": 6111,
      "vous": 6112,
      "zen": 6113,
      "Ġtint": 6114,
      "Ġtheory": 6115,
      "Ġwet": 6116,
      "Ġdart": 6117,
      "anne": 6118,
      "Ġfors": 6119,
      "lde": 6120,
      "Ġframe": 6121,
      "Ġsupre": 6122,
      "Ġshield": 6123,
      "Ġplate": 6124,
      "Ġwhence": 6125,
      "Ġnewly": 6126,
      "Ġindic": 6127,
      "Ġcrus": 6128,
      "Ġbasis": 6129,
      "Ġpropos": 6130,
      "Ġflock": 6131,
      "Ġvillages": 6132,
      "going": 6133,
      "Ġemphas": 6134,
      "Ġrepresented": 6135,
      "Ġmiddleton": 6136,
      "Ġofficials": 6137,
      "Ġflooding": 6138,
      "Ġescaped": 6139,
      "Ġconfirmed": 6140,
      "equ": 6141,
      "make": 6142,
      "rus": 6143,
      "Ġau": 6144,
      "Ġsed": 6145,
      "Ġstern": 6146,
      "respo": 6147,
      "Ġflam": 6148,
      "whom": 6149,
      "Ġputting": 6150,
      "Ġdistur": 6151,
      "Ġcommonly": 6152,
      "Ġhistoric": 6153,
      "Ġrainfall": 6154,
      "Ġprepare": 6155,
      "Ġwelsh": 6156,
      "Ġscholars": 6157,
      "Ġcomputer": 6158,
      "hur": 6159,
      "Ġ*": 6160,
      "het": 6161,
      "Ġsr": 6162,
      "Ġfaced": 6163,
      "Ġfaint": 6164,
      "Ġmes": 6165,
      "Ġken": 6166,
      "Ġproof": 6167,
      "ortion": 6168,
      "Ġlibr": 6169,
      "izes": 6170,
      "Ġcontinues": 6171,
      "Ġceres": 6172,
      "Ġmilk": 6173,
      "Ġhandsome": 6174,
      "Ġhurry": 6175,
      "Ġmedical": 6176,
      "Ġantimony": 6177,
      "Ġhyd": 6178,
      "Ġbullock": 6179,
      "Ġmistress": 6180,
      "Ġodd": 6181,
      "Ġhomes": 6182,
      "far": 6183,
      "life": 6184,
      "vol": 6185,
      "war": 6186,
      "ya": 6187,
      "Ġ`": 6188,
      "Ġtank": 6189,
      "Ġcens": 6190,
      "Ġmich": 6191,
      "Ġdata": 6192,
      "Ġlap": 6193,
      "Ġegg": 6194,
      "still": 6195,
      "Ġupright": 6196,
      "igan": 6197,
      "Ġlee": 6198,
      "Ġlover": 6199,
      "Ġfey": 6200,
      "fection": 6201,
      "loc": 6202,
      "Ġjoint": 6203,
      "actions": 6204,
      "Ġstrate": 6205,
      "Ġsurre": 6206,
      "Ġcease": 6207,
      "Ġdefensive": 6208,
      "Ġ1986": 6209,
      "Ġroads": 6210,
      "Ġrooms": 6211,
      "Ġaware": 6212,
      "Ġvanity": 6213,
      "Ġcrazy": 6214,
      "Ġrailway": 6215,
      "Ġsources": 6216,
      "Ġcollected": 6217,
      "Ġselfe": 6218,
      "Ġhearken": 6219,
      "Ġjeremiah": 6220,
      "Ġalabama": 6221,
      "aen": 6222,
      "bread": 6223,
      "gas": 6224,
      "lines": 6225,
      "non": 6226,
      "Ġsarn": 6227,
      "itors": 6228,
      "Ġpier": 6229,
      "Ġwear": 6230,
      "ordinary": 6231,
      "pended": 6232,
      "antuck": 6233,
      "oking": 6234,
      "Ġamid": 6235,
      "Ġages": 6236,
      "ishu": 6237,
      "Ġpoll": 6238,
      "Ġresolution": 6239,
      "Ġeleg": 6240,
      "Ġcaptivity": 6241,
      "Ġrestaur": 6242,
      "Ġtells": 6243,
      "Ġtitled": 6244,
      "Ġsalt": 6245,
      "Ġresulting": 6246,
      "Ġpilot": 6247,
      "Ġenvironment": 6248,
      "aiah": 6249,
      "count": 6250,
      "gers": 6251,
      "vin": 6252,
      "Ġll": 6253,
      "Ġsites": 6254,
      "Ġhem": 6255,
      "Ġgulf": 6256,
      "station": 6257,
      "Ġagric": 6258,
      "Ġwhereas": 6259,
      "Ġcalls": 6260,
      "Ġeditor": 6261,
      "Ġamongst": 6262,
      "Ġsimps": 6263,
      "Ġmerchan": 6264,
      "Ġkilling": 6265,
      "Ġinteresting": 6266,
      "Ġchampion": 6267,
      "Ġfemales": 6268,
      "Ġengineer": 6269,
      "Ġimmort": 6270,
      "Ġdutch": 6271,
      "Ġcarrying": 6272,
      "Ġassistance": 6273,
      "Ġdangerous": 6274,
      "Ġliterature": 6275,
      "Ġachieve": 6276,
      "Ġutterly": 6277,
      "Ġsucceeded": 6278,
      "Ġsymbol": 6279,
      "Ġtintin": 6280,
      "fit": 6281,
      "ule": 6282,
      "wild": 6283,
      "ware": 6284,
      "Ġbore": 6285,
      "Ġbind": 6286,
      "Ġgross": 6287,
      "Ġjup": 6288,
      "Ġmanasseh": 6289,
      "Ġcoal": 6290,
      "Ġbrandon": 6291,
      "Ġpron": 6292,
      "Ġappre": 6293,
      "Ġfinanc": 6294,
      "Ġzhou": 6295,
      "Ġfriendship": 6296,
      "Ġestate": 6297,
      "Ġvaranas": 6298,
      "Ġverily": 6299,
      "Ġequip": 6300,
      "Ġequally": 6301,
      "Ġsurprised": 6302,
      "Ġdocument": 6303,
      "Ġtransferred": 6304,
      "Ġintensity": 6305,
      "Ġisaac": 6306,
      "Ġnesbitt": 6307,
      "Ġfinancial": 6308,
      "Ġvaranasi": 6309,
      "eu": 6310,
      "fish": 6311,
      "ãĤ": 6312,
      "Ġtask": 6313,
      "Ġwrest": 6314,
      "Ġcer": 6315,
      "Ġfountain": 6316,
      "Ġdil": 6317,
      "Ġrenew": 6318,
      "adel": 6319,
      "thus": 6320,
      "Ġnotable": 6321,
      "Ġmanchester": 6322,
      "Ġchap": 6323,
      "Ġparties": 6324,
      "aph": 6325,
      "Ġcharts": 6326,
      "Ġlanding": 6327,
      "Ġfinish": 6328,
      "Ġincense": 6329,
      "Ġjealous": 6330,
      "Ġcuriosity": 6331,
      "Ġstudent": 6332,
      "Ġprophes": 6333,
      "Ġcorrespo": 6334,
      "Ġargued": 6335,
      "Ġviolent": 6336,
      "Ġodaen": 6337,
      "Ġelder": 6338,
      "Ġignor": 6339,
      "Ġliberty": 6340,
      "mighty": 6341,
      "Ġprosper": 6342,
      "Ġwedding": 6343,
      "Ġanalysis": 6344,
      "Ġsculpt": 6345,
      "Ġagricult": 6346,
      "prop": 6347,
      "tv": 6348,
      "win": 6349,
      "Ġtel": 6350,
      "Ġtenth": 6351,
      "Ġwants": 6352,
      "Ġgle": 6353,
      "Ġ1920": 6354,
      "Ġmogad": 6355,
      "Ġspend": 6356,
      "ighth": 6357,
      "Ġeva": 6358,
      "Ġconscious": 6359,
      "Ġregions": 6360,
      "Ġportra": 6361,
      "Ġtelling": 6362,
      "Ġvisible": 6363,
      "pedo": 6364,
      "Ġsuspic": 6365,
      "Ġmotor": 6366,
      "Ġfaithful": 6367,
      "Ġimmediate": 6368,
      "Ġangeles": 6369,
      "Ġseparated": 6370,
      "Ġfunction": 6371,
      "Ġpulled": 6372,
      "Ġprincipal": 6373,
      "Ġexecutive": 6374,
      "Ġinnocent": 6375,
      "Ġdumont": 6376,
      "Ġodaenathus": 6377,
      "bow": 6378,
      "hl": 6379,
      "pany": 6380,
      "uct": 6381,
      "Ã¨": 6382,
      "heard": 6383,
      "Ġsaints": 6384,
      "arian": 6385,
      "Ġkore": 6386,
      "iven": 6387,
      "okes": 6388,
      "being": 6389,
      "beau": 6390,
      "Ġcontained": 6391,
      "Ġtrip": 6392,
      "Ġcells": 6393,
      "Ġhappen": 6394,
      "Ġofficially": 6395,
      "chers": 6396,
      "Ġdiscovery": 6397,
      "Ġtorpedo": 6398,
      "Ġpotential": 6399,
      "Ġpossibility": 6400,
      "Ġdigital": 6401,
      "Ġinjury": 6402,
      "Ġolympic": 6403,
      "Ġsarnia": 6404,
      "Ġjupiter": 6405,
      "ded": 6406,
      "fr": 6407,
      "lam": 6408,
      "mun": 6409,
      "Ġcord": 6410,
      "Ġpiedro": 6411,
      "Ġdick": 6412,
      "lla": 6413,
      "Ġgift": 6414,
      "ett": 6415,
      "Ġunif": 6416,
      "ĠperÃ³n": 6417,
      "ickets": 6418,
      "Ġdesired": 6419,
      "Ġjoab": 6420,
      "Ġremix": 6421,
      "Ġapost": 6422,
      "Ġcenturies": 6423,
      "Ġrelatively": 6424,
      "Ġcolumn": 6425,
      "Ġstudios": 6426,
      "Ġprovince": 6427,
      "Ġmagic": 6428,
      "Ġsouls": 6429,
      "Ġsounds": 6430,
      "Ġphilip": 6431,
      "Ġsupporting": 6432,
      "Ġbreakfast": 6433,
      "natural": 6434,
      "Ġimproved": 6435,
      "aughed": 6436,
      "Ġvpon": 6437,
      "captain": 6438,
      "Ġabandoned": 6439,
      ":--": 6440,
      "epe": 6441,
      "xed": 6442,
      "Ġbent": 6443,
      "hast": 6444,
      "Ġmig": 6445,
      "Ġmouse": 6446,
      "Ġpardon": 6447,
      "Ġpione": 6448,
      "ingale": 6449,
      "asc": 6450,
      "Ġyo": 6451,
      "cel": 6452,
      "Ġunless": 6453,
      "ables": 6454,
      "Ġshepher": 6455,
      "Ġbrid": 6456,
      "tell": 6457,
      "Ġpole": 6458,
      "Ġunderground": 6459,
      "Ġbreeding": 6460,
      "Ġswall": 6461,
      "Ġgenerations": 6462,
      "Ġgregory": 6463,
      "Ġfault": 6464,
      "Ġcalcul": 6465,
      "Ġorganized": 6466,
      "Ġsubstance": 6467,
      "Ġproblem": 6468,
      "Ġstretched": 6469,
      "Ġthunderbird": 6470,
      "Ġmaximum": 6471,
      "indeed": 6472,
      "sub": 6473,
      "wind": 6474,
      "Ġaim": 6475,
      "Ġmand": 6476,
      "icity": 6477,
      "utation": 6478,
      "Ġwash": 6479,
      "Ġonto": 6480,
      "Ġasia": 6481,
      "illy": 6482,
      "Ġbranches": 6483,
      "Ġclark": 6484,
      "Ġdesce": 6485,
      "Ġindif": 6486,
      "phia": 6487,
      "poor": 6488,
      "Ġadvent": 6489,
      "Ġopposed": 6490,
      "Ġuniverse": 6491,
      "Ġrecovered": 6492,
      "Ġpenal": 6493,
      "Ġmistaken": 6494,
      "Ġpoetry": 6495,
      "Ġsubsequent": 6496,
      "ovic": 6497,
      "Ġmaintained": 6498,
      "according": 6499,
      "Ġcottage": 6500,
      "name": 6501,
      "Ġtres": 6502,
      "orter": 6503,
      "Ġpour": 6504,
      "Ġdv": 6505,
      "Ġdancing": 6506,
      "Ġhired": 6507,
      "acity": 6508,
      "Ġplague": 6509,
      "Ġenqu": 6510,
      "Ġcompr": 6511,
      "Ġrival": 6512,
      "Ġbetray": 6513,
      "Ġpasses": 6514,
      "Ġourselves": 6515,
      "Ġconfusion": 6516,
      "Ġfinds": 6517,
      "Ġvisual": 6518,
      "Ġwooden": 6519,
      "Ġ1988": 6520,
      "Ġdesignated": 6521,
      "Ġunique": 6522,
      "Ġarmies": 6523,
      "Ġfreeway": 6524,
      "Ġpalest": 6525,
      "Ġtouched": 6526,
      "Ġstrengthe": 6527,
      "Ġdenied": 6528,
      "Ġhistorian": 6529,
      "istol": 6530,
      "Ġsavage": 6531,
      "Ġacknowled": 6532,
      "Ġsuburbs": 6533,
      "Ġeagle": 6534,
      "kare": 6535,
      "tow": 6536,
      "Ġáĥ": 6537,
      "Ġsore": 6538,
      "Ġsie": 6539,
      "Ġomaha": 6540,
      "Ġbone": 6541,
      "Ġcos": 6542,
      "Ġheed": 6543,
      "Ġkg": 6544,
      "Ġconcl": 6545,
      "Ġshek": 6546,
      "Ġmyth": 6547,
      "Ġcausing": 6548,
      "Ġcompre": 6549,
      "neither": 6550,
      "Ġ46": 6551,
      "Ġobed": 6552,
      "cience": 6553,
      "Ġsteady": 6554,
      "cription": 6555,
      "ferent": 6556,
      "Ġexpression": 6557,
      "Ġcourts": 6558,
      "Ġprominent": 6559,
      "Ġcorp": 6560,
      "Ġrocks": 6561,
      "Ġegyptians": 6562,
      "Ġneeds": 6563,
      "Ġcircle": 6564,
      "Ġtreaty": 6565,
      "Ġexistence": 6566,
      "Ġoccasionally": 6567,
      "Ġarchaeological": 6568,
      "Ġconsidering": 6569,
      "ef": 6570,
      "oid": 6571,
      "rick": 6572,
      "Ġtu": 6573,
      "Ġfung": 6574,
      "Ġmate": 6575,
      "ishes": 6576,
      "ena": 6577,
      "Ġtoler": 6578,
      "althy": 6579,
      "Ġitaly": 6580,
      "three": 6581,
      "terday": 6582,
      "ordin": 6583,
      "Ġvac": 6584,
      "quite": 6585,
      "iveness": 6586,
      "Ġaccur": 6587,
      "Ġmatters": 6588,
      "Ġcontinually": 6589,
      "Ġlawrence": 6590,
      "Ġpromoted": 6591,
      "Ġsatan": 6592,
      "Ġdraft": 6593,
      "Ġstronger": 6594,
      "Ġviews": 6595,
      "Ġprojects": 6596,
      "Ġdawn": 6597,
      "Ġargent": 6598,
      "Ġbaseball": 6599,
      "jection": 6600,
      "Ġinstitute": 6601,
      "Ġstructures": 6602,
      "Ġceremony": 6603,
      "mac": 6604,
      "mans": 6605,
      "pha": 6606,
      "rs": 6607,
      "spr": 6608,
      "wa": 6609,
      "woman": 6610,
      "Ġsigh": 6611,
      "reated": 6612,
      "another": 6613,
      "Ġeating": 6614,
      "Ġeighth": 6615,
      "Ġreaction": 6616,
      "Ġkar": 6617,
      "Ġrit": 6618,
      "Ġvice": 6619,
      "teenth": 6620,
      "Ġpocket": 6621,
      "Ġpreced": 6622,
      "Ġflour": 6623,
      "Ġ41": 6624,
      "Ġ51": 6625,
      "Ġapplied": 6626,
      "Ġdram": 6627,
      "Ġearthqu": 6628,
      "Ġbarrow": 6629,
      "Ġsolo": 6630,
      "Ġweekly": 6631,
      "Ġsweep": 6632,
      "Ġsystems": 6633,
      "Ġbowed": 6634,
      "Ġterritor": 6635,
      "Ġmicro": 6636,
      "Ġpolitics": 6637,
      "Ġoxford": 6638,
      "Ġglobe": 6639,
      "Ġinnis": 6640,
      "Ġwilhelm": 6641,
      "turnbull": 6642,
      "Ġprospect": 6643,
      "Ġpolicy": 6644,
      "Ġmusgrove": 6645,
      "Ġsmooth": 6646,
      "Ġequipment": 6647,
      "Ġmogadishu": 6648,
      "pur": 6649,
      "Ġwrought": 6650,
      "Ġbag": 6651,
      "Ġbark": 6652,
      "isc": 6653,
      "ingers": 6654,
      "Ġlust": 6655,
      "acement": 6656,
      "Ġselling": 6657,
      "ctive": 6658,
      "agues": 6659,
      "acks": 6660,
      "Ġchallen": 6661,
      "ignation": 6662,
      "Ġanyone": 6663,
      "Ġgram": 6664,
      "Ġcouldn": 6665,
      "Ġwrites": 6666,
      "Ġstrict": 6667,
      "Ġminer": 6668,
      "Ġguil": 6669,
      "Ġmush": 6670,
      "shire": 6671,
      "Ġjudged": 6672,
      "Ġintention": 6673,
      "Ġcourage": 6674,
      "Ġ1964": 6675,
      "Ġsufficient": 6676,
      "Ġmeasures": 6677,
      "Ġagreement": 6678,
      "Ġmccall": 6679,
      "Ġeconomic": 6680,
      "Ġconstitution": 6681,
      "Ġfreedom": 6682,
      "timore": 6683,
      "52": 6684,
      "core": 6685,
      "mouth": 6686,
      "nah": 6687,
      "phan": 6688,
      "town": 6689,
      "uation": 6690,
      "Ġoath": 6691,
      "Ġfired": 6692,
      "Ġpho": 6693,
      "Ġdru": 6694,
      "Ġlaughed": 6695,
      "Ġish": 6696,
      "Ġunsu": 6697,
      "Ġconsecut": 6698,
      "ifts": 6699,
      "Ġexal": 6700,
      "Ġinterchange": 6701,
      "Ġkelly": 6702,
      "Ġsupper": 6703,
      "Ġdeplo": 6704,
      "Ġnightingale": 6705,
      "Ġhoriz": 6706,
      "Ġpublication": 6707,
      "Ġswear": 6708,
      "Ġlabel": 6709,
      "Ġsuggests": 6710,
      "Ġabsence": 6711,
      "Ġbaltimore": 6712,
      "Ġsacred": 6713,
      "Ġcruel": 6714,
      "Ġelectric": 6715,
      "Ġvolun": 6716,
      "Ġhopes": 6717,
      "Ġprotection": 6718,
      "Ġtechnology": 6719,
      "lasting": 6720,
      "Ġcousin": 6721,
      "Ġatmosphere": 6722,
      "Ġrugby": 6723,
      "Ġsupreme": 6724,
      "bus": 6725,
      "jac": 6726,
      "uan": 6727,
      "uge": 6728,
      "Ġtact": 6729,
      "Ġske": 6730,
      "Ġmd": 6731,
      "Ġdod": 6732,
      "Ġali": 6733,
      "Ġgoeth": 6734,
      "rene": 6735,
      "Ġchase": 6736,
      "Ġremove": 6737,
      "Ġcrimin": 6738,
      "Ġplaystation": 6739,
      "Ġrecently": 6740,
      "active": 6741,
      "Ġowners": 6742,
      "Ġinterpret": 6743,
      "Ġinstantly": 6744,
      "Ġparall": 6745,
      "Ġfilming": 6746,
      "enger": 6747,
      "Ġreality": 6748,
      "fortun": 6749,
      "Ġbearing": 6750,
      "Ġafford": 6751,
      "Ġresemb": 6752,
      "Ġgiant": 6753,
      "Ġfavourite": 6754,
      "Ġconcerned": 6755,
      "Ġreserve": 6756,
      "Ġwolf": 6757,
      "Ġchorus": 6758,
      "Ġferrars": 6759,
      "bul": 6760,
      "circ": 6761,
      "dest": 6762,
      "eon": 6763,
      "yan": 6764,
      "stream": 6765,
      "Ġko": 6766,
      "Ġdeities": 6767,
      "Ġfru": 6768,
      "Ġrihanna": 6769,
      "Ġrepent": 6770,
      "Ġappeal": 6771,
      "Ġsecondary": 6772,
      "Ġdrama": 6773,
      "Ġpurple": 6774,
      "Ġtreated": 6775,
      "Ġtremb": 6776,
      "Ġcollap": 6777,
      "righteous": 6778,
      "Ġhamels": 6779,
      "Ġcongress": 6780,
      "Ġquestions": 6781,
      "Ġinvolve": 6782,
      "Ġscientific": 6783,
      "Ġborne": 6784,
      "Ġcurrently": 6785,
      "Ġsemi": 6786,
      "Ġwebsite": 6787,
      "Ġthorough": 6788,
      "Ġaccompanied": 6789,
      "Ġflambeau": 6790,
      "bra": 6791,
      "ivers": 6792,
      "mus": 6793,
      "names": 6794,
      "rit": 6795,
      "Ġwra": 6796,
      "ero": 6797,
      "Ġped": 6798,
      "ala": 6799,
      "owing": 6800,
      "lying": 6801,
      "urally": 6802,
      "Ġisol": 6803,
      "Ġcomic": 6804,
      "outs": 6805,
      "Ġbrand": 6806,
      "Ġworsh": 6807,
      "aved": 6808,
      "Ġflame": 6809,
      "Ġcharity": 6810,
      "Ġhighbury": 6811,
      "shalt": 6812,
      "Ġextensive": 6813,
      "Ġcampus": 6814,
      "Ġstatutes": 6815,
      "Ġinterested": 6816,
      "Ġsettlement": 6817,
      "Ġregarding": 6818,
      "Ġwishes": 6819,
      "Ġcriticized": 6820,
      "ippi": 6821,
      "Ġtemperature": 6822,
      "Ġsenior": 6823,
      "Ġpersuaded": 6824,
      "Ġperceived": 6825,
      "Ġdjed": 6826,
      "happy": 6827,
      "earth": 6828,
      "Ġhezekiah": 6829,
      "Ġconsecutive": 6830,
      "sir": 6831,
      "Ġbats": 6832,
      "Ġfinger": 6833,
      "Ġmit": 6834,
      "Ġpicked": 6835,
      "Ġhib": 6836,
      "Ġheere": 6837,
      "lets": 6838,
      "Ġforbid": 6839,
      "Ġwee": 6840,
      "Ġrot": 6841,
      "too": 6842,
      "illa": 6843,
      "asty": 6844,
      "Ġexception": 6845,
      "Ġmoves": 6846,
      "Ġteaching": 6847,
      "Ġcanal": 6848,
      "Ġcharged": 6849,
      "Ġcarri": 6850,
      "Ġeli": 6851,
      "ictions": 6852,
      "Ġinterior": 6853,
      "Ġmonument": 6854,
      "Ġslam": 6855,
      "Ġmuscar": 6856,
      "Ġsurvey": 6857,
      "Ġinstru": 6858,
      "Ġfriendly": 6859,
      "Ġoperated": 6860,
      "Ġfalls": 6861,
      "Ġdeclined": 6862,
      "Ġincreasingly": 6863,
      "Ġconvention": 6864,
      "Ġlieuten": 6865,
      "Ġdebuted": 6866,
      "Ġmultiple": 6867,
      "Ġadministration": 6868,
      "Ġexperienced": 6869,
      "Ġcarpenter": 6870,
      "Ġsustained": 6871,
      "Ġscheme": 6872,
      "adelphia": 6873,
      "Ġdjedkare": 6874,
      "Ġtha": 6875,
      "Ġsid": 6876,
      "itudes": 6877,
      "Ġpom": 6878,
      "atch": 6879,
      "Ġlament": 6880,
      "Ġgord": 6881,
      "Ġrebell": 6882,
      "Ġ120": 6883,
      "Ġanonymous": 6884,
      "Ġorb": 6885,
      "Ġfee": 6886,
      "Ġsinned": 6887,
      "Ġincident": 6888,
      "Ġmissing": 6889,
      "Ġpersonnel": 6890,
      "Ġ1947": 6891,
      "Ġsuspect": 6892,
      "Ġuniversal": 6893,
      "Ġversions": 6894,
      "ographer": 6895,
      "Ġcreating": 6896,
      "Ġtorres": 6897,
      "Ġobjects": 6898,
      "Ġcovering": 6899,
      "Ġmasters": 6900,
      "Ġresolved": 6901,
      "Ġimperial": 6902,
      "Ġdoctr": 6903,
      "fam": 6904,
      "tav": 6905,
      "Ġtale": 6906,
      "Ġbern": 6907,
      "Ġcu": 6908,
      "Ġfury": 6909,
      "Ġpas": 6910,
      "Ġpounds": 6911,
      "inging": 6912,
      "Ġvig": 6913,
      "ifted": 6914,
      "oping": 6915,
      "Ġexha": 6916,
      "Ġplants": 6917,
      "Ġarc": 6918,
      "Ġspare": 6919,
      "Ġcoop": 6920,
      "Ġswed": 6921,
      "ibly": 6922,
      "ront": 6923,
      "yson": 6924,
      "Ġdeaths": 6925,
      "Ġadvice": 6926,
      "thereof": 6927,
      "Ġexplain": 6928,
      "Ġfailure": 6929,
      "world": 6930,
      "Ġjudgments": 6931,
      "Ġidentified": 6932,
      "Ġyesterday": 6933,
      "Ġobtained": 6934,
      "Ġleviathan": 6935,
      "Ã¼": 6936,
      "Ġtie": 6937,
      "Ġcot": 6938,
      "Ġfix": 6939,
      "Ġmaketh": 6940,
      "Ġpound": 6941,
      "Ġlun": 6942,
      "Ġhed": 6943,
      "Ġgor": 6944,
      "Ġigu": 6945,
      "aye": 6946,
      "illo": 6947,
      "Ġcomr": 6948,
      "Ġalien": 6949,
      "Ġshaped": 6950,
      "Ġexcess": 6951,
      "Ġcape": 6952,
      "Ġcontact": 6953,
      "Ġpartly": 6954,
      "Ġconsisted": 6955,
      "Ġendure": 6956,
      "Ġ65": 6957,
      "Ġmax": 6958,
      "Ġactors": 6959,
      "Ġsteep": 6960,
      "retched": 6961,
      "noon": 6962,
      "boat": 6963,
      "awa": 6964,
      "Ġ1941": 6965,
      "Ġwaited": 6966,
      "Ġhundreds": 6967,
      "Ġgentiles": 6968,
      "marianne": 6969,
      "Ġturk": 6970,
      "Ġdifficulties": 6971,
      "Ġwickedness": 6972,
      "Ġwilliams": 6973,
      "Ġurban": 6974,
      "Ġbanks": 6975,
      "Ġenjoyed": 6976,
      "Ġhidden": 6977,
      "Ġninth": 6978,
      "Ġpurchased": 6979,
      "Ġroughly": 6980,
      "Ġscottish": 6981,
      "Ġfantasy": 6982,
      "Ġapplewhite": 6983,
      "cised": 6984,
      "cross": 6985,
      "oz": 6986,
      "Ġaired": 6987,
      "Ġode": 6988,
      "Ġward": 6989,
      "Ġbc": 6990,
      "Ġbbc": 6991,
      "Ġpin": 6992,
      "Ġdre": 6993,
      "Ġgird": 6994,
      "Ġhay": 6995,
      "iday": 6996,
      "Ġstations": 6997,
      "Ġwealth": 6998,
      "opes": 6999,
      "Ġagent": 7000,
      "Ġadult": 7001,
      "Ġcontest": 7002,
      "Ġcontribut": 7003,
      "Ġconsumed": 7004,
      "Ġsubs": 7005,
      "Ġdrag": 7006,
      "Ġtempt": 7007,
      "Ġ1987": 7008,
      "Ġcontrolled": 7009,
      "Ġcrossed": 7010,
      "Ġrush": 7011,
      "Ġthrust": 7012,
      "Ġmeasured": 7013,
      "zzar": 7014,
      "Ġordinary": 7015,
      "Ġpenins": 7016,
      "Ġbaal": 7017,
      "Ġforgive": 7018,
      "Ġphase": 7019,
      "Ġtreatment": 7020,
      "Ġpictures": 7021,
      "Ġnominated": 7022,
      "Ġinstruments": 7023,
      "Ġtowers": 7024,
      "Ġaspects": 7025,
      "Ġcherub": 7026,
      "Ġexpedition": 7027,
      "Ġmichigan": 7028,
      "Ġdvd": 7029,
      "cers": 7030,
      "ja": 7031,
      "Ġari": 7032,
      "rete": 7033,
      "isp": 7034,
      "Ġhoney": 7035,
      "Ġreb": 7036,
      "Ġjem": 7037,
      "Ġuncom": 7038,
      "Ġtrick": 7039,
      "Ġserving": 7040,
      "Ġpartial": 7041,
      "ansas": 7042,
      "Ġflash": 7043,
      "Ġattachment": 7044,
      "ropri": 7045,
      "Ġrecollect": 7046,
      "Ġphiladelphia": 7047,
      "themselves": 7048,
      "borough": 7049,
      "Ġpupp": 7050,
      "Ġexec": 7051,
      "Ġrecognized": 7052,
      "Ġarranged": 7053,
      "Ġpermanent": 7054,
      "antucket": 7055,
      "Ġpronoun": 7056,
      "eenth": 7057,
      "oned": 7058,
      "Ġpoured": 7059,
      "Ġpushed": 7060,
      "Ġdip": 7061,
      "Ġdign": 7062,
      "Ġnearer": 7063,
      "umph": 7064,
      "Ġspin": 7065,
      "Ġrolled": 7066,
      "Ġprint": 7067,
      "many": 7068,
      "Ġinstance": 7069,
      "Ġgiveth": 7070,
      "Ġinvasion": 7071,
      "Ġbasin": 7072,
      "Ġbarn": 7073,
      "Ġhaste": 7074,
      "Ġstarts": 7075,
      "Ġ1984": 7076,
      "Ġ1989": 7077,
      "Ġ1972": 7078,
      "Ġclosely": 7079,
      "Ġcreatures": 7080,
      "Ġtroubled": 7081,
      "Ġmistake": 7082,
      "Ġsignificantly": 7083,
      "Ġmike": 7084,
      "Ġrent": 7085,
      "Ġextraordinary": 7086,
      "Ġreproach": 7087,
      "Ġcroatia": 7088,
      "jerusalem": 7089,
      "Ġearthquake": 7090,
      "Ġguilty": 7091,
      "55": 7092,
      "both": 7093,
      "pir": 7094,
      "ture": 7095,
      "Ġbeheld": 7096,
      "Ġreferen": 7097,
      "Ġsees": 7098,
      "agn": 7099,
      "usted": 7100,
      "Ġammon": 7101,
      "Ġwhenever": 7102,
      "Ġscorn": 7103,
      "Ġperish": 7104,
      "Ġpope": 7105,
      "Ġsmite": 7106,
      "Ġ52": 7107,
      "Ġ57": 7108,
      "Ġwarri": 7109,
      "Ġbelt": 7110,
      "Ġswit": 7111,
      "Ġamericans": 7112,
      "Ġcursed": 7113,
      "Ġ1985": 7114,
      "Ġabsor": 7115,
      "iences": 7116,
      "Ġdiscover": 7117,
      "Ġcougar": 7118,
      "Ġloue": 7119,
      "Ġaccounts": 7120,
      "Ġriches": 7121,
      "ipping": 7122,
      "Ġsurviv": 7123,
      "Ġastron": 7124,
      "Ġwidow": 7125,
      "Ġlinen": 7126,
      "Ġremnant": 7127,
      "Ġscarcely": 7128,
      "bri": 7129,
      "mind": 7130,
      "oly": 7131,
      "oboam": 7132,
      "rons": 7133,
      "wall": 7134,
      "Ġsli": 7135,
      "Ġbrian": 7136,
      "itan": 7137,
      "Ġpad": 7138,
      "Ġpage": 7139,
      "Ġpsy": 7140,
      "Ġhms": 7141,
      "also": 7142,
      "etime": 7143,
      "ushing": 7144,
      "Ġsugar": 7145,
      "umps": 7146,
      "ifer": 7147,
      "Ġdesper": 7148,
      "aping": 7149,
      "Ġ56": 7150,
      "Ġevan": 7151,
      "ublin": 7152,
      "Ġfilmed": 7153,
      "Ġadventure": 7154,
      "Ġraid": 7155,
      "Ġtrail": 7156,
      "Ġsecured": 7157,
      "Ġuseful": 7158,
      "Ġopposition": 7159,
      "Ġdriving": 7160,
      "supp": 7161,
      "Ġcrossing": 7162,
      "Ġpainted": 7163,
      "Ġgarments": 7164,
      "Ġpopularity": 7165,
      "Ġcriticism": 7166,
      "Ġcardiff": 7167,
      "Ġpremie": 7168,
      "Ġromantic": 7169,
      "Ġbudget": 7170,
      "fire": 7171,
      "jour": 7172,
      "rum": 7173,
      "sil": 7174,
      "Ġtight": 7175,
      "Ġay": 7176,
      "inter": 7177,
      "Ġpause": 7178,
      "Ġthri": 7179,
      "adv": 7180,
      "Ġ130": 7181,
      "Ġfran": 7182,
      "Ġshake": 7183,
      "Ġmanif": 7184,
      "Ġcave": 7185,
      "Ġboston": 7186,
      "Ġmayest": 7187,
      "Ġknowest": 7188,
      "Ġsmell": 7189,
      "Ġlandfall": 7190,
      "Ġentry": 7191,
      "Ġkeats": 7192,
      "Ġassyria": 7193,
      "Ġtransit": 7194,
      "Ġdelic": 7195,
      "Ġrefuse": 7196,
      "Ġcurt": 7197,
      "Ġappearing": 7198,
      "Ġ1944": 7199,
      "Ġdecline": 7200,
      "Ġmoral": 7201,
      "Ġflew": 7202,
      "Ġstayed": 7203,
      "Ġcreator": 7204,
      "Ġblessing": 7205,
      "Ġmassive": 7206,
      "Ġrules": 7207,
      "Ġwonderful": 7208,
      "Ġlosses": 7209,
      "Ġoxen": 7210,
      "Ġexclus": 7211,
      "Ġcredit": 7212,
      "Ġdetails": 7213,
      "Ġcitiz": 7214,
      "case": 7215,
      "ht": 7216,
      "ni": 7217,
      "och": 7218,
      "rist": 7219,
      "sis": 7220,
      "Ġobey": 7221,
      "Ġdublin": 7222,
      "Ġlic": 7223,
      "Ġhaz": 7224,
      "oting": 7225,
      "Ġride": 7226,
      "Ġconvo": 7227,
      "ieval": 7228,
      "Ġprocl": 7229,
      "ckets": 7230,
      "Ġpoison": 7231,
      "Ġhollow": 7232,
      "aps": 7233,
      "Ġhighlight": 7234,
      "Ġimpression": 7235,
      "Ġmonarch": 7236,
      "Ġ600": 7237,
      "Ġminim": 7238,
      "Ġjeff": 7239,
      "Ġhumans": 7240,
      "Ġchest": 7241,
      "Ġmedieval": 7242,
      "Ġprofit": 7243,
      "Ġdoesn": 7244,
      "Ġaffair": 7245,
      "Ġbattalions": 7246,
      "Ġconnection": 7247,
      "Ġcomfortable": 7248,
      "Ġnegative": 7249,
      "Ġtalbot": 7250,
      "Ġpunishment": 7251,
      "Ġpremier": 7252,
      "Ġgordon": 7253,
      "phat": 7254,
      "power": 7255,
      "tion": 7256,
      "uated": 7257,
      "Ġcited": 7258,
      "once": 7259,
      "Ġfare": 7260,
      "Ġinland": 7261,
      "asions": 7262,
      "Ġhug": 7263,
      "Ġhes": 7264,
      "Ġgri": 7265,
      "Ġwasn": 7266,
      "Ġasking": 7267,
      "agre": 7268,
      "Ġabbey": 7269,
      "Ġroots": 7270,
      "Ġfeather": 7271,
      "Ġcontributed": 7272,
      "Ġspear": 7273,
      "Ġsomehow": 7274,
      "Ġblank": 7275,
      "ĠĠĠĠĠ": 7276,
      "Ġ43": 7277,
      "Ġsoutheast": 7278,
      "Ġstring": 7279,
      "Ġincom": 7280,
      "Ġsouthwest": 7281,
      "Ġwanting": 7282,
      "Ġskull": 7283,
      "Ġ179": 7284,
      "Ġsuccessfully": 7285,
      "Ġbands": 7286,
      "Ġdivers": 7287,
      "Ġlearning": 7288,
      "Ġcircumstance": 7289,
      "Ġavenue": 7290,
      "Ġrussian": 7291,
      "Ġlieutenant": 7292,
      "hi": 7293,
      "pence": 7294,
      "Ã¶": 7295,
      "Ġwag": 7296,
      "Ġmode": 7297,
      "itage": 7298,
      "Ġandy": 7299,
      "Ġphar": 7300,
      "Ġtoss": 7301,
      "Ġni": 7302,
      "lend": 7303,
      "lech": 7304,
      "Ġabu": 7305,
      "Ġimpl": 7306,
      "ails": 7307,
      "Ġshoulders": 7308,
      "Ġretreat": 7309,
      "Ġassass": 7310,
      "Ġlasted": 7311,
      "Ġsteve": 7312,
      "Ġphr": 7313,
      "Ġcontinuing": 7314,
      "Ġexpanded": 7315,
      "Ġceased": 7316,
      "Ġshowing": 7317,
      "Ġrefuge": 7318,
      "bridge": 7319,
      "Ġkeeping": 7320,
      "Ġadmitted": 7321,
      "Ġauthors": 7322,
      "Ġtouching": 7323,
      "Ġexperiment": 7324,
      "Ġsailor": 7325,
      "Ġvenge": 7326,
      "Ġintellect": 7327,
      "Ġthrowing": 7328,
      "Ġeconomy": 7329,
      "Ġdreadful": 7330,
      "command": 7331,
      "Ġagreeable": 7332,
      "Ġtrespass": 7333,
      "iver": 7334,
      "mers": 7335,
      "sure": 7336,
      "Ġswell": 7337,
      "Ġcree": 7338,
      "ese": 7339,
      "Ġdated": 7340,
      "Ġdial": 7341,
      "Ġhip": 7342,
      "amy": 7343,
      "Ġsto": 7344,
      "Ġstages": 7345,
      "Ġitems": 7346,
      "Ġanch": 7347,
      "olved": 7348,
      "Ġalt": 7349,
      "keep": 7350,
      "Ġcla": 7351,
      "Ġmarl": 7352,
      "Ġhole": 7353,
      "Ġnorm": 7354,
      "izations": 7355,
      "Ġowner": 7356,
      "Ġthinks": 7357,
      "Ġsteven": 7358,
      "Ġproducers": 7359,
      "Ġdistribution": 7360,
      "Ġdecre": 7361,
      "Ġconcrete": 7362,
      "Ġstrongly": 7363,
      "Ġplanning": 7364,
      "whose": 7365,
      "Ġfacilities": 7366,
      "Ġenterpr": 7367,
      "Ġsynag": 7368,
      "Ġhorns": 7369,
      "Ġliterary": 7370,
      "Ġathletes": 7371,
      "Ġanxious": 7372,
      "Ġharpoone": 7373,
      "Ġmystery": 7374,
      "Ġrescue": 7375,
      "Ġscheduled": 7376,
      "Ġunusual": 7377,
      "Ġuniform": 7378,
      "Ġpeninsula": 7379,
      "bly": 7380,
      "cor": 7381,
      "four": 7382,
      "ope": 7383,
      "pot": 7384,
      "sat": 7385,
      "uate": 7386,
      "uable": 7387,
      "zed": 7388,
      "Äĩ": 7389,
      "Ġtam": 7390,
      "Ġsack": 7391,
      "Ġslo": 7392,
      "Ġwins": 7393,
      "Ġbun": 7394,
      "Ġcir": 7395,
      "Ġmant": 7396,
      "eda": 7397,
      "Ġpink": 7398,
      "Ġdying": 7399,
      "astern": 7400,
      "Ġhull": 7401,
      "ications": 7402,
      "leep": 7403,
      "vet": 7404,
      "ette": 7405,
      "Ġseg": 7406,
      "Ġkur": 7407,
      "Ġrating": 7408,
      "Ġloyal": 7409,
      "Ġabrupt": 7410,
      "Ġnoisy": 7411,
      "Ġresumed": 7412,
      "Ġnormal": 7413,
      "Ġconsent": 7414,
      "Ġfamine": 7415,
      "ifications": 7416,
      "Ġtriumph": 7417,
      "Ġjeh": 7418,
      "chad": 7419,
      "Ġmerc": 7420,
      "Ġsunk": 7421,
      "Ġstream": 7422,
      "Ġpatro": 7423,
      "Ġflocks": 7424,
      "Ġmarks": 7425,
      "chem": 7426,
      "Ġnether": 7427,
      "Ġpainting": 7428,
      "Ġdreams": 7429,
      "Ġderived": 7430,
      "Ġnucleus": 7431,
      "Ġstretch": 7432,
      "Ġestablishment": 7433,
      "Ġshooting": 7434,
      "Ġbriefly": 7435,
      "Ġconservation": 7436,
      "Ġtribute": 7437,
      "Ġlegend": 7438,
      "Ġsiege": 7439,
      "Ġvolunte": 7440,
      "53": 7441,
      "bi": 7442,
      "saw": 7443,
      "var": 7444,
      "Å¡": 7445,
      "Ġwake": 7446,
      "Ġcater": 7447,
      "oub": 7448,
      "Ġgilead": 7449,
      "Ġvent": 7450,
      "Ġmyster": 7451,
      "Ġspark": 7452,
      "keeper": 7453,
      "Ġbrow": 7454,
      "apers": 7455,
      "Ġharvest": 7456,
      "Ġconsult": 7457,
      "Ġreputation": 7458,
      "Ġinterrupted": 7459,
      "Ġsymp": 7460,
      "Ġrelie": 7461,
      "Ġmississ": 7462,
      "Ġadding": 7463,
      "Ġwhaling": 7464,
      "Ġdestiny": 7465,
      "Ġ1981": 7466,
      "Ġgrounds": 7467,
      "Ġpalmer": 7468,
      "Ġstriking": 7469,
      "Ġcamps": 7470,
      "Ġcambod": 7471,
      "Ġheroes": 7472,
      "Ġdrinking": 7473,
      "Ġacquired": 7474,
      "Ġresear": 7475,
      "Ġbreadth": 7476,
      "Ġforests": 7477,
      "Ġnegot": 7478,
      "Ġvietnames": 7479,
      "Ġbulk": 7480,
      "Ġexceedingly": 7481,
      "Ġcassi": 7482,
      "Ġcompassion": 7483,
      "Ġdiamond": 7484,
      "Ġiguan": 7485,
      "Ġvietnamese": 7486,
      "eav": 7487,
      "iations": 7488,
      "mat": 7489,
      "sus": 7490,
      "taken": 7491,
      "heaven": 7492,
      "ini": 7493,
      "Ġpy": 7494,
      "Ġdates": 7495,
      "Ġreck": 7496,
      "ador": 7497,
      "Ġwhit": 7498,
      "Ġanarch": 7499,
      "Ġja": 7500,
      "Ġliu": 7501,
      "Ġserpent": 7502,
      "Ġspeake": 7503,
      "Ġharmon": 7504,
      "Ġlongest": 7505,
      "Ġconsol": 7506,
      "Ġconsum": 7507,
      "Ġheaded": 7508,
      "Ġ700": 7509,
      "Ġincome": 7510,
      "Ġrestored": 7511,
      "Ġnights": 7512,
      "Ġinfer": 7513,
      "Ġdivisions": 7514,
      "Ġprovin": 7515,
      "Ġhorri": 7516,
      "Ġbush": 7517,
      "Ġidols": 7518,
      "Ġviewed": 7519,
      "Ġeffective": 7520,
      "Ġsamaria": 7521,
      "Ġindustrial": 7522,
      "Äģda": 7523,
      "Ġcommissioned": 7524,
      "servant": 7525,
      "Ġthunderbirds": 7526,
      "circum": 7527,
      ";)": 7528,
      "cest": 7529,
      "à¸": 7530,
      "Ġwore": 7531,
      "Ġpup": 7532,
      "Ġdressed": 7533,
      "Ġdrove": 7534,
      "Ġecc": 7535,
      "seemed": 7536,
      "urre": 7537,
      "Ġsending": 7538,
      "Ġkang": 7539,
      "Ġsuit": 7540,
      "Ġalter": 7541,
      "theastern": 7542,
      "Ġheritage": 7543,
      "ela": 7544,
      "Ġgover": 7545,
      "Ġ1939": 7546,
      "ava": 7547,
      "forms": 7548,
      "Ġprecise": 7549,
      "Ġanybody": 7550,
      "Ġoldest": 7551,
      "Ġbreed": 7552,
      "Ġ64": 7553,
      "Ġforming": 7554,
      "Ġzone": 7555,
      "Ġchanging": 7556,
      "Ġparad": 7557,
      "Ġrestore": 7558,
      "Ġinvitation": 7559,
      "Ġbloody": 7560,
      "Ġhorror": 7561,
      "Ġcorpor": 7562,
      "Ġgrav": 7563,
      "Ġmacle": 7564,
      "Ġapproached": 7565,
      "Ġcontrad": 7566,
      "Ġswords": 7567,
      "Ġsailors": 7568,
      "licted": 7569,
      "Ġaccommod": 7570,
      "Ġintroduction": 7571,
      "Ġdelighted": 7572,
      "ormous": 7573,
      "Ġarrangement": 7574,
      "Ġrecommended": 7575,
      "Ġtreasure": 7576,
      "Ġarchitect": 7577,
      "Ġdisappoint": 7578,
      "Ġsplit": 7579,
      "Ġbarbara": 7580,
      "Ġcorrect": 7581,
      "liction": 7582,
      "rul": 7583,
      "wart": 7584,
      "Ġfuel": 7585,
      "Ġfingers": 7586,
      "Ġoft": 7587,
      "ashing": 7588,
      "Ġheau": 7589,
      "lev": 7590,
      "stra": 7591,
      "otic": 7592,
      "Ġjay": 7593,
      "Ġrural": 7594,
      "Ġunfortun": 7595,
      "Ġallows": 7596,
      "Ġ1918": 7597,
      "Ġroy": 7598,
      "Ġwholly": 7599,
      "aue": 7600,
      "Ġserves": 7601,
      "Ġmarine": 7602,
      "Ġsomeone": 7603,
      "Ġwherewith": 7604,
      "Ġstrangers": 7605,
      "Ġworldwide": 7606,
      "Ġturner": 7607,
      "Ġgameplay": 7608,
      "Ġeleven": 7609,
      "Ġmissed": 7610,
      "Ġproducing": 7611,
      "box": 7612,
      "Ġjeroboam": 7613,
      "Ġ1942": 7614,
      "Ġclock": 7615,
      "Ġjuan": 7616,
      "Ġperforming": 7617,
      "Ġelsewhere": 7618,
      "Ġshook": 7619,
      "Ġruled": 7620,
      "Ġannounce": 7621,
      "Ġsatisfaction": 7622,
      "Ġrailroad": 7623,
      "Ġsubstant": 7624,
      "Ġhabitat": 7625,
      "Ġmaintain": 7626,
      "Ġsurrounded": 7627,
      "Ġglorious": 7628,
      "Ġchariots": 7629,
      "Ġarticle": 7630,
      "Ġpaintings": 7631,
      "Ġlibrary": 7632,
      "dal": 7633,
      "lay": 7634,
      "mid": 7635,
      "phant": 7636,
      "Ã¤": 7637,
      "Ġaunt": 7638,
      "Ġmud": 7639,
      "Ġmatt": 7640,
      "Ġpir": 7641,
      "Ġlisa": 7642,
      "Ġnba": 7643,
      "always": 7644,
      "Ġjet": 7645,
      "Ġunp": 7646,
      "Ġsailed": 7647,
      "Ġshed": 7648,
      "asted": 7649,
      "Ġgoats": 7650,
      "Ġarsen": 7651,
      "Ġdoe": 7652,
      "geon": 7653,
      "Ġperpet": 7654,
      "Ġseeking": 7655,
      "Ġlanded": 7656,
      "Ġretire": 7657,
      "Ġ96": 7658,
      "Ġartific": 7659,
      "Ġidol": 7660,
      "Ġcontrary": 7661,
      "Ġcombination": 7662,
      "Ġawake": 7663,
      "Ġprograms": 7664,
      "Ġcopy": 7665,
      "Ġchampionships": 7666,
      "Ġduties": 7667,
      "syme": 7668,
      "Ġconcerns": 7669,
      "Ġthreatened": 7670,
      "Ġfictional": 7671,
      "Ġvirtue": 7672,
      "Ġdynam": 7673,
      "Ġdynasty": 7674,
      "Ġpursued": 7675,
      "Ġchemical": 7676,
      "Ġweakened": 7677,
      "Ġlewis": 7678,
      "Ġrestaurant": 7679,
      "Ġmississippi": 7680,
      "mate": 7681,
      "master": 7682,
      "swe": 7683,
      "Ġcrest": 7684,
      "Ġinformed": 7685,
      "arse": 7686,
      "Ġgully": 7687,
      "Ġseated": 7688,
      "Ġjain": 7689,
      "Ġrage": 7690,
      "Ġallied": 7691,
      "umin": 7692,
      "Ġroot": 7693,
      "Ġboise": 7694,
      "Ġmario": 7695,
      "Ġpartners": 7696,
      "Ġresour": 7697,
      "Ġflask": 7698,
      "Ġconsists": 7699,
      "Ġ800": 7700,
      "Ġdrunk": 7701,
      "Ġdecade": 7702,
      "Ġlightning": 7703,
      "Ġadvancing": 7704,
      "Ġ1968": 7705,
      "Ġ1969": 7706,
      "Ġfortun": 7707,
      "Ġshoes": 7708,
      "Ġrulers": 7709,
      "Ġtypical": 7710,
      "Ġremainder": 7711,
      "Ġcolours": 7712,
      "Ġproceeded": 7713,
      "wheel": 7714,
      "Ġencouraged": 7715,
      "Ġdollar": 7716,
      "Ġnurse": 7717,
      "Ġresponded": 7718,
      "Ġcinem": 7719,
      "Ġeuropium": 7720,
      "Ġkilometres": 7721,
      "gression": 7722,
      "sight": 7723,
      "Ġtired": 7724,
      "Ġcul": 7725,
      "Ġdota": 7726,
      "atus": 7727,
      "Ġnc": 7728,
      "tery": 7729,
      "Ġweary": 7730,
      "Ġron": 7731,
      "order": 7732,
      "olen": 7733,
      "istan": 7734,
      "Ġupd": 7735,
      "Ġgoat": 7736,
      "Ġabide": 7737,
      "Ġcoff": 7738,
      "Ġfirstborn": 7739,
      "neath": 7740,
      "ultane": 7741,
      "Ġ53": 7742,
      "Ġacres": 7743,
      "Ġsimpl": 7744,
      "maid": 7745,
      "Ġdecades": 7746,
      "Ġstudied": 7747,
      "Ġleads": 7748,
      "brance": 7749,
      "pray": 7750,
      "days": 7751,
      "Ġ1975": 7752,
      "Ġfifteen": 7753,
      "Ġcoup": 7754,
      "Ġbald": 7755,
      "ographic": 7756,
      "Ġtechnical": 7757,
      "Ġfamiliar": 7758,
      "Ġsubstit": 7759,
      "Ġsynthe": 7760,
      "Ġtransportation": 7761,
      "Ġstruggle": 7762,
      "Ġrecommend": 7763,
      "Ġmunicip": 7764,
      "Ġdistinguished": 7765,
      "Ã¡nh": 7766,
      "ranean": 7767,
      "high": 7768,
      "mary": 7769,
      "pit": 7770,
      "Ġopt": 7771,
      "Ġbree": 7772,
      "Ġcunning": 7773,
      "isers": 7774,
      "Ġnic": 7775,
      "Ġgad": 7776,
      "entially": 7777,
      "anda": 7778,
      "Ġseam": 7779,
      "Ġkits": 7780,
      "Ġrag": 7781,
      "Ġconven": 7782,
      "Ġconverted": 7783,
      "ichol": 7784,
      "Ġwheat": 7785,
      "Ġexchange": 7786,
      "Ġchim": 7787,
      "Ġafterward": 7788,
      "Ġliken": 7789,
      "pled": 7790,
      "Ġcrash": 7791,
      "Ġevita": 7792,
      "Ġgoods": 7793,
      "Ġreply": 7794,
      "Ġregret": 7795,
      "Ġassured": 7796,
      "Ġpublisher": 7797,
      "Ġexpans": 7798,
      "Ġextr": 7799,
      "Ġ1965": 7800,
      "Ġ1974": 7801,
      "Ġburden": 7802,
      "Ġhardy": 7803,
      "Ġveget": 7804,
      "Ġdeny": 7805,
      "Ġidentity": 7806,
      "Ġinspir": 7807,
      "Ġpreserved": 7808,
      "Ġpurchase": 7809,
      "Ġtennyson": 7810,
      "Ġapparently": 7811,
      "Ġturkish": 7812,
      "same": 7813,
      "tree": 7814,
      "uen": 7815,
      "Ġtas": 7816,
      "Ġtents": 7817,
      "Ġaye": 7818,
      "Ġsic": 7819,
      "Ġcd": 7820,
      "Ġcance": 7821,
      "Ġtod": 7822,
      "Ġgam": 7823,
      "Ġecho": 7824,
      "lyss": 7825,
      "Ġstable": 7826,
      "thous": 7827,
      "Ġsector": 7828,
      "ctic": 7829,
      "Ġfears": 7830,
      "Ġbride": 7831,
      "nell": 7832,
      "icken": 7833,
      "Ġdescend": 7834,
      "Ġgoodness": 7835,
      "Ġcarl": 7836,
      "Ġformula": 7837,
      "lessly": 7838,
      "cribed": 7839,
      "Ġlights": 7840,
      "Ġforehead": 7841,
      "Ġansw": 7842,
      "Ġchel": 7843,
      "Ġadditionally": 7844,
      "llywood": 7845,
      "Ġgardens": 7846,
      "Ġlimit": 7847,
      "Ġgiue": 7848,
      "Ġgeorg": 7849,
      "Ġfranklin": 7850,
      "Ġcompliment": 7851,
      "Ġregularly": 7852,
      "Ġassembled": 7853,
      "Ġexisting": 7854,
      "Ġjonah": 7855,
      "Ġrisen": 7856,
      "Ġsteadily": 7857,
      "Ġalexander": 7858,
      "ĠkhÃ¡nh": 7859,
      "Ġdissipated": 7860,
      "Ġstrengthened": 7861,
      "Ġdoctrine": 7862,
      "dist": 7863,
      "ffe": 7864,
      "wo": 7865,
      "ÅĤ": 7866,
      "ĠÎ": 7867,
      "Ġ--": 7868,
      "reen": 7869,
      "Ġwides": 7870,
      "hands": 7871,
      "Ġchat": 7872,
      "Ġcel": 7873,
      "Ġdull": 7874,
      "Ġreub": 7875,
      "Ġreform": 7876,
      "Ġancest": 7877,
      "Ġkat": 7878,
      "ods": 7879,
      "Ġraces": 7880,
      "Ġuncertain": 7881,
      "Ġaltered": 7882,
      "Ġshared": 7883,
      "Ġorche": 7884,
      "Ġcock": 7885,
      "oft": 7886,
      "Ġresident": 7887,
      "phil": 7888,
      "Ġsyria": 7889,
      "Ġedom": 7890,
      "Ġsingers": 7891,
      "ologists": 7892,
      "Ġinfinite": 7893,
      "Ġintense": 7894,
      "Ġsmallest": 7895,
      "Ġ160": 7896,
      "Ġbusy": 7897,
      "Ġcampbell": 7898,
      "Ġcutting": 7899,
      "Ġexplos": 7900,
      "Ġclubs": 7901,
      "Ġbraz": 7902,
      "Ġacquainted": 7903,
      "Ġshark": 7904,
      "Ġweapon": 7905,
      "Ġjamal": 7906,
      "Ġcategory": 7907,
      "Ġpillars": 7908,
      "Ġcheerful": 7909,
      "Ġrhyth": 7910,
      "Ġabundance": 7911,
      "Ġtrumpet": 7912,
      "Ġeggs": 7913,
      "Ġportrait": 7914,
      "Ġunsuccess": 7915,
      "thousand": 7916,
      "named": 7917,
      "rain": 7918,
      "rather": 7919,
      "Ġtan": 7920,
      "heth": 7921,
      "haw": 7922,
      "Ġhou": 7923,
      "alom": 7924,
      "Ġwearing": 7925,
      "Ġsep": 7926,
      "Ġjones": 7927,
      "Ġsung": 7928,
      "Ġmead": 7929,
      "essions": 7930,
      "pper": 7931,
      "Ġspons": 7932,
      "cking": 7933,
      "Ġprud": 7934,
      "Ġendeav": 7935,
      "Ġelimin": 7936,
      "amped": 7937,
      "Ġeverlasting": 7938,
      "Ġclever": 7939,
      "Ġstorms": 7940,
      "Ġ1946": 7941,
      "Ġcharacteristics": 7942,
      "Ġobservation": 7943,
      "Ġverse": 7944,
      "Ġprotagon": 7945,
      "door": 7946,
      "Ġbillion": 7947,
      "Ġstatement": 7948,
      "Ġaffairs": 7949,
      "Ġvaluable": 7950,
      "Ġsettlers": 7951,
      "Ġabsalom": 7952,
      "Ġstraw": 7953,
      "glas": 7954,
      "Ġengineering": 7955,
      "Ġflights": 7956,
      "Ġspoiled": 7957,
      "Ġhunting": 7958,
      "between": 7959,
      "servants": 7960,
      "Ġcontroversy": 7961,
      "Ġfulfilled": 7962,
      "Ġvehicles": 7963,
      "Ġpenalty": 7964,
      "brought": 7965,
      "gor": 7966,
      "ko": 7967,
      "poss": 7968,
      "pread": 7969,
      "Ġsod": 7970,
      "Ġsamp": 7971,
      "Ġwy": 7972,
      "Ġwre": 7973,
      "Ġcake": 7974,
      "Ġmol": 7975,
      "itled": 7976,
      "Ġpressed": 7977,
      "Ġpipe": 7978,
      "Ġlamp": 7979,
      "Ġnut": 7980,
      "almost": 7981,
      "Ġulyss": 7982,
      "imon": 7983,
      "Ġstuff": 7984,
      "Ġashes": 7985,
      "Ġunex": 7986,
      "Ġva": 7987,
      "akers": 7988,
      "Ġherd": 7989,
      "ardo": 7990,
      "Ġdost": 7991,
      "Ġfoc": 7992,
      "Ġhook": 7993,
      "Ġpresently": 7994,
      "Ġwarning": 7995,
      "Ġmonster": 7996,
      "Ġguy": 7997,
      "Ġglance": 7998,
      "ibbe": 7999,
      "Ġdrown": 8000,
      "Ġsimone": 8001,
      "Ġexpand": 8002,
      "Ġheavenly": 8003,
      "hips": 8004,
      "Ġprovides": 8005,
      "Ġcheek": 8006,
      "Ġdeveloping": 8007,
      "Ġdefin": 8008,
      "Ġpatience": 8009,
      "however": 8010,
      "Ġclassic": 8011,
      "Ġexplan": 8012,
      "Ġsoldier": 8013,
      "Ġroutes": 8014,
      "Ġtestimony": 8015,
      "Ġexamples": 8016,
      "Ġsevent": 8017,
      "Ġseventy": 8018,
      "Ġsurvived": 8019,
      "Ġassistant": 8020,
      "Ġfrequent": 8021,
      "belie": 8022,
      "whether": 8023,
      "Ġscholar": 8024,
      "Ġcomparison": 8025,
      "Ġreinforce": 8026,
      "Ġtemples": 8027,
      "Ġthroat": 8028,
      "Ġpharise": 8029,
      "Ġmacleod": 8030,
      "Ġulysses": 8031,
      "59": 8032,
      "city": 8033,
      "greg": 8034,
      "oll": 8035,
      "rants": 8036,
      "Ġ#": 8037,
      "Ġtorn": 8038,
      "erted": 8039,
      "Ġthorn": 8040,
      "Ġyan": 8041,
      "rians": 8042,
      "Ġ110": 8043,
      "Ġalike": 8044,
      "Ġsale": 8045,
      "Ġshade": 8046,
      "Ġbutter": 8047,
      "Ġupward": 8048,
      "Ġ1919": 8049,
      "Ġ1936": 8050,
      "Ġenormous": 8051,
      "Ġliqu": 8052,
      "Ġseriously": 8053,
      "Ġpregn": 8054,
      "Ġknoweth": 8055,
      "Ġcharming": 8056,
      "Ġaccused": 8057,
      "Ġeveryone": 8058,
      "Ġ59": 8059,
      "Ġconscience": 8060,
      "Ġstrand": 8061,
      "Ġobv": 8062,
      "Ġsupplies": 8063,
      "Ġphill": 8064,
      "Ġdecor": 8065,
      "point": 8066,
      "Ġcarefully": 8067,
      "Ġpopulations": 8068,
      "Ġ1966": 8069,
      "Ġlegacy": 8070,
      "Ġlowest": 8071,
      "Ġ1952": 8072,
      "Ġdealt": 8073,
      "Ġsimilarly": 8074,
      "scar": 8075,
      "Ġiniti": 8076,
      "Ġfacing": 8077,
      "Ġtables": 8078,
      "Ġfatal": 8079,
      "Ġdelightful": 8080,
      "Ġbiography": 8081,
      "Ġsensible": 8082,
      "Ġautumn": 8083,
      "Ġquietly": 8084,
      "banon": 8085,
      "burg": 8086,
      "Ġpreserve": 8087,
      "Ġperceive": 8088,
      "Ġparticipated": 8089,
      "Ġessential": 8090,
      "Ġcloser": 8091,
      "Ġinquir": 8092,
      "Ġpursue": 8093,
      "priest": 8094,
      "Ġredeem": 8095,
      "Ġchallenge": 8096,
      "blo": 8097,
      "fold": 8098,
      "leness": 8099,
      "nic": 8100,
      "phe": 8101,
      "sk": 8102,
      "wit": 8103,
      "Ġtales": 8104,
      "Ġpest": 8105,
      "Ġpace": 8106,
      "aning": 8107,
      "asa": 8108,
      "Ġgifts": 8109,
      "Ġutil": 8110,
      "roll": 8111,
      "Ġdegr": 8112,
      "Ġvary": 8113,
      "Ġalarm": 8114,
      "Ġherb": 8115,
      "Ġshakes": 8116,
      "umped": 8117,
      "abled": 8118,
      "Ġpluck": 8119,
      "Ġamate": 8120,
      "Ġafternoon": 8121,
      "cles": 8122,
      "Ġovercome": 8123,
      "Ġfolly": 8124,
      "ilee": 8125,
      "cover": 8126,
      "Ġrio": 8127,
      "onsense": 8128,
      "mann": 8129,
      "Ġcharter": 8130,
      "issance": 8131,
      "Ġrecru": 8132,
      "Ġcarved": 8133,
      "Ġsubmar": 8134,
      "Ġmaur": 8135,
      "Ġsimultane": 8136,
      "Ġmidnight": 8137,
      "Ġoccasions": 8138,
      "Ġdescribing": 8139,
      "Ġesau": 8140,
      "Ġ177": 8141,
      "Ġapproved": 8142,
      "Ġqueer": 8143,
      "Ġmadam": 8144,
      "works": 8145,
      "Ġcompetitions": 8146,
      "Ġcryst": 8147,
      "Ġimmig": 8148,
      "ÃŃa": 8149,
      "Ġdominated": 8150,
      "Ġcardinal": 8151,
      "Ġhanging": 8152,
      "reescore": 8153,
      "Ġathletic": 8154,
      "foot": 8155,
      "Ġpreparation": 8156,
      "Ġanthony": 8157,
      "Ġfrightened": 8158,
      "Ġcolumbia": 8159,
      "Ġmushroom": 8160,
      "Ġartificial": 8161,
      "89": 8162,
      "fare": 8163,
      "hun": 8164,
      "hist": 8165,
      "press": 8166,
      "ran": 8167,
      "vn": 8168,
      "yards": 8169,
      "Ġsag": 8170,
      "Ġobe": 8171,
      "real": 8172,
      "Ġbows": 8173,
      "armed": 8174,
      "ati": 8175,
      "aser": 8176,
      "Ġhunt": 8177,
      "stit": 8178,
      "othe": 8179,
      "Ġwast": 8180,
      "ilton": 8181,
      "Ġconte": 8182,
      "Ġalbert": 8183,
      "uls": 8184,
      "osha": 8185,
      "Ġfeels": 8186,
      "Ġcoins": 8187,
      "Ġaged": 8188,
      "Ġscra": 8189,
      "Ġindicate": 8190,
      "Ġsmiled": 8191,
      "Ġengage": 8192,
      "Ġ77": 8193,
      "Ġreturns": 8194,
      "pective": 8195,
      "Ġprevented": 8196,
      "Ġ1973": 8197,
      "Ġreviewers": 8198,
      "Ġaffliction": 8199,
      "Ġcolonial": 8200,
      "Ġcoastal": 8201,
      "Ġutmost": 8202,
      "Ġcruiser": 8203,
      "Ġnovels": 8204,
      "buchad": 8205,
      "Ġlanguages": 8206,
      "Äģn": 8207,
      "looked": 8208,
      "Ġengineers": 8209,
      "Ġopinions": 8210,
      "Ġgallery": 8211,
      "Ġmaterials": 8212,
      "Ġadmiration": 8213,
      "Ġfunding": 8214,
      "Ġconsisting": 8215,
      "Ġrifles": 8216,
      "piece": 8217,
      "Ġdismissed": 8218,
      "Ġhydro": 8219,
      "Ġimmortal": 8220,
      "Ġwidespread": 8221,
      "bound": 8222,
      "nels": 8223,
      "run": 8224,
      "ti": 8225,
      "zac": 8226,
      "Ġsara": 8227,
      "Ġwomb": 8228,
      "Ġnantucket": 8229,
      "ician": 8230,
      "Ġasce": 8231,
      "thine": 8232,
      "Ġjar": 8233,
      "Ġjazz": 8234,
      "Ġventure": 8235,
      "osure": 8236,
      "pton": 8237,
      "Ġ1914": 8238,
      "Ġloving": 8239,
      "Ġdock": 8240,
      "Ġusa": 8241,
      "Ġcaval": 8242,
      "Ġtea": 8243,
      "bear": 8244,
      "Ġcontempt": 8245,
      "Ġdownlo": 8246,
      "Ġ55": 8247,
      "Ġfinishing": 8248,
      "Ġacid": 8249,
      "Ġ98": 8250,
      "Ġdefined": 8251,
      "Ġdouglas": 8252,
      "harriet": 8253,
      "Ġ1967": 8254,
      "Ġknees": 8255,
      "exe": 8256,
      "Ġtechnique": 8257,
      "Ġhomer": 8258,
      "Ġnegle": 8259,
      "Ġrecognition": 8260,
      "Ġconceived": 8261,
      "Ġhornung": 8262,
      "Ġlaunch": 8263,
      "Ġeagerly": 8264,
      "Ġmethods": 8265,
      "Ġdollars": 8266,
      "Ġobservations": 8267,
      "Ġchronicles": 8268,
      "Ġparallel": 8269,
      "Ġiguanodon": 8270,
      "cru": 8271,
      "ym": 8272,
      "Ġtide": 8273,
      "onement": 8274,
      "Ġfanc": 8275,
      "Ġmall": 8276,
      "Ġpant": 8277,
      "atched": 8278,
      "Ġhits": 8279,
      "oming": 8280,
      "Ġstab": 8281,
      "urance": 8282,
      "Ġvon": 8283,
      "ola": 8284,
      "Ġalmighty": 8285,
      "rah": 8286,
      "rawn": 8287,
      "ifies": 8288,
      "iston": 8289,
      "Ġproc": 8290,
      "Ġexit": 8291,
      "Ġdoeth": 8292,
      "Ġaml": 8293,
      "soon": 8294,
      "Ġknots": 8295,
      "Ġadvers": 8296,
      "Ġcauses": 8297,
      "Ġoverw": 8298,
      "beit": 8299,
      "Ġanywhere": 8300,
      "Ġrecre": 8301,
      "Ġ54": 8302,
      "Ġevac": 8303,
      "Ġembr": 8304,
      "Ġcaribbe": 8305,
      "Ġimpress": 8306,
      "lton": 8307,
      "Ġelephant": 8308,
      "return": 8309,
      "mael": 8310,
      "Ġnaturally": 8311,
      "Ġwestward": 8312,
      "Ġlocations": 8313,
      "Ġproportion": 8314,
      "Ġproviding": 8315,
      "naissance": 8316,
      "Ġhurried": 8317,
      "Ġjersey": 8318,
      "Ġslept": 8319,
      "Ġstoryline": 8320,
      "Ġmurm": 8321,
      "Ġgibe": 8322,
      "Ġgeorgian": 8323,
      "Ġstephen": 8324,
      "Ġsafely": 8325,
      "Ġmelanch": 8326,
      "Ġambass": 8327,
      "Ġchairman": 8328,
      "Ġdrums": 8329,
      "Ġpreferred": 8330,
      "Ġjehoi": 8331,
      "Ġphoen": 8332,
      "Ġenterprise": 8333,
      "Ġbrazil": 8334,
      "54": 8335,
      "called": 8336,
      "Ġtum": 8337,
      "Ġtack": 8338,
      "half": 8339,
      "Ġhud": 8340,
      "Ġhated": 8341,
      "stre": 8342,
      "star": 8343,
      "Ġwept": 8344,
      "Ġrams": 8345,
      "Ġmeets": 8346,
      "oph": 8347,
      "open": 8348,
      "Ġlovers": 8349,
      "Ġamuse": 8350,
      "Ġtwent": 8351,
      "Ġchambers": 8352,
      "Ġcompon": 8353,
      "Ġsomebody": 8354,
      "Ġgrade": 8355,
      "Ġremind": 8356,
      "Ġcharges": 8357,
      "Ġrecalled": 8358,
      "Ġsmart": 8359,
      "Ġjudges": 8360,
      "Ġparish": 8361,
      "Ġsentiment": 8362,
      "Ġmothers": 8363,
      "Ġcleared": 8364,
      "Ġsooner": 8365,
      "Ġliveth": 8366,
      "Ġ1971": 8367,
      "Ġdevour": 8368,
      "Ġrocky": 8369,
      "Ġcapacity": 8370,
      "Ġclassified": 8371,
      "Ġcommunication": 8372,
      "Ġcolonies": 8373,
      "Ġbrah": 8374,
      "Ġlambs": 8375,
      "Ġlaughter": 8376,
      "Ġconceal": 8377,
      "Ġinnings": 8378,
      "Ġconstantine": 8379,
      "Ġadapted": 8380,
      "Ġgratitude": 8381,
      "macian": 8382,
      "Ġchelsea": 8383,
      "Ġcaribbean": 8384,
      "66": 8385,
      "fred": 8386,
      "iber": 8387,
      "mine": 8388,
      "mount": 8389,
      "Ġhint": 8390,
      "Ġgree": 8391,
      "thr": 8392,
      "ĠrÃ©": 8393,
      "Ġdeeds": 8394,
      "illing": 8395,
      "istle": 8396,
      "ighed": 8397,
      "Ġplains": 8398,
      "Ġamor": 8399,
      "Ġfeare": 8400,
      "sover": 8401,
      "berry": 8402,
      "Ġbron": 8403,
      "Ġmoz": 8404,
      "Ġmonst": 8405,
      "Ġmaeda": 8406,
      "Ġministry": 8407,
      "Ġdepicted": 8408,
      "Ġtransgress": 8409,
      "Ġsixteen": 8410,
      "Ġdiscour": 8411,
      "Ġpatty": 8412,
      "Ġ1945": 8413,
      "Ġtroubles": 8414,
      "Ġoccurs": 8415,
      "Ġvisitors": 8416,
      "Ġelectronic": 8417,
      "trans": 8418,
      "Ġneighbor": 8419,
      "Ġvenus": 8420,
      "Ġclothed": 8421,
      "Ġprotected": 8422,
      "Ġrarely": 8423,
      "Ġratings": 8424,
      "Ġcertified": 8425,
      "Ġproposal": 8426,
      "Ġshepherd": 8427,
      "Ġadventures": 8428,
      "Ġhibari": 8429,
      "56": 8430,
      "aired": 8431,
      "cong": 8432,
      "lom": 8433,
      "nch": 8434,
      "sent": 8435,
      "sur": 8436,
      "Ġak": 8437,
      "Ġming": 8438,
      "Ġmtv": 8439,
      "Ġpagan": 8440,
      "Ġgib": 8441,
      "Ġib": 8442,
      "lder": 8443,
      "Ġisn": 8444,
      "Ġ112": 8445,
      "Ġanointed": 8446,
      "Ġfranch": 8447,
      "istered": 8448,
      "Ġexert": 8449,
      "Ġloft": 8450,
      "Ġchin": 8451,
      "Ġspout": 8452,
      "Ġspacing": 8453,
      "Ġtran": 8454,
      "Ġpert": 8455,
      "Ġoffers": 8456,
      "apes": 8457,
      "Ġunderneath": 8458,
      "Ġcrack": 8459,
      "Ġevident": 8460,
      "Ġslaughter": 8461,
      "Ġrelative": 8462,
      "Ġevergl": 8463,
      "Ġdistributed": 8464,
      "Ġintegr": 8465,
      "Ġwalks": 8466,
      "Ġextent": 8467,
      "imelech": 8468,
      "Ġ1982": 8469,
      "Ġpatri": 8470,
      "Ġlistening": 8471,
      "Ġdeceit": 8472,
      "Ġexplore": 8473,
      "Ġ250": 8474,
      "Ġmischief": 8475,
      "Ġromani": 8476,
      "Ġaccompany": 8477,
      "Ġregional": 8478,
      "Ġmessengers": 8479,
      "Ġeldest": 8480,
      "Ġautom": 8481,
      "Ġbelonged": 8482,
      "Ġcredited": 8483,
      "Ġcredits": 8484,
      "Ġdegrees": 8485,
      "Ġqedar": 8486,
      "certainly": 8487,
      "Ġexceeding": 8488,
      "Ġoslo": 8489,
      "Ġwhisper": 8490,
      "Ġrandalls": 8491,
      "Ġbarton": 8492,
      "Ġleonora": 8493,
      "course": 8494,
      "Ġspecimens": 8495,
      "Ġhebrew": 8496,
      "Ġsurrender": 8497,
      "Ġritual": 8498,
      "Ġfruits": 8499,
      "Ġcotton": 8500,
      "ruli": 8501,
      "Ġeverglades": 8502,
      "69": 8503,
      "cur": 8504,
      "gi": 8505,
      "iac": 8506,
      "tem": 8507,
      "inction": 8508,
      "rece": 8509,
      "Ġbac": 8510,
      "Ġfoul": 8511,
      "itals": 8512,
      "Ġdish": 8513,
      "Ġdried": 8514,
      "Ġdating": 8515,
      "Ġthief": 8516,
      "Ġstairs": 8517,
      "rier": 8518,
      "Ġseized": 8519,
      "Ġkin": 8520,
      "Ġnotion": 8521,
      "top": 8522,
      "ateful": 8523,
      "Ġlebanon": 8524,
      "Ġ1913": 8525,
      "Ġ1916": 8526,
      "Ġamen": 8527,
      "Ġchain": 8528,
      "love": 8529,
      "Ġadul": 8530,
      "covered": 8531,
      "Ġdesir": 8532,
      "Ġobsc": 8533,
      "Ġactual": 8534,
      "Ġyoungest": 8535,
      "Ġhelmet": 8536,
      "Ġmete": 8537,
      "Ġforever": 8538,
      "Ġpatron": 8539,
      "Ġ1976": 8540,
      "Ġ1956": 8541,
      "Ġpalm": 8542,
      "Ġwitch": 8543,
      "Ġargument": 8544,
      "gency": 8545,
      "Ġcivilian": 8546,
      "Ġranks": 8547,
      "Ġrenamed": 8548,
      "Ġbeaten": 8549,
      "Ġwitnesses": 8550,
      "speak": 8551,
      "Ġvictoria": 8552,
      "Ġhindu": 8553,
      "Ġshouted": 8554,
      "Ġleaning": 8555,
      "Ġdisappeared": 8556,
      "Ġhaiti": 8557,
      "Ġishmael": 8558,
      "Ġwrapped": 8559,
      "Ġastronom": 8560,
      "Ġfocused": 8561,
      "dig": 8562,
      "done": 8563,
      "hundred": 8564,
      "low": 8565,
      "rising": 8566,
      "Ġwretched": 8567,
      "Ġbert": 8568,
      "Ġbaker": 8569,
      "Ġchess": 8570,
      "ona": 8571,
      "isms": 8572,
      "organ": 8573,
      "Ġdiet": 8574,
      "Ġlone": 8575,
      "Ġgry": 8576,
      "icit": 8577,
      "Ġbeet": 8578,
      "Ġile": 8579,
      "Ġsty": 8580,
      "Ġnoting": 8581,
      "Ġdeemed": 8582,
      "olished": 8583,
      "pending": 8584,
      "Ġrober": 8585,
      "Ġagency": 8586,
      "Ġscream": 8587,
      "ruption": 8588,
      "Ġindig": 8589,
      "Ġhandle": 8590,
      "Ġwhereof": 8591,
      "Ġcris": 8592,
      "ffman": 8593,
      "Ġregime": 8594,
      "derer": 8595,
      "within": 8596,
      "Ġsomal": 8597,
      "azar": 8598,
      "Ġdelicate": 8599,
      "Ġsignal": 8600,
      "Ġpromote": 8601,
      "Ġcasting": 8602,
      "Ġmerry": 8603,
      "Ġtownship": 8604,
      "Ġ1943": 8605,
      "Ġburial": 8606,
      "oba": 8607,
      "Ġclasses": 8608,
      "Ġcommunist": 8609,
      "Ġmaryland": 8610,
      "Ġsubjects": 8611,
      "Ġdeliber": 8612,
      "Ġnecessity": 8613,
      "Ġdominion": 8614,
      "Ġbenefit": 8615,
      "Ġreflection": 8616,
      "Ġliberal": 8617,
      "Ġdiscuss": 8618,
      "Ġfiery": 8619,
      "Ġrangers": 8620,
      "Ġvineyard": 8621,
      "Ġpapa": 8622,
      "Ġbasketball": 8623,
      "Ġpursuit": 8624,
      "Ġaccomplish": 8625,
      "Ġrifle": 8626,
      "Ġalternative": 8627,
      "Ġsacrifices": 8628,
      "Ġstrateg": 8629,
      "Ġcriminal": 8630,
      "Ġisolated": 8631,
      "cke": 8632,
      "ext": 8633,
      "egypt": 8634,
      "iary": 8635,
      "mast": 8636,
      "occ": 8637,
      "youn": 8638,
      "onia": 8639,
      "Ġhut": 8640,
      "Ġgest": 8641,
      "Ġgig": 8642,
      "leton": 8643,
      "struction": 8644,
      "Ġstem": 8645,
      "christ": 8646,
      "Ġdeed": 8647,
      "uma": 8648,
      "emor": 8649,
      "osa": 8650,
      "arded": 8651,
      "wealth": 8652,
      "Ġknife": 8653,
      "Ġusher": 8654,
      "Ġindul": 8655,
      "Ġelabor": 8656,
      "Ġ95": 8657,
      "Ġcaptive": 8658,
      "Ġbelieves": 8659,
      "Ġadvoc": 8660,
      "Ġdescribe": 8661,
      "Ġsatur": 8662,
      "aware": 8663,
      "Ġ1963": 8664,
      "Ġhonourable": 8665,
      "Ġgraves": 8666,
      "Ġarmour": 8667,
      "Ġpointing": 8668,
      "Ġaustralians": 8669,
      "Ġattempting": 8670,
      "Ġmorrison": 8671,
      "Ġabsent": 8672,
      "Ġruin": 8673,
      "Ġtests": 8674,
      "Ġmisery": 8675,
      "Ġgarment": 8676,
      "strong": 8677,
      "iquities": 8678,
      "Ġexcuse": 8679,
      "Ġclearly": 8680,
      "Ġtrusted": 8681,
      "Ġimagination": 8682,
      "Ġpurposes": 8683,
      "Ġprede": 8684,
      "Ġdinosaur": 8685,
      "Ġmontana": 8686,
      "Ġastonishment": 8687,
      "Ġbradford": 8688,
      "Ġwonders": 8689,
      "Ġchariot": 8690,
      "Ġportrayed": 8691,
      "Ġantony": 8692,
      "Ġabsolutely": 8693,
      "Ġgoddess": 8694,
      "Ġagricultural": 8695,
      "Ġshekels": 8696,
      "Ġreferences": 8697,
      "Ġsynagogue": 8698,
      "Ġarsenal": 8699,
      "oshaphat": 8700,
      "each": 8701,
      "gie": 8702,
      "gÃ©": 8703,
      "rass": 8704,
      "since": 8705,
      "tri": 8706,
      "Ġdense": 8707,
      "Ġnad": 8708,
      "Ġonline": 8709,
      "Ġrings": 8710,
      "Ġdew": 8711,
      "Ġshells": 8712,
      "Ġoverse": 8713,
      "Ġoffense": 8714,
      "Ġrig": 8715,
      "Ġhollywood": 8716,
      "Ġattributed": 8717,
      "Ġretained": 8718,
      "Ġassumed": 8719,
      "Ġ94": 8720,
      "Ġtries": 8721,
      "Ġstandards": 8722,
      "brother": 8723,
      "Ġmedium": 8724,
      "Ġreplace": 8725,
      "Ġmeetings": 8726,
      "Ġsuspended": 8727,
      "voice": 8728,
      "Ġposts": 8729,
      "Ġinternal": 8730,
      "Ġutc": 8731,
      "Ġjoyful": 8732,
      "Ġordin": 8733,
      "Ġholiday": 8734,
      "Ġbirthday": 8735,
      "Ġpaths": 8736,
      "Ġneighbours": 8737,
      "Ġguardian": 8738,
      "Ġarchaeology": 8739,
      "Ġdiscussed": 8740,
      "Ġtruj": 8741,
      "Ġremembrance": 8742,
      "Ġemerged": 8743,
      "follow": 8744,
      "Ġfavorite": 8745,
      "Ġlucky": 8746,
      "Ġemotional": 8747,
      "Ġconclusion": 8748,
      "Ġworshipped": 8749,
      "Ġmanifest": 8750,
      "Ġparadise": 8751,
      "Ġpharisees": 8752,
      "ees": 8753,
      "gate": 8754,
      "mates": 8755,
      "Ġern": 8756,
      "Ġavi": 8757,
      "Ġcant": 8758,
      "Ġdor": 8759,
      "Ġhealed": 8760,
      "Ġgrief": 8761,
      "Ġreact": 8762,
      "Ġisles": 8763,
      "Ġanzac": 8764,
      "alle": 8765,
      "orde": 8766,
      "Ġvague": 8767,
      "ulch": 8768,
      "Ġnephe": 8769,
      "ums": 8770,
      "Ġshining": 8771,
      "Ġfever": 8772,
      "Ġfeeding": 8773,
      "Ġworn": 8774,
      "forced": 8775,
      "Ġpartner": 8776,
      "Ġrecur": 8777,
      "Ġelijah": 8778,
      "ailing": 8779,
      "Ġenthus": 8780,
      "Ġformal": 8781,
      "Ġdepos": 8782,
      "Ġmissions": 8783,
      "Ġlovely": 8784,
      "Ġexposed": 8785,
      "Ġmajesty": 8786,
      "Ġ1978": 8787,
      "Ġsuccessor": 8788,
      "Ã©t": 8789,
      "Ġwilde": 8790,
      "Ġ1953": 8791,
      "Ġcommunities": 8792,
      "Ġformerly": 8793,
      "spir": 8794,
      "Ġarrive": 8795,
      "Ġstaying": 8796,
      "umbling": 8797,
      "Ġcorners": 8798,
      "Ġsailing": 8799,
      "offering": 8800,
      "Ġastonished": 8801,
      "Ġremarked": 8802,
      "Ġdebate": 8803,
      "Ġspecifically": 8804,
      "Ġattracted": 8805,
      "Ġcroatian": 8806,
      "Ġphilosophy": 8807,
      "Ġrebels": 8808,
      "Ġlikeness": 8809,
      "Ġpredecess": 8810,
      "Ġtrujillo": 8811,
      "\"'": 8812,
      "cular": 8813,
      "cision": 8814,
      "hol": 8815,
      "none": 8816,
      "rich": 8817,
      "rates": 8818,
      "ĪĴ": 8819,
      "Ġtub": 8820,
      "Ġbury": 8821,
      "having": 8822,
      "Ġchen": 8823,
      "Ġcedar": 8824,
      "Ġfires": 8825,
      "itively": 8826,
      "Ġlud": 8827,
      "Ġlenn": 8828,
      "Ġheare": 8829,
      "idity": 8830,
      "Ġrude": 8831,
      "Ġvow": 8832,
      "Ġvote": 8833,
      "Ġalan": 8834,
      "thel": 8835,
      "Ġmankind": 8836,
      "Ġprohib": 8837,
      "Ġarrows": 8838,
      "Ġroxas": 8839,
      "Ġcoin": 8840,
      "fected": 8841,
      "ĠâĪĴ": 8842,
      "Ġhoward": 8843,
      "pless": 8844,
      "Ġflies": 8845,
      "Ġcharlie": 8846,
      "Ġcarmel": 8847,
      "Ġ61": 8848,
      "Ġ69": 8849,
      "Ġrelation": 8850,
      "Ġstef": 8851,
      "Ġnorthward": 8852,
      "Ġtriple": 8853,
      "ologies": 8854,
      "Ġtransition": 8855,
      "ropol": 8856,
      "Ġstrongest": 8857,
      "does": 8858,
      "regular": 8859,
      "heads": 8860,
      "Ġreasonable": 8861,
      "Ġjackal": 8862,
      "Ġthirst": 8863,
      "Ġarchb": 8864,
      "passed": 8865,
      "Ġbiographer": 8866,
      "Ġsequel": 8867,
      "naments": 8868,
      "Ġashore": 8869,
      "Ġcassius": 8870,
      "Ġmourn": 8871,
      "Ġopponents": 8872,
      "Ġpsych": 8873,
      "Ġphrase": 8874,
      "Ġresources": 8875,
      "Ġreuben": 8876,
      "Ġcrisis": 8877,
      "\"--": 8878,
      "ben": 8879,
      "bad": 8880,
      "cence": 8881,
      "div": 8882,
      "mish": 8883,
      "tles": 8884,
      "wed": 8885,
      "Ã¸": 8886,
      "Ġtheater": 8887,
      "inery": 8888,
      "oust": 8889,
      "Ġinse": 8890,
      "Ġdal": 8891,
      "Ġduc": 8892,
      "Ġnbc": 8893,
      "omed": 8894,
      "Ġasa": 8895,
      "Ġunhappy": 8896,
      "aka": 8897,
      "eling": 8898,
      "icho": 8899,
      "union": 8900,
      "Ġexisted": 8901,
      "Ġplunk": 8902,
      "Ġ1915": 8903,
      "Ġspaces": 8904,
      "Ġrope": 8905,
      "Ġoutstanding": 8906,
      "sole": 8907,
      "iped": 8908,
      "Ġenlar": 8909,
      "Ġchall": 8910,
      "ildad": 8911,
      "irect": 8912,
      "Ġclimate": 8913,
      "coat": 8914,
      "Ġsubt": 8915,
      "Ġ66": 8916,
      "Ġjustified": 8917,
      "Ġinvis": 8918,
      "Ġdecree": 8919,
      "Ġbasic": 8920,
      "Ġeste": 8921,
      "Ġsigning": 8922,
      "Ġprompt": 8923,
      "Ġhamilton": 8924,
      "Ġdevils": 8925,
      "Ġlistened": 8926,
      "Ġprair": 8927,
      "Ġanticip": 8928,
      "Ġarmor": 8929,
      "Ġillness": 8930,
      "saith": 8931,
      "Ġreviewer": 8932,
      "Ġinfluences": 8933,
      "Ġdwelling": 8934,
      "Ġpenet": 8935,
      "Ġgiants": 8936,
      "Ġactivision": 8937,
      "Ġborders": 8938,
      "Ġglobal": 8939,
      "Ġrepresenting": 8940,
      "Ġborrow": 8941,
      "Ġlinked": 8942,
      "Ġtunnel": 8943,
      "Ġmargaret": 8944,
      "Ġstroke": 8945,
      "Ġrabbit": 8946,
      "righteousness": 8947,
      "Ġinvolvement": 8948,
      "Ġinspiration": 8949,
      "Ġamateur": 8950,
      "Ġmaurice": 8951,
      "Ġmelancholy": 8952,
      "eech": 8953,
      "list": 8954,
      "ras": 8955,
      "rud": 8956,
      "uine": 8957,
      "inte": 8958,
      "Ġsings": 8959,
      "Ġsession": 8960,
      "rell": 8961,
      "Ġcars": 8962,
      "orters": 8963,
      "Ġheir": 8964,
      "Ġheli": 8965,
      "Ġthreescore": 8966,
      "Ġrender": 8967,
      "Ġrebe": 8968,
      "Ġul": 8969,
      "imet": 8970,
      "Ġstiff": 8971,
      "riel": 8972,
      "olence": 8973,
      "Ġplenty": 8974,
      "Ġsprang": 8975,
      "Ġquant": 8976,
      "Ġsomewhere": 8977,
      "Ġindignation": 8978,
      "Ġchildhood": 8979,
      "phon": 8980,
      "Ġpassengers": 8981,
      "Ġappropri": 8982,
      "dev": 8983,
      "Ġ79": 8984,
      "Ġassess": 8985,
      "Ġdivor": 8986,
      "Ġdivide": 8987,
      "Ġoffices": 8988,
      "Ġreplacement": 8989,
      "Ġcalvert": 8990,
      "Ġverte": 8991,
      "suing": 8992,
      "Ġpitcher": 8993,
      "Ġcrosses": 8994,
      "Ġrushing": 8995,
      "Ġbrigades": 8996,
      "Ġhistorians": 8997,
      "barrass": 8998,
      "Ġawa": 8999,
      "apping": 9000,
      "Ġdanny": 9001,
      "Ġoccupation": 9002,
      "Ġpossessed": 9003,
      "Ġplatform": 9004,
      "Ġacademic": 9005,
      "Ġdisappointed": 9006,
      "Ġcandidate": 9007,
      "Ġspecimen": 9008,
      "Ġfetch": 9009,
      "Ġapplication": 9010,
      "Ġoverwhel": 9011,
      "jes": 9012,
      "nie": 9013,
      "vative": 9014,
      "Ġtid": 9015,
      "inth": 9016,
      "Ġoars": 9017,
      "Ġwim": 9018,
      "Ġbang": 9019,
      "Ġcory": 9020,
      "Ġfab": 9021,
      "encies": 9022,
      "Ġdna": 9023,
      "atures": 9024,
      "Ġtooth": 9025,
      "Ġlanc": 9026,
      "Ġbend": 9027,
      "Ġreleg": 9028,
      "Ġyank": 9029,
      "Ġstup": 9030,
      "urg": 9031,
      "ulating": 9032,
      "resa": 9033,
      "Ġ1917": 9034,
      "Ġoutward": 9035,
      "weight": 9036,
      "Ġbrake": 9037,
      "Ġbrick": 9038,
      "Ġtimber": 9039,
      "Ġmarines": 9040,
      "Ġhob": 9041,
      "Ġnorman": 9042,
      "ahl": 9043,
      "Ġharp": 9044,
      "Ġcarbon": 9045,
      "Ġgene": 9046,
      "Ġregister": 9047,
      "Ġfollowers": 9048,
      "Ġtrials": 9049,
      "Ġcontinual": 9050,
      "Ġchristo": 9051,
      "Ġbelieving": 9052,
      "Ġadvis": 9053,
      "Ġblocks": 9054,
      "Ġmusicians": 9055,
      "Ġcompletion": 9056,
      "Ġstaring": 9057,
      "Ġmoderate": 9058,
      "Ġ1948": 9059,
      "iterranean": 9060,
      "Ġwax": 9061,
      "Ġdestroyers": 9062,
      "Ġrecovery": 9063,
      "Ġqueens": 9064,
      "Ġdespair": 9065,
      "Ġrushed": 9066,
      "Ġdisposed": 9067,
      "nesse": 9068,
      "jevo": 9069,
      "Ġsurviving": 9070,
      "Ġ1890": 9071,
      "Ġplanted": 9072,
      "Ġinstitutions": 9073,
      "Ġdetailed": 9074,
      "Ġmixture": 9075,
      "Ġdiameter": 9076,
      "Ġivory": 9077,
      "Ġexercise": 9078,
      "Ġmanufacture": 9079,
      "spring": 9080,
      "Ġtrembling": 9081,
      "Ġvengeance": 9082,
      "Ġkitsune": 9083,
      "Ġsarajevo": 9084,
      "exeunt": 9085,
      "Ġtwentieth": 9086,
      "aire": 9087,
      "pense": 9088,
      "tons": 9089,
      "ylo": 9090,
      "Ġts": 9091,
      "inst": 9092,
      "inations": 9093,
      "inals": 9094,
      "Ġsanta": 9095,
      "Ġfitted": 9096,
      "Ġmental": 9097,
      "ouch": 9098,
      "Ġnom": 9099,
      "iciently": 9100,
      "Ġbeau": 9101,
      "Ġseats": 9102,
      "Ġjif": 9103,
      "Ġnebuchad": 9104,
      "Ġarray": 9105,
      "Ġsplend": 9106,
      "Ġcovers": 9107,
      "avid": 9108,
      "Ġquit": 9109,
      "Ġresidence": 9110,
      "athy": 9111,
      "plain": 9112,
      "Ġindicated": 9113,
      "Ġrepair": 9114,
      "Ġ62": 9115,
      "Ġslide": 9116,
      "Ġguild": 9117,
      "shore": 9118,
      "Ġ99": 9119,
      "Ġgenerals": 9120,
      "Ġ85": 9121,
      "Ġ88": 9122,
      "Ġparade": 9123,
      "Ġexpensive": 9124,
      "post": 9125,
      "Ġhumour": 9126,
      "Ġskye": 9127,
      "Ġmediterranean": 9128,
      "Ġ1979": 9129,
      "Ġreaders": 9130,
      "Ġclassical": 9131,
      "Ġequival": 9132,
      "Ġ1951": 9133,
      "Ġorganizations": 9134,
      "Ġlamps": 9135,
      "Ġsleeping": 9136,
      "Ġfishing": 9137,
      "Ġscarlet": 9138,
      "Ġhungry": 9139,
      "Ġinstitution": 9140,
      "Ġnomination": 9141,
      "Ġleadership": 9142,
      "ukem": 9143,
      "Ġtiger": 9144,
      "Ġcrusad": 9145,
      "Ġprophesy": 9146,
      "Ġdignity": 9147,
      "Ġdesperate": 9148,
      "Ġcitizens": 9149,
      "urrection": 9150,
      "Ġgeorgia": 9151,
      "Ġshakespe": 9152,
      "Ġyankovic": 9153,
      "fle": 9154,
      "tz": 9155,
      "wich": 9156,
      "Ã§": 9157,
      "Ġsank": 9158,
      "rep": 9159,
      "Ġwi": 9160,
      "Ġbars": 9161,
      "Ġfert": 9162,
      "Ġfern": 9163,
      "esh": 9164,
      "aned": 9165,
      "Ġnam": 9166,
      "icular": 9167,
      "left": 9168,
      "Ġhab": 9169,
      "Ġwashed": 9170,
      "Ġasleep": 9171,
      "Ġhers": 9172,
      "quet": 9173,
      "Ġshots": 9174,
      "opp": 9175,
      "oped": 9176,
      "Ġpled": 9177,
      "----\"": 9178,
      "Ġtrunk": 9179,
      "avia": 9180,
      "Ġcanst": 9181,
      "Ġoffence": 9182,
      "Ġdismay": 9183,
      "Ġimplement": 9184,
      "Ġentitled": 9185,
      "Ġbuff": 9186,
      "dear": 9187,
      "Ġsomali": 9188,
      "Ġparas": 9189,
      "Ġproducts": 9190,
      "avened": 9191,
[...]
