{
  "version": "1.0",
  "truncation": null,
  "padding": null,
  "added_tokens": [
    {
      "id": 0,
      "content": "[PAD]",
      "single_word": false,
      "lstrip": false,
      "rstrip": false,
      "normalized": false,
      "special": true
    },
    {
      "id": 1,
      "content": "[UNK]",
      "single_word": false,
      "lstrip": false,
      "rstrip": false,
      "normalized": false,
      "special": true
    },
    {
      "id": 2,
      "content": "[CLS]",
      "single_word": false,
      "lstrip": false,
      "rstrip": false,
      "normalized": false,
      "special": true
    },
    {
      "id": 3,
      "content": "[SEP]",
      "single_word": false,
      "lstrip": false,
      "rstrip": false,
      "normalized": false,
      "special": true
    },
    {
      "id": 4,
      "content": "[MASK]",
      "single_word": false,
      "lstrip": false,
      "rstrip": false,
      "normalized": false,
      "special": true
    }
  ],
  "normalizer": {
    "type": "Sequence",
    "normalizers": [
      {
        "type": "NFKC"
      },
      {
        "type": "Lowercase"
      }
    ]
  },
  "pre_tokenizer": {
    "type": "ByteLevel",
    "add_prefix_space": false,
    "trim_offsets": true,
    "use_regex": true
  },
  "post_processor": null,
  "decoder": null,
  "model": {
    "type": "BPE",
    "dropout": null,
    "unk_token": "[UNK]",
    "continuing_subword_prefix": null,
    "end_of_word_suffix": null,
    "fuse_unk": false,
    "byte_fallback": false,
    "ignore_merges": false,
    "vocab": {
      "[PAD]": 0,
      "[UNK]": 1,
      "[CLS]": 2,
      "[SEP]": 3,
      "[MASK]": 4,
      "!": 5,
      "\"": 6,
      "$": 7,
      "%": 8,
      "&": 9,
      "'": 10,
      "(": 11,
      ")": 12,
      "*": 13,
      "+": 14,
      ",": 15,
      "-": 16,
      ".": 17,
      "/": 18,
      "0": 19,
      "1": 20,
      "2": 21,
      "3": 22,
      "4": 23,
      "5": 24,
      "6": 25,
      "7": 26,
      "8": 27,
      "9": 28,
      ":": 29,
      ";": 30,
      "<": 31,
      "=": 32,
      ">": 33,
      "?": 34,
      "@": 35,
      "[": 36,
      "]": 37,
      "_": 38,
      "`": 39,
      "a": 40,
      "b": 41,
      "c": 42,
      "d": 43,
      "e": 44,
      "f": 45,
      "g": 46,
      "h": 47,
      "i": 48,
      "j": 49,
      "k": 50,
      "l": 51,
      "m": 52,
      "n": 53,
      "o": 54,
      "p": 55,
      "q": 56,
      "r": 57,
      "s": 58,
      "t": 59,
      "u": 60,
      "v": 61,
      "w": 62,
      "x": 63,
      "y": 64,
      "z": 65,
      "}": 66,
      "~": 67,
      "¦": 68,
      "¨": 69,
      "©": 70,
      "®": 71,
      "Ã": 72,
      "Ċ": 73,
      "č": 74,
      "Ě": 75,
      "Ġ": 76,
      "th": 77,
      "Ġth": 78,
      "Ġa": 79,
      "Ġthe": 80,
      "in": 81,
      "Ġs": 82,
      "Ġh": 83,
      "er": 84,
      "nd": 85,
      "Ġw": 86,
      "Ġo": 87,
      "re": 88,
      "Ġb": 89,
      "ou": 90,
      "Ġand": 91,
      "Ġm": 92,
      "Ġt": 93,
      "is": 94,
      "Ġf": 95,
      "Ġof": 96,
      "en": 97,
      "at": 98,
      "ed": 99,
      "Ġc": 100,
      "or": 101,
      "ll": 102,
      "on": 103,
      "es": 104,
      "ing": 105,
      "Ġi": 106,
      "Ġl": 107,
      "Ġd": 108,
      "ar": 109,
      "Ġto": 110,
      "an": 111,
      "Ġp": 112,
      "čĊ": 113,
      "as": 114,
      "Ġn": 115,
      "Ġin": 116,
      "Ġg": 117,
      "Ġbe": 118,
      "om": 119,
      "Ġhe": 120,
      "Ġwh": 121,
      "le": 122,
      "Ġha": 123,
      "Ġe": 124,
      "Ġy": 125,
      "Ġsh": 126,
      "it": 127,
      "Ġu": 128,
      "ow": 129,
      "Ġwi": 130,
      "se": 131,
      "ch": 132,
      "ut": 133,
      "ld": 134,
      "Ġthat": 135,
      "gh": 136,
      "id": 137,
      "ve": 138,
      "ot": 139,
      "st": 140,
      "im": 141,
      "ce": 142,
      "ay": 143,
      "Ġfor": 144,
      "Ġit": 145,
      "ver": 146,
      "Ġyou": 147,
      "all": 148,
      "Ġhis": 149,
      "ent": 150,
      "to": 151,
      "ir": 152,
      "ly": 153,
      "and": 154,
      "ĠĠ": 155,
      "al": 156,
      "Ġis": 157,
      "Ġwas": 158,
      "Ġwith": 159,
      "ri": 160,
      "ght": 161,
      "ad": 162,
      "Ġre": 163,
      "ther": 164,
      "Ġon": 165,
      "Ġnot": 166,
      "Ġsa": 167,
      "od": 168,
      "et": 169,
      "Ġas": 170,
      "ion": 171,
      "am": 172,
      "ur": 173,
      "ke": 174,
      "ro": 175,
      "ord": 176,
      "Ġhim": 177,
      "Ġher": 178,
      "the": 179,
      "Ġan": 180,
      "ra": 181,
      "Ġall": 182,
      "Ġst": 183,
      "Ġse": 184,
      "Ġun": 185,
      "Ġme": 186,
      "ter": 187,
      "Ġj": 188,
      "Ġk": 189,
      "ore": 190,
      "ere": 191,
      "Ġthey": 192,
      "ain": 193,
      "el": 194,
      "Ġbut": 195,
      "ĠĊ": 196,
      "Ġshall": 197,
      "ould": 198,
      "Ġmy": 199,
      "il": 200,
      "ess": 201,
      "Ġthem": 202,
      "est": 203,
      "Ġso": 204,
      "'s": 205,
      "Ġthou": 206,
      "ome": 207,
      "rom": 208,
      "Ġat": 209,
      "ck": 210,
      "Ġhad": 211,
      "--": 212,
      "ct": 213,
      "Ġup": 214,
      "Ġsu": 215,
      "Ġhave": 216,
      "Ġli": 217,
      "Ġch": 218,
      "Ġshe": 219,
      "ich": 220,
      "Ġsaid": 221,
      "ea": 222,
      "us": 223,
      "Ġunto": 224,
      "ast": 225,
      "ard": 226,
      "Ġthere": 227,
      "Ġfrom": 228,
      "Ġman": 229,
      "Ġgo": 230,
      "Ġlord": 231,
      "ab": 232,
      "Ġthis": 233,
      "ight": 234,
      "Ġsp": 235,
      "ge": 236,
      "Ġby": 237,
      "Ġwe": 238,
      "Ġwhich": 239,
      "Ġv": 240,
      "very": 241,
      "qu": 242,
      "Ġno": 243,
      "Ġdo": 244,
      "ven": 245,
      "ul": 246,
      "ant": 247,
      "Ġwill": 248,
      "Ġtheir": 249,
      "Ġne": 250,
      "ong": 251,
      "Ġal": 252,
      "pp": 253,
      "em": 254,
      "our": 255,
      "ill": 256,
      "Ġfa": 257,
      "ers": 258,
      "rou": 259,
      "Ġor": 260,
      "of": 261,
      "Ġare": 262,
      "ru": 263,
      "ic": 264,
      "Ġ\"": 265,
      "Ġde": 266,
      "wh": 267,
      "sel": 268,
      "Ġwere": 269,
      "ok": 270,
      "Ġlo": 271,
      "Ġcon": 272,
      "Ġye": 273,
      "ation": 274,
      "art": 275,
      "Ġkn": 276,
      "ame": 277,
      ".\"": 278,
      "Ġout": 279,
      "ake": 280,
      "Ġwhen": 281,
      "one": 282,
      "ous": 283,
      "Ġone": 284,
      "he": 285,
      "Ġwho": 286,
      "fore": 287,
      "res": 288,
      "Ġam": 289,
      "pt": 290,
      "au": 291,
      "Ġthy": 292,
      "Ġab": 293,
      "Ġgod": 294,
      "own": 295,
      "ind": 296,
      "out": 297,
      "op": 298,
      "Ġyour": 299,
      "Ġcom": 300,
      "ol": 301,
      "ust": 302,
      "ine": 303,
      "ie": 304,
      "os": 305,
      "fe": 306,
      "Ġwhat": 307,
      "Ġag": 308,
      "la": 309,
      "red": 310,
      "ish": 311,
      ",\"": 312,
      "ive": 313,
      "ings": 314,
      "Ġthen": 315,
      "if": 316,
      "ith": 317,
      "ell": 318,
      "urn": 319,
      "itt": 320,
      "ah": 321,
      "ate": 322,
      "Ġif": 323,
      "self": 324,
      "Ġsay": 325,
      "Ġthee": 326,
      "ist": 327,
      "ĠĠĠĠ": 328,
      "un": 329,
      "Ġex": 330,
      "Ġgre": 331,
      "ity": 332,
      "Ġday": 333,
      "lo": 334,
      "Ġupon": 335,
      "um": 336,
      "Ġaf": 337,
      "Ġnow": 338,
      "Ġagain": 339,
      "ass": 340,
      "ren": 341,
      "Ġmo": 342,
      "Ġmore": 343,
      "be": 344,
      "so": 345,
      "Ġson": 346,
      "for": 347,
      "Ġwould": 348,
      "Ġinto": 349,
      "ud": 350,
      "ice": 351,
      "Ġknow": 352,
      "Ġany": 353,
      "Ġar": 354,
      "Ġwor": 355,
      "ig": 356,
      "ild": 357,
      "Ġle": 358,
      "Ġr": 359,
      "ak": 360,
      "Ġsome": 361,
      "Ġvery": 362,
      "Ġfe": 363,
      "ouse": 364,
      "ac": 365,
      "Ġhand": 366,
      "Ġcome": 367,
      "ep": 368,
      "ap": 369,
      "ness": 370,
      "ite": 371,
      "ure": 372,
      "way": 373,
      "Ġbo": 374,
      "Ġsee": 375,
      "Ġpro": 376,
      "ies": 377,
      "nder": 378,
      "ry": 379,
      "Ġmr": 380,
      "ade": 381,
      "ence": 382,
      "ved": 383,
      "ne": 384,
      "Ġcould": 385,
      "Ġking": 386,
      "Ġlike": 387,
      "old": 388,
      "Ġoff": 389,
      "Ġtw": 390,
      "thing": 391,
      "Ġus": 392,
      "Ġcan": 393,
      "Ġen": 394,
      "oun": 395,
      "ance": 396,
      "Ġpe": 397,
      "Ġbeen": 398,
      "Ġqu": 399,
      "but": 400,
      "ose": 401,
      "ise": 402,
      "ag": 403,
      "Ġdid": 404,
      "Ġgreat": 405,
      "ime": 406,
      "ink": 407,
      "that": 408,
      "Ġcame": 409,
      "ment": 410,
      "sh": 411,
      "Ġbefore": 412,
      "ittle": 413,
      "Ġro": 414,
      "ide": 415,
      "Ġevery": 416,
      "Ġthan": 417,
      "me": 418,
      "ale": 419,
      "ip": 420,
      "ull": 421,
      "ound": 422,
      "wn": 423,
      "Ġover": 424,
      "Ġgood": 425,
      "uch": 426,
      "are": 427,
      "Ġbr": 428,
      "ves": 429,
      "ĠĠĠ": 430,
      "Ġlet": 431,
      "Ġri": 432,
      "Ġother": 433,
      "Ġlittle": 434,
      "Ġhow": 435,
      "ople": 436,
      "ars": 437,
      "ward": 438,
      "ort": 439,
      "able": 440,
      "Ġhouse": 441,
      "end": 442,
      "Ġdown": 443,
      "Ġeven": 444,
      "Ġfather": 445,
      "Ġafter": 446,
      "we": 447,
      "ble": 448,
      "Ġour": 449,
      "ect": 450,
      "ire": 451,
      "Ġlook": 452,
      "rael": 453,
      "ph": 454,
      "Ġmen": 455,
      "li": 456,
      "Ġshould": 457,
      "Ġchild": 458,
      "Ġmade": 459,
      "ree": 460,
      "ause": 461,
      "ach": 462,
      "Ġthese": 463,
      "'d": 464,
      "Ġpeople": 465,
      "Ġtime": 466,
      "orn": 467,
      "Ġac": 468,
      "per": 469,
      "ue": 470,
      "Ġper": 471,
      "Ġwhere": 472,
      "Ġmay": 473,
      "Ġco": 474,
      "ount": 475,
      "les": 476,
      "igh": 477,
      "Ġpo": 478,
      "10": 479,
      "Ġim": 480,
      "Ġear": 481,
      "11": 482,
      "ving": 483,
      "Ġpr": 484,
      "Ġmar": 485,
      "Ġwent": 486,
      "ran": 487,
      "'t": 488,
      "ile": 489,
      "with": 490,
      "Ġisrael": 491,
      "Ġra": 492,
      "eth": 493,
      "Ġhath": 494,
      "ally": 495,
      "Ġabout": 496,
      "Ġsm": 497,
      "?\"": 498,
      "ath": 499,
      "ered": 500,
      "Ġonly": 501,
      "led": 502,
      "Ġad": 503,
      "Ġbec": 504,
      "Ġmight": 505,
      "Ġdis": 506,
      "Ġsuch": 507,
      "Ġland": 508,
      "ried": 509,
      "Ġword": 510,
      "Ġmake": 511,
      "Ġser": 512,
      "Ġmust": 513,
      "Ġown": 514,
      "age": 515,
      "irst": 516,
      "Ġtwo": 517,
      "ost": 518,
      "Ġfo": 519,
      "Ġmuch": 520,
      "alt": 521,
      "ian": 522,
      "Ġbl": 523,
      "alk": 524,
      "Ġway": 525,
      "ful": 526,
      "Ġbre": 527,
      "Ġpass": 528,
      "ious": 529,
      "round": 530,
      "not": 531,
      "ft": 532,
      "Ġalso": 533,
      "ither": 534,
      "Ġpla": 535,
      "12": 536,
      "13": 537,
      "ave": 538,
      "Ġchildren": 539,
      "Ġagainst": 540,
      "Ġpart": 541,
      "Ġjo": 542,
      "14": 543,
      "Ġlong": 544,
      "Ġwell": 545,
      "Ġbeh": 546,
      "sp": 547,
      "ress": 548,
      "ood": 549,
      "Ġpre": 550,
      "ber": 551,
      "Ġyet": 552,
      "Ġturn": 553,
      "Ġey": 554,
      "ick": 555,
      "Ġold": 556,
      "Ġpl": 557,
      "you": 558,
      "Ġca": 559,
      "co": 560,
      "row": 561,
      "Ġfirst": 562,
      "Ġthink": 563,
      "de": 564,
      "int": 565,
      "Ġcomp": 566,
      "Ġel": 567,
      "Ġaway": 568,
      "Ġcall": 569,
      "Ġapp": 570,
      "rough": 571,
      "ack": 572,
      "Ġsc": 573,
      "Ġunder": 574,
      "Ġrem": 575,
      "Ġjud": 576,
      "Ġnor": 577,
      "av": 578,
      "Ġthing": 579,
      "Ġcomm": 580,
      "15": 581,
      "ces": 582,
      "iss": 583,
      "ied": 584,
      "Ġthings": 585,
      "Ġnever": 586,
      "ty": 587,
      "ark": 588,
      "Ġbeg": 589,
      "!\"": 590,
      "man": 591,
      "Ġgive": 592,
      "Ġbro": 593,
      "Ġgl": 594,
      "Ġfl": 595,
      "ady": 596,
      "Ġwat": 597,
      "16": 598,
      "Ġbet": 599,
      "Ġtru": 600,
      "Ġsw": 601,
      "Ġdes": 602,
      "Ġheart": 603,
      "ions": 604,
      "Ġtake": 605,
      "Ġrep": 606,
      "tain": 607,
      "ough": 608,
      "other": 609,
      "Ġhead": 610,
      "Ġearth": 611,
      "18": 612,
      "Ġput": 613,
      "ever": 614,
      "eak": 615,
      "Ġke": 616,
      "Ġacc": 617,
      "Ġseem": 618,
      "ub": 619,
      "sw": 620,
      "ily": 621,
      "ated": 622,
      "Ġbecause": 623,
      "Ġever": 624,
      "Ġla": 625,
      "Ġsto": 626,
      "Ġthought": 627,
      "Ġright": 628,
      "Ġsaw": 629,
      "oice": 630,
      "no": 631,
      "ering": 632,
      "Ġ2": 633,
      "leas": 634,
      "Ġsou": 635,
      "Ġhas": 636,
      "Ġsaying": 637,
      "Ġfri": 638,
      "Ġem": 639,
      "Ġhimself": 640,
      "she": 641,
      "17": 642,
      "Ġshalt": 643,
      "Ġthrough": 644,
      "aught": 645,
      "19": 646,
      "Ġob": 647,
      "Ġhere": 648,
      "Ġsin": 649,
      "Ġmrs": 650,
      "Ġbeing": 651,
      "Ġthose": 652,
      "ign": 653,
      "Ġheard": 654,
      "Ġpri": 655,
      "ory": 656,
      "ody": 657,
      "Ġtherefore": 658,
      "aven": 659,
      "Ġmany": 660,
      "Ġset": 661,
      "less": 662,
      "Ġcont": 663,
      "vant": 664,
      "Ġdel": 665,
      "Ġhast": 666,
      "turn": 667,
      "Ġhigh": 668,
      "Ġplace": 669,
      "iah": 670,
      "Ġtoo": 671,
      "Ġname": 672,
      "Ġjust": 673,
      "Ġmost": 674,
      "his": 675,
      "her": 676,
      "Ġthough": 677,
      "ary": 678,
      "Ġend": 679,
      "Ġgi": 680,
      "ger": 681,
      "ations": 682,
      "rought": 683,
      "Ġhear": 684,
      "Ġwork": 685,
      "Ġfar": 686,
      "Ġcar": 687,
      "Ġbel": 688,
      "Ġeyes": 689,
      "Ġwom": 690,
      "vil": 691,
      "Ġbehold": 692,
      "ash": 693,
      "ons": 694,
      "Ġhar": 695,
      "Ġheaven": 696,
      "Ġlife": 697,
      "Ġop": 698,
      "by": 699,
      "Ġwithout": 700,
      "what": 701,
      "ern": 702,
      "Ġcl": 703,
      "ction": 704,
      "20": 705,
      "Ġfriend": 706,
      "ma": 707,
      "Ġamong": 708,
      "ened": 709,
      "Ġfound": 710,
      "21": 711,
      "Ġnight": 712,
      "Ġlast": 713,
      "Ġgr": 714,
      "well": 715,
      "Ġwhom": 716,
      "ff": 717,
      "Ġpres": 718,
      "Ġansw": 719,
      "there": 720,
      "22": 721,
      "Ġsea": 722,
      "eath": 723,
      "Ġlove": 724,
      "Ġ(": 725,
      "Ġsl": 726,
      "Ġnothing": 727,
      "ged": 728,
      "Ġpleas": 729,
      "atter": 730,
      "oss": 731,
      "Ġworld": 732,
      "they": 733,
      "Ġstill": 734,
      "Ġdone": 735,
      "Ġthus": 736,
      "ret": 737,
      "Ġwhale": 738,
      "Ġcons": 739,
      "let": 740,
      "Ġspeak": 741,
      "ng": 742,
      "Ġexp": 743,
      "its": 744,
      "Ġsure": 745,
      "Ġent": 746,
      "Ġtell": 747,
      "Ġho": 748,
      "Ġhapp": 749,
      "Ġface": 750,
      "und": 751,
      "Ġits": 752,
      "ced": 753,
      "Ġimp": 754,
      "Ġchar": 755,
      "cy": 756,
      "Ġsame": 757,
      "Ġback": 758,
      "Ġsaith": 759,
      "was": 760,
      "Ġvoice": 761,
      "Ġdays": 762,
      "Ġru": 763,
      "my": 764,
      "Ġwr": 765,
      "Ġtook": 766,
      "ix": 767,
      "Ġatt": 768,
      "oh": 769,
      "Ġmother": 770,
      "23": 771,
      "ors": 772,
      "com": 773,
      "ult": 774,
      "ew": 775,
      "Ġlea": 776,
      "ase": 777,
      "selves": 778,
      "Ġbrought": 779,
      "fa": 780,
      "llow": 781,
      "Ġsil": 782,
      "Ġcapt": 783,
      "Ġ'": 784,
      "ertain": 785,
      "Ġmiss": 786,
      "Ġsons": 787,
      "now": 788,
      "Ġspir": 789,
      "ens": 790,
      "most": 791,
      "Ġforth": 792,
      "Ġanother": 793,
      "Ġyoung": 794,
      "Ġbu": 795,
      "lf": 796,
      "Ġph": 797,
      "which": 798,
      "avid": 799,
      "ways": 800,
      "up": 801,
      "Ġthree": 802,
      "gether": 803,
      "Ġbring": 804,
      "Ġside": 805,
      "Ġsoon": 806,
      "Ġround": 807,
      "Ġmean": 808,
      "24": 809,
      "Ġsat": 810,
      "ister": 811,
      "ield": 812,
      "Ġwa": 813,
      "ower": 814,
      "Ġhands": 815,
      "Ġcried": 816,
      "Ġask": 817,
      "ible": 818,
      "Ġsent": 819,
      "Ġwalk": 820,
      "Ġpriest": 821,
      "iver": 822,
      "Ġstand": 823,
      "Ġrest": 824,
      "Ġlight": 825,
      "Ġservant": 826,
      "Ġcalled": 827,
      "med": 828,
      "Ġeat": 829,
      "Ġreturn": 830,
      "Ġdavid": 831,
      "Ġjes": 832,
      "ites": 833,
      "ss": 834,
      "fer": 835,
      "iv": 836,
      "Ġwhile": 837,
      "ner": 838,
      "Ġcommand": 839,
      "ling": 840,
      "ished": 841,
      "ser": 842,
      "Ġinc": 843,
      "land": 844,
      "Ġwords": 845,
      "Ġnew": 846,
      "Ġgra": 847,
      "Ġtre": 848,
      ".--": 849,
      "fect": 850,
      "Ġsoul": 851,
      "sa": 852,
      "Ġseemed": 853,
      "Ġneither": 854,
      "ci": 855,
      "Ġcity": 856,
      "gy": 857,
      "Ġbelie": 858,
      "25": 859,
      "att": 860,
      "ets": 861,
      "Ġwar": 862,
      "Ġboth": 863,
      "ze": 864,
      "bo": 865,
      "Ġyears": 866,
      "Ġsir": 867,
      "Ġsub": 868,
      "Ġthine": 869,
      "Ġquite": 870,
      "Ġhop": 871,
      "mer": 872,
      "Ġinst": 873,
      "Ġleft": 874,
      "26": 875,
      "men": 876,
      "Ġmine": 877,
      "ener": 878,
      "stand": 879,
      "aken": 880,
      "Ġmid": 881,
      "Ġdeath": 882,
      "Ġstr": 883,
      "ning": 884,
      "Ġ3": 885,
      "this": 886,
      "Ġjer": 887,
      "Ġwo": 888,
      "den": 889,
      "ear": 890,
      "Ġwant": 891,
      "hab": 892,
      "oses": 893,
      "Ġwind": 894,
      "ron": 895,
      "iness": 896,
      "Ġjesus": 897,
      "ities": 898,
      "Ġinter": 899,
      "Ġherself": 900,
      "Ġfeel": 901,
      "Ġlooked": 902,
      "Ġkeep": 903,
      "ject": 904,
      "Ġseen": 905,
      "elt": 906,
      "Ġsupp": 907,
      "Ġalways": 908,
      "ex": 909,
      "ised": 910,
      "ording": 911,
      "Ġart": 912,
      "Ġpers": 913,
      "Ġwoman": 914,
      "pe": 915,
      "from": 916,
      "how": 917,
      "lood": 918,
      "ined": 919,
      "Ġlaw": 920,
      "Ġass": 921,
      "Ġfam": 922,
      "oment": 923,
      "orning": 924,
      "cked": 925,
      "ted": 926,
      "Ġship": 927,
      "Ġsy": 928,
      "Ġhalf": 929,
      "Ġtill": 930,
      "Ġdre": 931,
      "him": 932,
      "Ġcount": 933,
      "Ġfind": 934,
      "ang": 935,
      "Ġfire": 936,
      "Ġtogether": 937,
      "Ġste": 938,
      "Ġwhole": 939,
      "Ġtri": 940,
      "Ġfell": 941,
      "Ġfull": 942,
      "Ġkind": 943,
      "27": 944,
      "Ġsle": 945,
      "ments": 946,
      "Ġgave": 947,
      "con": 948,
      "ia": 949,
      "Ġcaptain": 950,
      "shall": 951,
      "Ġmind": 952,
      "Ġgu": 953,
      "ched": 954,
      "Ġind": 955,
      "Ġwhy": 956,
      "Ġsun": 957,
      "amp": 958,
      "when": 959,
      "Ġstood": 960,
      "Ġmon": 961,
      "ĠĠĠĠĠĠĠĠ": 962,
      "ates": 963,
      "Ġpur": 964,
      "undred": 965,
      "Ġcertain": 966,
      "Ġtoward": 967,
      "Ġonce": 968,
      "Ġmoment": 969,
      "Ġcre": 970,
      "cept": 971,
      "Ġwood": 972,
      "Ġdr": 973,
      "Ġget": 974,
      "ins": 975,
      "Ġcle": 976,
      "alem": 977,
      "Ġbetter": 978,
      "po": 979,
      "usalem": 980,
      "Ġgent": 981,
      "Ġmoses": 982,
      "imes": 983,
      "Ġbrother": 984,
      "right": 985,
      "Ġmorning": 986,
      "Ġclo": 987,
      "ason": 988,
      "aking": 989,
      "Ġfall": 990,
      "Ġmer": 991,
      "28": 992,
      "Ġmount": 993,
      "Ġres": 994,
      "ush": 995,
      "Ġdaught": 996,
      "Ġdec": 997,
      "Ġgold": 998,
      "dom": 999,
      "Ġswe": 1000,
      "Ġdist": 1001,
      "ten": 1002,
      "Ġdon": 1003,
      "Ġtalk": 1004,
      "ee": 1005,
      "Ġnear": 1006,
      "gth": 1007,
      "Ġthereof": 1008,
      "Ġsomething": 1009,
      "Ġspirit": 1010,
      "Ġburn": 1011,
      "outh": 1012,
      "Ġevil": 1013,
      "sand": 1014,
      "Ġinde": 1015,
      "ween": 1016,
      "Ġconf": 1017,
      "Ġhard": 1018,
      "Ġgiven": 1019,
      "ks": 1020,
      "Ġga": 1021,
      "Ġpoor": 1022,
      "Ġwater": 1023,
      "Ġwhe": 1024,
      "ton": 1025,
      "Ġnat": 1026,
      "gypt": 1027,
      "them": 1028,
      "Ġdra": 1029,
      "Ġma": 1030,
      "oud": 1031,
      "mr": 1032,
      "Ġthousand": 1033,
      "do": 1034,
      "ms": 1035,
      "cei": 1036,
      "Ġpresent": 1037,
      "Ġfour": 1038,
      "rist": 1039,
      "Ġdep": 1040,
      "Ġed": 1041,
      "Ġstran": 1042,
      "Ġaccording": 1043,
      "Ġpa": 1044,
      "Ġang": 1045,
      "Ġfear": 1046,
      "ual": 1047,
      "Ġdead": 1048,
      "eous": 1049,
      "Ġjudah": 1050,
      "ple": 1051,
      "!--": 1052,
      "Ġposs": 1053,
      "Ġz": 1054,
      "Ġcour": 1055,
      "Ġpray": 1056,
      "Ġhundred": 1057,
      "ird": 1058,
      "Ġcannot": 1059,
      "aps": 1060,
      "Ġindeed": 1061,
      "oke": 1062,
      "ief": 1063,
      "Ġanswered": 1064,
      "uck": 1065,
      "Ġenough": 1066,
      "Ġint": 1067,
      "cc": 1068,
      "thy": 1069,
      "Ġtem": 1070,
      "Ġhor": 1071,
      "Ġdark": 1072,
      "Ġbody": 1073,
      "had": 1074,
      "Ġfollow": 1075,
      "Ġtold": 1076,
      "Ġhon": 1077,
      "Ġstrong": 1078,
      "ting": 1079,
      "Ġsight": 1080,
      "Ġeach": 1081,
      "ross": 1082,
      "Ġmyself": 1083,
      "Ġwife": 1084,
      "itud": 1085,
      "Ġgoing": 1086,
      "Ġgener": 1087,
      "Ġeng": 1088,
      "vent": 1089,
      "day": 1090,
      "Ġsister": 1091,
      "Ġcast": 1092,
      "Ġhold": 1093,
      "Ġdoor": 1094,
      "pped": 1095,
      "Ġknew": 1096,
      "ows": 1097,
      "Ġrather": 1098,
      "Ġwhite": 1099,
      "eace": 1100,
      "Ġwhose": 1101,
      "Ġbegan": 1102,
      "ier": 1103,
      "29": 1104,
      "will": 1105,
      "Ġvis": 1106,
      "ired": 1107,
      "Ġjerusalem": 1108,
      "Ġmin": 1109,
      "where": 1110,
      "Ġben": 1111,
      "Ġdear": 1112,
      "ove": 1113,
      "Ġblood": 1114,
      "Ġegypt": 1115,
      "iled": 1116,
      "Ġlady": 1117,
      "Ġconc": 1118,
      "ial": 1119,
      "lord": 1120,
      "Ġdest": 1121,
      "Ġbetween": 1122,
      "Ġsing": 1123,
      "inor": 1124,
      "Ġmac": 1125,
      "Ġhel": 1126,
      "ures": 1127,
      "ense": 1128,
      "Ġforg": 1129,
      "Ġoffering": 1130,
      "Ġhome": 1131,
      "Ġid": 1132,
      "Ġopen": 1133,
      "su": 1134,
      "Ġcol": 1135,
      "irc": 1136,
      "ib": 1137,
      "Ġsword": 1138,
      "app": 1139,
      "ular": 1140,
      "iz": 1141,
      "'ll": 1142,
      "wor": 1143,
      "ute": 1144,
      "ob": 1145,
      "Ġcontin": 1146,
      "Ġdou": 1147,
      "Ġchrist": 1148,
      "have": 1149,
      "Ġlive": 1150,
      "lack": 1151,
      "fort": 1152,
      "Ġturned": 1153,
      "Ġgone": 1154,
      "30": 1155,
      "Ġsur": 1156,
      "Ġalmost": 1157,
      "who": 1158,
      "az": 1159,
      "Ġes": 1160,
      "house": 1161,
      "Ġhope": 1162,
      "pl": 1163,
      "Ġseven": 1164,
      "Ġthemselves": 1165,
      "ines": 1166,
      "riet": 1167,
      "ane": 1168,
      "ently": 1169,
      "Ġbear": 1170,
      "vers": 1171,
      "ately": 1172,
      "Ġsmall": 1173,
      "Ġbest": 1174,
      "ains": 1175,
      "Ġholy": 1176,
      "come": 1177,
      "Ġfew": 1178,
      "Ġwest": 1179,
      "Ġpra": 1180,
      "Ġje": 1181,
      "Ġpeace": 1182,
      "Ġbelieve": 1183,
      "thou": 1184,
      "Ġroom": 1185,
      "Ġmouth": 1186,
      "Ġhaving": 1187,
      "31": 1188,
      "Ġemma": 1189,
      "ches": 1190,
      "their": 1191,
      "Ġboy": 1192,
      "lied": 1193,
      "any": 1194,
      "Ġhum": 1195,
      "Ġham": 1196,
      "Ġfair": 1197,
      "Ġfore": 1198,
      "Ġhour": 1199,
      "Ġspake": 1200,
      "cri": 1201,
      "orrow": 1202,
      "Ġsec": 1203,
      "Ġpower": 1204,
      "haps": 1205,
      "ianne": 1206,
      "itude": 1207,
      "body": 1208,
      "ken": 1209,
      "Ġair": 1210,
      "Ġbar": 1211,
      "Ġwild": 1212,
      "Ġcut": 1213,
      "Ġsk": 1214,
      "ition": 1215,
      "Ġremem": 1216,
      "uri": 1217,
      "ans": 1218,
      "aster": 1219,
      "Ġreally": 1220,
      "--\"": 1221,
      "Ġbless": 1222,
      "then": 1223,
      "roy": 1224,
      "ond": 1225,
      "Ġcr": 1226,
      "ps": 1227,
      "Ġproph": 1228,
      "Ġdeliver": 1229,
      "een": 1230,
      "osed": 1231,
      "Ġsort": 1232,
      "Ġdif": 1233,
      "Ġwish": 1234,
      "Ġprin": 1235,
      "Ġnone": 1236,
      "Ġunderstand": 1237,
      "Ġten": 1238,
      "pr": 1239,
      "Ġtra": 1240,
      "Ġdoes": 1241,
      "like": 1242,
      "ceived": 1243,
      "Ġreg": 1244,
      "over": 1245,
      "oy": 1246,
      "Ġcur": 1247,
      "mon": 1248,
      "der": 1249,
      "Ġstre": 1250,
      "Ġsol": 1251,
      "Ġyear": 1252,
      "full": 1253,
      "nor": 1254,
      "amb": 1255,
      "Ġtaken": 1256,
      "ham": 1257,
      "ited": 1258,
      "Ġless": 1259,
      "ants": 1260,
      "af": 1261,
      "oint": 1262,
      "bull": 1263,
      "Ġte": 1264,
      "32": 1265,
      "xt": 1266,
      "Ġgentle": 1267,
      "thren": 1268,
      "Ġhowever": 1269,
      "ail": 1270,
      "cond": 1271,
      "Ġfeet": 1272,
      "ship": 1273,
      "ured": 1274,
      "read": 1275,
      "Ġfield": 1276,
      "Ġdwell": 1277,
      "Ġasked": 1278,
      "Ġdoub": 1279,
      "Ġlay": 1280,
      "owed": 1281,
      "Ġknown": 1282,
      "Ġhost": 1283,
      "Ġpar": 1284,
      "Ġjoy": 1285,
      "Ġelse": 1286,
      "some": 1287,
      "ating": 1288,
      "Ġdan": 1289,
      "Ġexc": 1290,
      "bb": 1291,
      "Ġbes": 1292,
      "ats": 1293,
      "mb": 1294,
      "Ġ4": 1295,
      "spect": 1296,
      "reg": 1297,
      "Ġblack": 1298,
      "Ġfelt": 1299,
      "ents": 1300,
      "ared": 1301,
      "pro": 1302,
      "illed": 1303,
      "oney": 1304,
      "els": 1305,
      "Ġconsid": 1306,
      "Ġhelp": 1307,
      "iot": 1308,
      "Ġjudg": 1309,
      "33": 1310,
      "Ġmatter": 1311,
      "enty": 1312,
      "Ġdisc": 1313,
      "Ġter": 1314,
      "Ġref": 1315,
      "Ġunt": 1316,
      "Ġadd": 1317,
      "Ġsuff": 1318,
      "Ġgather": 1319,
      "Ġahab": 1320,
      "attle": 1321,
      "ned": 1322,
      "yes": 1323,
      ",'": 1324,
      "Ġoffer": 1325,
      "ts": 1326,
      "Ġact": 1327,
      "Ġreason": 1328,
      "Ġfathers": 1329,
      "ones": 1330,
      "cks": 1331,
      "lesh": 1332,
      "Ġeye": 1333,
      "ley": 1334,
      "ching": 1335,
      "ceed": 1336,
      "unto": 1337,
      "ls": 1338,
      "Ġ1": 1339,
      "Ġwithin": 1340,
      "aut": 1341,
      "Ġran": 1342,
      "Ġhappy": 1343,
      "ask": 1344,
      "dden": 1345,
      "Ġprom": 1346,
      "Ġfaith": 1347,
      "air": 1348,
      "Ġcause": 1349,
      "Ġwicked": 1350,
      "ote": 1351,
      "eter": 1352,
      "Ġfish": 1353,
      "Ġprof": 1354,
      "Ġfive": 1355,
      "Ġlar": 1356,
      "Ġsudden": 1357,
      "Ġnext": 1358,
      "Ġdaughter": 1359,
      "thes": 1360,
      "Ġground": 1361,
      "Ġbrethren": 1362,
      "ring": 1363,
      "vi": 1364,
      "ceive": 1365,
      "raid": 1366,
      "Ġpoint": 1367,
      "Ġmeet": 1368,
      "Ġshew": 1369,
      "Ġsit": 1370,
      "Ġwall": 1371,
      "Ġcirc": 1372,
      "ye": 1373,
      "als": 1374,
      "Ġunc": 1375,
      "augh": 1376,
      "arted": 1377,
      "Ġarm": 1378,
      "Ġrun": 1379,
      "vour": 1380,
      "were": 1381,
      "Ġmus": 1382,
      "Ġdrink": 1383,
      "head": 1384,
      "Ġpol": 1385,
      "ung": 1386,
      "Ġmarianne": 1387,
      "Ġcare": 1388,
      "Ġservants": 1389,
      "Ġred": 1390,
      "ury": 1391,
      "Ġread": 1392,
      "under": 1393,
      "Ġnum": 1394,
      "Ġplay": 1395,
      "Ġwhether": 1396,
      "Ġdestroy": 1397,
      "your": 1398,
      "Ġsix": 1399,
      "eared": 1400,
      "Ġabove": 1401,
      "Ġbread": 1402,
      "Ġele": 1403,
      "Ġenem": 1404,
      "Ġsleep": 1405,
      "Ġchur": 1406,
      "Ġneed": 1407,
      "Ġtruth": 1408,
      "ec": 1409,
      "Ġsound": 1410,
      "Ġperfect": 1411,
      "Ġstri": 1412,
      "Ġgot": 1413,
      "Ġgard": 1414,
      "Ġelinor": 1415,
      "34": 1416,
      "Ġjoh": 1417,
      "Ġmonth": 1418,
      "aint": 1419,
      "Ġrighteous": 1420,
      "ably": 1421,
      "Ġleast": 1422,
      "Ġbeaut": 1423,
      "itten": 1424,
      "ages": 1425,
      "ctly": 1426,
      "Ġglory": 1427,
      "iet": 1428,
      "Ġbra": 1429,
      "Ġflesh": 1430,
      "Ġsecond": 1431,
      "ical": 1432,
      "ued": 1433,
      "ained": 1434,
      "Ġleave": 1435,
      "Ġinv": 1436,
      "rength": 1437,
      "ught": 1438,
      "Ġbrown": 1439,
      "king": 1440,
      "ying": 1441,
      "Ġwonder": 1442,
      "Ġtrue": 1443,
      "gg": 1444,
      "ho": 1445,
      "ery": 1446,
      "Ġperhaps": 1447,
      "Ġbed": 1448,
      "Ġcities": 1449,
      "Ġperson": 1450,
      "reat": 1451,
      "Ġmanner": 1452,
      "ledge": 1453,
      "ott": 1454,
      "Ġpassed": 1455,
      "Ġsend": 1456,
      "'m": 1457,
      "Ġevening": 1458,
      "Ġfin": 1459,
      "Ġdie": 1460,
      "ides": 1461,
      "Ġchan": 1462,
      "Ġmad": 1463,
      "used": 1464,
      "Ġ_": 1465,
      "ention": 1466,
      "Ġletter": 1467,
      "Ġfran": 1468,
      "Ġinf": 1469,
      "Ġsince": 1470,
      "Ġuntil": 1471,
      "Ġjohn": 1472,
      "Ġbus": 1473,
      "Ġfru": 1474,
      "Ġbook": 1475,
      "Ġalone": 1476,
      "ney": 1477,
      "cess": 1478,
      "ati": 1479,
      "Ġext": 1480,
      "Ġothers": 1481,
      "Ġanswer": 1482,
      "Ġtou": 1483,
      "Ġlaugh": 1484,
      "Ġsho": 1485,
      "Ġreplied": 1486,
      "tar": 1487,
      "Ġshort": 1488,
      "Ġlooking": 1489,
      "Ġfamily": 1490,
      "use": 1491,
      "Ġsign": 1492,
      "Ġcoming": 1493,
      "Ġadm": 1494,
      "Ġdeep": 1495,
      "akes": 1496,
      "Ġphil": 1497,
      "Ġflo": 1498,
      "Ġdiv": 1499,
      "Ġfriends": 1500,
      "Ġcal": 1501,
      "said": 1502,
      "par": 1503,
      "Ġstra": 1504,
      "Ġafraid": 1505,
      "Ġocc": 1506,
      "Ġsweet": 1507,
      "ards": 1508,
      "go": 1509,
      "Ġsim": 1510,
      "lly": 1511,
      "ressed": 1512,
      "fully": 1513,
      "cious": 1514,
      "Ġhur": 1515,
      "Ġvi": 1516,
      "Ġchurch": 1517,
      "Ġbab": 1518,
      "Ġwait": 1519,
      "fic": 1520,
      "ape": 1521,
      "Ġopp": 1522,
      "ara": 1523,
      "acle": 1524,
      "mar": 1525,
      "Ġtrou": 1526,
      "Ġanne": 1527,
      "ified": 1528,
      "Ġbehind": 1529,
      "Ġweston": 1530,
      "Ġfan": 1531,
      "Ġequ": 1532,
      "again": 1533,
      "Ġstrength": 1534,
      "Ġdoubt": 1535,
      "Ġlow": 1536,
      "Ġalong": 1537,
      "Ġglad": 1538,
      "lig": 1539,
      "Ġsail": 1540,
      "Ġut": 1541,
      "ales": 1542,
      "Ġbeast": 1543,
      "cted": 1544,
      "Ġbegin": 1545,
      "Ġcommanded": 1546,
      "cing": 1547,
      "ually": 1548,
      "Ġtimes": 1549,
      "Ġhill": 1550,
      "ided": 1551,
      "36": 1552,
      "band": 1553,
      "Ġtab": 1554,
      "Ġtran": 1555,
      "Ġstar": 1556,
      "Ġdire": 1557,
      "why": 1558,
      "Ġmidst": 1559,
      "utes": 1560,
      "Ġdraw": 1561,
      "Ġwaters": 1562,
      "medi": 1563,
      "Ġstrange": 1564,
      "Ġba": 1565,
      "oken": 1566,
      "Ġtowards": 1567,
      "Ġcry": 1568,
      "ank": 1569,
      "Ġdelight": 1570,
      "Ġmist": 1571,
      "Ġturnbull": 1572,
      "god": 1573,
      "iqu": 1574,
      "more": 1575,
      "Ġsyme": 1576,
      "sc": 1577,
      "Ġmaster": 1578,
      "atch": 1579,
      "Ġpast": 1580,
      "Ġsaul": 1581,
      "rove": 1582,
      "Ġfast": 1583,
      "Ġfine": 1584,
      "Ġobser": 1585,
      "Ġharriet": 1586,
      "Ġlarge": 1587,
      "oured": 1588,
      "Ġchief": 1589,
      "Ġabs": 1590,
      "Ġconcern": 1591,
      "Ġkept": 1592,
      "Ġhus": 1593,
      "Ġcor": 1594,
      "Ġhaue": 1595,
      "ift": 1596,
      "cover": 1597,
      "bs": 1598,
      "Ġmoney": 1599,
      "Ġtree": 1600,
      "Ġcountry": 1601,
      "35": 1602,
      "ames": 1603,
      "Ġlift": 1604,
      "Ġgarden": 1605,
      "Ġappear": 1606,
      "Ġmis": 1607,
      "Ġmult": 1608,
      "enn": 1609,
      "Ġoh": 1610,
      "Ġliving": 1611,
      "Ġknight": 1612,
      "after": 1613,
      "Ġthr": 1614,
      "Ġbur": 1615,
      "Ġgreen": 1616,
      "Ġcourse": 1617,
      "Ġremember": 1618,
      "Ġdisp": 1619,
      "Ġsilver": 1620,
      "iles": 1621,
      "Ġcomfort": 1622,
      "Ġtwenty": 1623,
      "laim": 1624,
      "Ġsecret": 1625,
      "hold": 1626,
      "Ġgrow": 1627,
      "Ġmighty": 1628,
      "Ġpriests": 1629,
      "Ġcloud": 1630,
      "Ġill": 1631,
      "Ġbreak": 1632,
      "Ġbow": 1633,
      "ising": 1634,
      "Ġkings": 1635,
      "Ġche": 1636,
      "ilt": 1637,
      "ances": 1638,
      "Ġaff": 1639,
      "oura": 1640,
      "icular": 1641,
      "before": 1642,
      "soever": 1643,
      "Ġbuild": 1644,
      "Ġfort": 1645,
      "upon": 1646,
      "Ġinstant": 1647,
      "lt": 1648,
      "Ġfree": 1649,
      ".'": 1650,
      "Ġaw": 1651,
      "ison": 1652,
      "Ġcorn": 1653,
      "Ġlou": 1654,
      "ongreg": 1655,
      "Ġkingdom": 1656,
      "ek": 1657,
      "oth": 1658,
      "Ġoften": 1659,
      "Ġdri": 1660,
      "Ġhair": 1661,
      "look": 1662,
      "Ġelton": 1663,
      "37": 1664,
      "aw": 1665,
      "ues": 1666,
      "wood": 1667,
      "Ġreal": 1668,
      "Ġknightley": 1669,
      "rew": 1670,
      "acob": 1671,
      "wards": 1672,
      "rupt": 1673,
      "Ġacqu": 1674,
      "Ġrose": 1675,
      "Ġexpect": 1676,
      "Ġreturned": 1677,
      "ongregation": 1678,
      "Ġcover": 1679,
      "Ġpleasure": 1680,
      "Ġdiffer": 1681,
      "Ġgir": 1682,
      "Ġready": 1683,
      "?--": 1684,
      "Ġlad": 1685,
      "Ġreign": 1686,
      "Ġable": 1687,
      "iful": 1688,
      "yl": 1689,
      "Ġsom": 1690,
      "Ġsong": 1691,
      "Ġtea": 1692,
      "Ġwomen": 1693,
      "Ġest": 1694,
      "Ġtable": 1695,
      "Ġquest": 1696,
      "ighb": 1697,
      "Ġpret": 1698,
      "side": 1699,
      "itting": 1700,
      "lic": 1701,
      "erness": 1702,
      "Ġaltar": 1703,
      "Ġburnt": 1704,
      "aron": 1705,
      "hu": 1706,
      "though": 1707,
      "can": 1708,
      "Ġdash": 1709,
      "Ġspoken": 1710,
      "ai": 1711,
      "here": 1712,
      "Ġfool": 1713,
      "every": 1714,
      "zz": 1715,
      "Ġuse": 1716,
      "ubb": 1717,
      "Ġlaid": 1718,
      "Ġnature": 1719,
      "Ġhusband": 1720,
      "Ġstay": 1721,
      "unt": 1722,
      "Ġought": 1723,
      "ought": 1724,
      "Ġlu": 1725,
      "cho": 1726,
      "Ġsatis": 1727,
      "Ġwise": 1728,
      "Ġyes": 1729,
      "Ġfruit": 1730,
      "Ġpal": 1731,
      "would": 1732,
      "Ġrej": 1733,
      "Ġjacob": 1734,
      "Ġnations": 1735,
      "Ġbroken": 1736,
      "just": 1737,
      "yond": 1738,
      "Ġpraise": 1739,
      "lish": 1740,
      "br": 1741,
      "Ġap": 1742,
      "Ġdro": 1743,
      "Ġyea": 1744,
      "thee": 1745,
      "off": 1746,
      "Ġadv": 1747,
      "Ġpossess": 1748,
      ",)": 1749,
      "Ġpit": 1750,
      "wise": 1751,
      "iling": 1752,
      "Ġgods": 1753,
      "Ġwherefore": 1754,
      "gr": 1755,
      "Ġwit": 1756,
      "ached": 1757,
      "Ġdream": 1758,
      "Ġhonour": 1759,
      ";--": 1760,
      "pass": 1761,
      "say": 1762,
      "Ġcoun": 1763,
      "Ġseed": 1764,
      "Ġanything": 1765,
      "apter": 1766,
      "ident": 1767,
      "Ġitself": 1768,
      "Ġord": 1769,
      "Ġwritten": 1770,
      "Ġvisit": 1771,
      "into": 1772,
      "Ġcond": 1773,
      "cl": 1774,
      "tw": 1775,
      "tern": 1776,
      "hand": 1777,
      "Ġfight": 1778,
      "ific": 1779,
      "Ġimmedi": 1780,
      "Ġfoot": 1781,
      "Ġconsider": 1782,
      "ace": 1783,
      "Ġbad": 1784,
      "Ġsurely": 1785,
      ",--": 1786,
      "ius": 1787,
      "Ġgate": 1788,
      "riage": 1789,
      "Ġjew": 1790,
      "Ġjudge": 1791,
      "ert": 1792,
      "ater": 1793,
      "itted": 1794,
      "Ġseek": 1795,
      "!'": 1796,
      "Ġeli": 1797,
      "Ġsacri": 1798,
      "que": 1799,
      "ointed": 1800,
      "ready": 1801,
      "ingly": 1802,
      "Ġpain": 1803,
      "resh": 1804,
      "Ġtrust": 1805,
      "than": 1806,
      "Ġah": 1807,
      "ural": 1808,
      "Ġdeal": 1809,
      "ighbour": 1810,
      "Ġboat": 1811,
      "bes": 1812,
      "Ġtown": 1813,
      "mrs": 1814,
      "Ġ6": 1815,
      "Ġmere": 1816,
      "Ġlost": 1817,
      "Ġcircum": 1818,
      "og": 1819,
      "empt": 1820,
      "Ġcommon": 1821,
      "Ġmacian": 1822,
      "Ġaaron": 1823,
      "Ġfig": 1824,
      "ler": 1825,
      "rie": 1826,
      "Ġprov": 1827,
      "Ġbusiness": 1828,
      "onel": 1829,
      "Ġheal": 1830,
      "Ġeither": 1831,
      "Ġjudgment": 1832,
      "Ġeas": 1833,
      "Ġalice": 1834,
      "ernacle": 1835,
      "40": 1836,
      "Ġcuri": 1837,
      "cher": 1838,
      ".)": 1839,
      "Ġinterest": 1840,
      "ked": 1841,
      "Ġmur": 1842,
      "Ġlen": 1843,
      "omin": 1844,
      "Ġwine": 1845,
      "Ġbull": 1846,
      "Ġce": 1847,
      "Ġform": 1848,
      "Ġwalked": 1849,
      "38": 1850,
      "enter": 1851,
      "Ġrel": 1852,
      "Ġsuppose": 1853,
      "Ġblessed": 1854,
      "ature": 1855,
      "omon": 1856,
      "Ġreceived": 1857,
      "rying": 1858,
      "Ġobject": 1859,
      "Ġutter": 1860,
      "Ġcase": 1861,
      "Ġparticular": 1862,
      "Ġtrees": 1863,
      "Ġmet": 1864,
      "ots": 1865,
      "eare": 1866,
      "umb": 1867,
      "Ġtop": 1868,
      "Ġmeas": 1869,
      "herit": 1870,
      "Ġsuddenly": 1871,
      "cend": 1872,
      "Ġ5": 1873,
      "Ġ7": 1874,
      "lean": 1875,
      "see": 1876,
      "odu": 1877,
      "Ġquick": 1878,
      "Ġcertainly": 1879,
      "'ve": 1880,
      "light": 1881,
      "Ġopened": 1882,
      "Ġsal": 1883,
      "Ġcaes": 1884,
      "Ġspirits": 1885,
      "Ġsubject": 1886,
      "Ġstru": 1887,
      "Ġsum": 1888,
      "tle": 1889,
      "owers": 1890,
      "Ġmeat": 1891,
      "Ġbecome": 1892,
      "Ġmidd": 1893,
      "Ġmercy": 1894,
      "Ġbit": 1895,
      "llect": 1896,
      "ased": 1897,
      "Ġev": 1898,
      "ries": 1899,
      "Ġsave": 1900,
      "Ġvill": 1901,
      "Ġknowledge": 1902,
      "Ġthird": 1903,
      "bec": 1904,
      "aph": 1905,
      "Ġworks": 1906,
      "Ġlab": 1907,
      "form": 1908,
      "Ġclose": 1909,
      "ians": 1910,
      "Ġplain": 1911,
      "Ġgentleman": 1912,
      "Ġver": 1913,
      "Ġcru": 1914,
      "Ġpie": 1915,
      "Ġrespect": 1916,
      "Ġsilence": 1917,
      "ey": 1918,
      "such": 1919,
      "Ġtong": 1920,
      "Ġeld": 1921,
      "ify": 1922,
      "Ġfellow": 1923,
      "Ġwra": 1924,
      "aring": 1925,
      "anct": 1926,
      "Ġell": 1927,
      "venant": 1928,
      "fection": 1929,
      "athan": 1930,
      "Ġwatch": 1931,
      "Ġangel": 1932,
      "ylon": 1933,
      "night": 1934,
      "Ġcra": 1935,
      "Ġwoodhouse": 1936,
      "habit": 1937,
      "Ġwis": 1938,
      "Ġtr": 1939,
      "Ġfat": 1940,
      "mp": 1941,
      "Ġcongregation": 1942,
      "Ġport": 1943,
      "Ġriver": 1944,
      "39": 1945,
      "might": 1946,
      "ters": 1947,
      "Ġseeing": 1948,
      "Ġsolomon": 1949,
      "could": 1950,
      "eed": 1951,
      "Ġneighbour": 1952,
      "Ġfrank": 1953,
      "Ġmess": 1954,
      "Ġcold": 1955,
      "Ġeph": 1956,
      "chapter": 1957,
      "Ġspo": 1958,
      "Ġcompan": 1959,
      "Ġaccount": 1960,
      "Ġsn": 1961,
      "Ġbright": 1962,
      "irty": 1963,
      "Ġval": 1964,
      "Ġenemies": 1965,
      "Ġast": 1966,
      "ient": 1967,
      "te": 1968,
      "Ġlist": 1969,
      "Ġbeyond": 1970,
      "Ġshad": 1971,
      "Ġvain": 1972,
      "Ġtrans": 1973,
      "pre": 1974,
      "arch": 1975,
      "Ġdef": 1976,
      "these": 1977,
      "Ġprep": 1978,
      "Ġelliot": 1979,
      "pla": 1980,
      "Ġreceive": 1981,
      "Ġsuper": 1982,
      "Ġnumber": 1983,
      "may": 1984,
      "Ġsense": 1985,
      "Ġhid": 1986,
      "Ġfif": 1987,
      "Ġiniqu": 1988,
      "Ġeag": 1989,
      "une": 1990,
      "Ġcontinued": 1991,
      "Ġhat": 1992,
      "Ġwon": 1993,
      "orm": 1994,
      "vel": 1995,
      "Ġtwel": 1996,
      "Ġroll": 1997,
      "Ġthoughts": 1998,
      "Ġidea": 1999,
      "sy": 2000,
      "Ġwea": 2001,
      "Ġsake": 2002,
      "Ġfavour": 2003,
      "Ġlear": 2004,
      "Ġgrace": 2005,
      "against": 2006,
      "Ġlength": 2007,
      "ience": 2008,
      "miss": 2009,
      "Ġcross": 2010,
      "Ġenter": 2011,
      "Ġforward": 2012,
      "Ġexcept": 2013,
      "Ġoil": 2014,
      "ement": 2015,
      "Ġlonger": 2016,
      "Ġesc": 2017,
      "etimes": 2018,
      "amed": 2019,
      "iously": 2020,
      "eech": 2021,
      "Ġgathered": 2022,
      "41": 2023,
      "ening": 2024,
      "Ġves": 2025,
      "should": 2026,
      "Ġparty": 2027,
      "Ġcompany": 2028,
      "Ġprofess": 2029,
      "Ġimmediately": 2030,
      "Ġfle": 2031,
      "arm": 2032,
      "Ġeast": 2033,
      "Ġanger": 2034,
      "Ġfact": 2035,
      "Ġlev": 2036,
      "Ġways": 2037,
      "Ġplaces": 2038,
      "Ġtabernacle": 2039,
      "Ġcomes": 2040,
      "Ġleg": 2041,
      "Ġlead": 2042,
      "Ġremain": 2043,
      "Ġdaughters": 2044,
      "Ġgeneral": 2045,
      "araoh": 2046,
      "Ġsqu": 2047,
      "Ġinherit": 2048,
      "Ġkill": 2049,
      "iples": 2050,
      "Ġappeared": 2051,
      "ca": 2052,
      "gers": 2053,
      "Ġalready": 2054,
      "Ġwrong": 2055,
      "Ġdecla": 2056,
      "Ġdelivered": 2057,
      "Ġbattle": 2058,
      "Ġmaking": 2059,
      "Ġdied": 2060,
      "ution": 2061,
      "Ġsold": 2062,
      "run": 2063,
      "Ġused": 2064,
      "Ġrich": 2065,
      "Ġhardly": 2066,
      "Ġhorse": 2067,
      "gin": 2068,
      "ners": 2069,
      "Ġdin": 2070,
      "Ġden": 2071,
      "Ġgar": 2072,
      "ended": 2073,
      "Ġoblig": 2074,
      "dis": 2075,
      "pping": 2076,
      "Ġrise": 2077,
      "Ġplease": 2078,
      "father": 2079,
      "Ġdashwood": 2080,
      "ging": 2081,
      "Ġins": 2082,
      "irm": 2083,
      "roach": 2084,
      "Ġprop": 2085,
      "Ġimag": 2086,
      "Ġsouth": 2087,
      "Ġcarried": 2088,
      "Ġpurp": 2089,
      "Ġcolonel": 2090,
      "Ġhosts": 2091,
      "Ġquestion": 2092,
      "itation": 2093,
      "child": 2094,
      "about": 2095,
      "iew": 2096,
      "Ġcourt": 2097,
      "Ġ9": 2098,
      "Ġheav": 2099,
      "Ġdarkness": 2100,
      "ray": 2101,
      "uel": 2102,
      "Ġbig": 2103,
      "Ġlest": 2104,
      "Ġdoth": 2105,
      "while": 2106,
      "ixed": 2107,
      "bed": 2108,
      "lu": 2109,
      "inter": 2110,
      "Ġiron": 2111,
      "Ġwilt": 2112,
      "Ġstone": 2113,
      "Ġlie": 2114,
      "Ġcovenant": 2115,
      "Ġfollowed": 2116,
      "Ġhuman": 2117,
      "cell": 2118,
      "ices": 2119,
      "ouses": 2120,
      "acc": 2121,
      "Ġproper": 2122,
      "Ġnorth": 2123,
      "cul": 2124,
      "amin": 2125,
      "Ġspoke": 2126,
      "Ġbabylon": 2127,
      "ior": 2128,
      "isa": 2129,
      "Ġquiet": 2130,
      "Ġmary": 2131,
      "Ġpossible": 2132,
      "did": 2133,
      "long": 2134,
      "err": 2135,
      "Ġdevil": 2136,
      "Ġsilent": 2137,
      "Ġvessel": 2138,
      "Ġmag": 2139,
      "Ġrequ": 2140,
      "Ġstate": 2141,
      "aste": 2142,
      "Ġyourself": 2143,
      "Ġfeelings": 2144,
      "ĠĠĠĠĠĠĠĠĠĠĠĠĠĠĠĠ": 2145,
      "Ġgirl": 2146,
      "stood": 2147,
      "aked": 2148,
      "Ġserve": 2149,
      "Ġdesp": 2150,
      "Ġmeans": 2151,
      "gl": 2152,
      "Ġcamp": 2153,
      "Ġpay": 2154,
      "because": 2155,
      "fied": 2156,
      "Ġbare": 2157,
      "Ġshow": 2158,
      "ety": 2159,
      "keth": 2160,
      "Ġthyself": 2161,
      "Ġwindow": 2162,
      "people": 2163,
      "Ġregard": 2164,
      "min": 2165,
      "eness": 2166,
      "irt": 2167,
      "Ġincre": 2168,
      "Ġlamb": 2169,
      "Ġjos": 2170,
      "ility": 2171,
      "Ġearly": 2172,
      "Ġrepe": 2173,
      "Ġwilderness": 2174,
      "Ġbound": 2175,
      "Ġstanding": 2176,
      "Ġclear": 2177,
      "Ġresol": 2178,
      "Ġchange": 2179,
      "bered": 2180,
      "set": 2181,
      "Ġgrey": 2182,
      "Ġcometh": 2183,
      "Ġentire": 2184,
      "Ġpharaoh": 2185,
      "Ġsurpr": 2186,
      "joy": 2187,
      "Ġve": 2188,
      "Ġsanct": 2189,
      "Ġpap": 2190,
      "raham": 2191,
      "istines": 2192,
      "Ġblue": 2193,
      "Ġopin": 2194,
      "even": 2195,
      "israel": 2196,
      "Ġspread": 2197,
      "bey": 2198,
      "ression": 2199,
      "Ġbeginning": 2200,
      "cis": 2201,
      "good": 2202,
      "Ġstubb": 2203,
      "Ġjane": 2204,
      "Ġbecame": 2205,
      "Ġline": 2206,
      "Ġshut": 2207,
      "uster": 2208,
      "Ġexa": 2209,
      "Ġprinces": 2210,
      "Ġtwelve": 2211,
      "ict": 2212,
      "vice": 2213,
      "iting": 2214,
      "roud": 2215,
      "Ġscar": 2216,
      "Ġwanted": 2217,
      "Ġstreet": 2218,
      "Ġrighteousness": 2219,
      "iel": 2220,
      "uff": 2221,
      "asion": 2222,
      "Ġsever": 2223,
      "Ġsoft": 2224,
      "Ġadded": 2225,
      "Ġwisdom": 2226,
      "down": 2227,
      "fo": 2228,
      "great": 2229,
      "vol": 2230,
      "asse": 2231,
      "Ġhell": 2232,
      "rous": 2233,
      "Ġprophet": 2234,
      "Ġpretty": 2235,
      "fice": 2236,
      "ized": 2237,
      "mn": 2238,
      "ams": 2239,
      "oseph": 2240,
      "Ġexpl": 2241,
      "Ġdread": 2242,
      "Ġconcerning": 2243,
      "Ġfly": 2244,
      "Ġfier": 2245,
      "esh": 2246,
      "Ġrec": 2247,
      "emed": 2248,
      "Ġenc": 2249,
      "eeque": 2250,
      "eequeg": 2251,
      "bell": 2252,
      "lin": 2253,
      "Ġborn": 2254,
      "rose": 2255,
      "Ġcharac": 2256,
      "Ġmultitude": 2257,
      "kn": 2258,
      "Ġcrow": 2259,
      "ament": 2260,
      "ump": 2261,
      "Ġbeautiful": 2262,
      "cr": 2263,
      "field": 2264,
      "val": 2265,
      "arp": 2266,
      "ously": 2267,
      "Ġpleased": 2268,
      "ead": 2269,
      "ock": 2270,
      "through": 2271,
      "Ġsick": 2272,
      "Ġmod": 2273,
      "Ġcub": 2274,
      "alley": 2275,
      "orses": 2276,
      "Ġforget": 2277,
      "hua": 2278,
      "42": 2279,
      "bel": 2280,
      "sal": 2281,
      "yet": 2282,
      "Ġtal": 2283,
      "Ġfilled": 2284,
      "Ġdw": 2285,
      "Ġsus": 2286,
      "ume": 2287,
      "Ġsometimes": 2288,
      "vation": 2289,
      "Ġsorrow": 2290,
      "ene": 2291,
      "Ġwhales": 2292,
      "Ġwarm": 2293,
      "Ġchurchill": 2294,
      "Ġwitness": 2295,
      "Ġiniquity": 2296,
      "bu": 2297,
      "sm": 2298,
      "Ġsad": 2299,
      "Ġcap": 2300,
      "Ġnecess": 2301,
      "comp": 2302,
      "Ġgrand": 2303,
      "bar": 2304,
      "Ġpub": 2305,
      "rible": 2306,
      "uring": 2307,
      "Ġstep": 2308,
      "Ġorder": 2309,
      "Ġquar": 2310,
      "Ġseems": 2311,
      "comm": 2312,
      "Ġ8": 2313,
      "rem": 2314,
      "Ġpull": 2315,
      "Ġears": 2316,
      "room": 2317,
      "Ġdoing": 2318,
      "Ġark": 2319,
      "Ġclean": 2320,
      "Ġtouch": 2321,
      "Ġinhabit": 2322,
      "fax": 2323,
      "Ġviol": 2324,
      "Ġjews": 2325,
      "bre": 2326,
      "kes": 2327,
      "Ġlate": 2328,
      "Ġlived": 2329,
      "Ġview": 2330,
      "Ġmoon": 2331,
      "Ġfamil": 2332,
      "Ġlevites": 2333,
      "iar": 2334,
      "jud": 2335,
      "Ġthirty": 2336,
      "Ġconst": 2337,
      "Ġabraham": 2338,
      "worth": 2339,
      "Ġadmir": 2340,
      "Ġdam": 2341,
      "Ġstory": 2342,
      "Ġslow": 2343,
      "Ġedward": 2344,
      "pri": 2345,
      "Ġheld": 2346,
      "stance": 2347,
      "Ġsper": 2348,
      "Ġpaul": 2349,
      "Ġjon": 2350,
      "Ġjenn": 2351,
      "Ġgrass": 2352,
      "Ġ10": 2353,
      "Ġban": 2354,
      "Ġfur": 2355,
      "Ġheads": 2356,
      "Ġthrone": 2357,
      "Ġmot": 2358,
      "Ġfal": 2359,
      "Ġda": 2360,
      "Ġmark": 2361,
      "lete": 2362,
      "Ġsky": 2363,
      "Ġsusan": 2364,
      "44": 2365,
      "know": 2366,
      "Ġsafe": 2367,
      "Ġvp": 2368,
      "Ġthence": 2369,
      "Ġcrown": 2370,
      "Ġhouses": 2371,
      "Ġbru": 2372,
      "Ġbird": 2373,
      "Ġjour": 2374,
      "Ġjoseph": 2375,
      "Ġdesire": 2376,
      "Ġgrave": 2377,
      "Ġwrath": 2378,
      "Ġsens": 2379,
      "Ġself": 2380,
      "Ġaccept": 2381,
      "Ġtribe": 2382,
      "Ġmountains": 2383,
      "Ġtemple": 2384,
      "Ġjennings": 2385,
      "imp": 2386,
      "Ġreco": 2387,
      "ctor": 2388,
      "Ġbrut": 2389,
      "ront": 2390,
      "Ġtongue": 2391,
      "Ġdwelt": 2392,
      "Ġau": 2393,
      "Ġbott": 2394,
      "Ġloud": 2395,
      "Ġvan": 2396,
      "Ġsmote": 2397,
      "Ġfairfax": 2398,
      "bro": 2399,
      "enance": 2400,
      "Ġeight": 2401,
      "order": 2402,
      "Ġstat": 2403,
      "Ġtherein": 2404,
      "Ġdev": 2405,
      "Ġsmile": 2406,
      "Ġbelieved": 2407,
      "children": 2408,
      "bl": 2409,
      "Ġ12": 2410,
      "Ġhence": 2411,
      "ster": 2412,
      "umed": 2413,
      "Ġhate": 2414,
      "Ġef": 2415,
      "together": 2416,
      "Ġbreath": 2417,
      "Ġtrouble": 2418,
      "clo": 2419,
      "inary": 2420,
      "Ġty": 2421,
      "Ġtest": 2422,
      "Ġled": 2423,
      "Ġglo": 2424,
      "Ġloved": 2425,
      "Ġarms": 2426,
      "Ġrul": 2427,
      "without": 2428,
      "Ġdisciples": 2429,
      "Ġofferings": 2430,
      "Ġhorses": 2431,
      "sequ": 2432,
      "iment": 2433,
      "antly": 2434,
      "ively": 2435,
      "Ġqueen": 2436,
      "aged": 2437,
      "Ġfancy": 2438,
      "Ġequal": 2439,
      "Ġcaesar": 2440,
      "cent": 2441,
      "fl": 2442,
      "Ġ11": 2443,
      "idence": 2444,
      "Ġyouth": 2445,
      "Ġstret": 2446,
      "Ġroad": 2447,
      "Ġentered": 2448,
      "Ġtalking": 2449,
      "Ġlifted": 2450,
      "Ġrejoice": 2451,
      "des": 2452,
      "har": 2453,
      "Ġsor": 2454,
      "Ġwal": 2455,
      "Ġfill": 2456,
      "Ġtow": 2457,
      "Ġhab": 2458,
      "Ġshame": 2459,
      "sell": 2460,
      "Ġblind": 2461,
      "Ġspeaking": 2462,
      "Ġminutes": 2463,
      "Ġprophets": 2464,
      "Ġdanger": 2465,
      "Ġcharacter": 2466,
      "time": 2467,
      "Ġmort": 2468,
      "Ġlips": 2469,
      "Ġarri": 2470,
      "Ġbroad": 2471,
      "oughby": 2472,
      "Ġemp": 2473,
      "Ġhappiness": 2474,
      "Ġdepart": 2475,
      "Ġstranger": 2476,
      "Ġod": 2477,
      "Ġtaking": 2478,
      "Ġfre": 2479,
      "Ġwash": 2480,
      "emma": 2481,
      "aughter": 2482,
      "Ġnatural": 2483,
      "?'": 2484,
      "little": 2485,
      "son": 2486,
      "Ġsitting": 2487,
      "Ġheark": 2488,
      "eless": 2489,
      "Ġsole": 2490,
      "Ġaffection": 2491,
      "Ġperfectly": 2492,
      "Ġsacrifice": 2493,
      "Ġsperm": 2494,
      "buck": 2495,
      "take": 2496,
      "Ġcaught": 2497,
      "Ġstars": 2498,
      "Ġvine": 2499,
      "Ġcompass": 2500,
      "Ġbegat": 2501,
      "aintance": 2502,
      "Ġstraight": 2503,
      "fast": 2504,
      "oved": 2505,
      "uer": 2506,
      "Ġage": 2507,
      "only": 2508,
      "aling": 2509,
      "Ġsheep": 2510,
      "rust": 2511,
      "ounded": 2512,
      "Ġdeparted": 2513,
      "Ġfifty": 2514,
      "Ġere": 2515,
      "Ġgrie": 2516,
      "Ġseat": 2517,
      "Ġrid": 2518,
      "43": 2519,
      "Ġvalley": 2520,
      "Ġwentworth": 2521,
      "Ġcro": 2522,
      "Ġbuilt": 2523,
      "Ġphilistines": 2524,
      "otten": 2525,
      "ria": 2526,
      "Ġmeant": 2527,
      "asts": 2528,
      "ours": 2529,
      "Ġgreater": 2530,
      "Ġrock": 2531,
      "Ġbelong": 2532,
      "Ġcalm": 2533,
      "host": 2534,
      "aded": 2535,
      "nothing": 2536,
      "Ġinstru": 2537,
      "48": 2538,
      "ony": 2539,
      "Ġdeter": 2540,
      "forth": 2541,
      "Ġharpo": 2542,
      "cont": 2543,
      "Ġtalked": 2544,
      "Ġpurpose": 2545,
      "lud": 2546,
      "pect": 2547,
      "Ġthick": 2548,
      "Ġtry": 2549,
      "char": 2550,
      "Ġstones": 2551,
      "Ġsepar": 2552,
      "usion": 2553,
      "Ġafterwards": 2554,
      "Ġacross": 2555,
      "Ġunclean": 2556,
      "Ġinheritance": 2557,
      "Ġopinion": 2558,
      "car": 2559,
      "ha": 2560,
      "Ġtaste": 2561,
      "Ġshout": 2562,
      "whe": 2563,
      "aped": 2564,
      "ossible": 2565,
      "Ġdrew": 2566,
      "Ġhours": 2567,
      "iest": 2568,
      "Ġaround": 2569,
      "Ġir": 2570,
      "Ġthinking": 2571,
      "Ġcontr": 2572,
      "cially": 2573,
      "Ġpersu": 2574,
      "Ġmountain": 2575,
      "Ġmaid": 2576,
      "Ġcheer": 2577,
      "gar": 2578,
      "give": 2579,
      "Ġarose": 2580,
      "Ġfro": 2581,
      "irth": 2582,
      "Ġexcell": 2583,
      "Ġlean": 2584,
      "Ġobliged": 2585,
      "Ġjoshua": 2586,
      "known": 2587,
      "kind": 2588,
      "much": 2589,
      "Ġbal": 2590,
      "ises": 2591,
      "Ġcass": 2592,
      "fend": 2593,
      "ints": 2594,
      "Ġdesol": 2595,
      "Ġox": 2596,
      "Ġble": 2597,
      "Ġtried": 2598,
      "Ġdem": 2599,
      "Ġdare": 2600,
      "Ġyourselves": 2601,
      "Ġagre": 2602,
      "Ġmoreover": 2603,
      "laimed": 2604,
      "Ġacquaintance": 2605,
      "Ġheavy": 2606,
      "Ġrepeated": 2607,
      "sin": 2608,
      "Ġdu": 2609,
      "vell": 2610,
      "Ġash": 2611,
      "urs": 2612,
      "Ġseas": 2613,
      "Ġnoise": 2614,
      "Ġprev": 2615,
      "Ġwoe": 2616,
      "Ġsuffer": 2617,
      "cons": 2618,
      "oc": 2619,
      "eric": 2620,
      "Ġsam": 2621,
      "Ġworse": 2622,
      "Ġoffered": 2623,
      "Ġlouisa": 2624,
      "Ġfr": 2625,
      "inger": 2626,
      "Ġsharp": 2627,
      "Ġund": 2628,
      "aled": 2629,
      "Ġret": 2630,
      "ordan": 2631,
      "Ġfaces": 2632,
      "ishment": 2633,
      "ists": 2634,
      "Ġprison": 2635,
      "servant": 2636,
      "last": 2637,
      "Ġ18": 2638,
      "rees": 2639,
      "Ġtar": 2640,
      "Ġfresh": 2641,
      "Ġshore": 2642,
      "Ġsoci": 2643,
      "Ġsays": 2644,
      "Ġrain": 2645,
      "Ġslain": 2646,
      "Ġslew": 2647,
      "Ġpursu": 2648,
      "Ġaffli": 2649,
      "Ġfigure": 2650,
      "Ġstruck": 2651,
      "Ġaston": 2652,
      "Ġjourney": 2653,
      "gi": 2654,
      "Ġmil": 2655,
      "Ġcent": 2656,
      "Ġforty": 2657,
      "Ġwilloughby": 2658,
      "Ġconvers": 2659,
      "Ġexceed": 2660,
      "Ġprob": 2661,
      "Ġservice": 2662,
      "Ġcomplete": 2663,
      "Ġenemy": 2664,
      "Ġteach": 2665,
      "ba": 2666,
      "eds": 2667,
      "semb": 2668,
      "ols": 2669,
      "osition": 2670,
      "capt": 2671,
      "Ġsorry": 2672,
      "Ġze": 2673,
      "owing": 2674,
      "Ġanx": 2675,
      "Ġconv": 2676,
      "never": 2677,
      "Ġenjoy": 2678,
      "Ġqueequeg": 2679,
      "Ġeverything": 2680,
      "Ġturning": 2681,
      "Ġcharge": 2682,
      "covered": 2683,
      "46": 2684,
      "Ġhart": 2685,
      "Ġbuster": 2686,
      "Ġmed": 2687,
      "Ġvar": 2688,
      "oked": 2689,
      "Ġhearts": 2690,
      "Ġwalking": 2691,
      "Ġbeside": 2692,
      "Ġdifferent": 2693,
      "Ġfled": 2694,
      "Ġdet": 2695,
      "pher": 2696,
      "Ġpresence": 2697,
      "Ġsitu": 2698,
      "place": 2699,
      "Ġfalse": 2700,
      "Ġtail": 2701,
      "Ġwhis": 2702,
      "Ġdisapp": 2703,
      "Ġglor": 2704,
      "Ġsett": 2705,
      "aan": 2706,
      "aiah": 2707,
      "jah": 2708,
      "nat": 2709,
      "pleas": 2710,
      "uge": 2711,
      "raim": 2712,
      "Ġsought": 2713,
      "Ġunderstanding": 2714,
      "Ġmention": 2715,
      "Ġlion": 2716,
      "elinor": 2717,
      "Ġsusp": 2718,
      "Ġplan": 2719,
      "Ġcarry": 2720,
      "Ġfeeling": 2721,
      "Ġstreets": 2722,
      "Ġbeauty": 2723,
      "nt": 2724,
      "Ġproud": 2725,
      "Ġspeech": 2726,
      "Ġoffic": 2727,
      "Ġaccom": 2728,
      "Ġdiffic": 2729,
      "Ġpromise": 2730,
      "Ġbeasts": 2731,
      "hor": 2732,
      "Ġ15": 2733,
      "Ġpeter": 2734,
      "Ġconce": 2735,
      "Ġcompl": 2736,
      "Ġfarmer": 2737,
      "Ġfallen": 2738,
      "Ġhonest": 2739,
      "born": 2740,
      "gue": 2741,
      "nest": 2742,
      "part": 2743,
      "Ġwel": 2744,
      "Ġblo": 2745,
      "Ġfront": 2746,
      "Ġpun": 2747,
      "ented": 2748,
      "ality": 2749,
      "Ġslight": 2750,
      "Ġwrite": 2751,
      "ference": 2752,
      "Ġprince": 2753,
      "45": 2754,
      "iers": 2755,
      "Ġav": 2756,
      "iter": 2757,
      "Ġstart": 2758,
      "Ġliber": 2759,
      "Ġvs": 2760,
      "Ġmoab": 2761,
      "new": 2762,
      "Ġstead": 2763,
      "Ġclothes": 2764,
      "Ġdinner": 2765,
      "Ġexactly": 2766,
      "Ġpati": 2767,
      "Ġant": 2768,
      "anted": 2769,
      "Ġproceed": 2770,
      "Ġsmith": 2771,
      "Ġgiving": 2772,
      "leton": 2773,
      "Ġhappened": 2774,
      "Ġpolice": 2775,
      "Ġcrowd": 2776,
      "Ġcubits": 2777,
      "Ġinhabitants": 2778,
      "Ġfurther": 2779,
      "hath": 2780,
      "Ġfla": 2781,
      "Ġchance": 2782,
      "Ġspring": 2783,
      "Ġvast": 2784,
      "Ġworth": 2785,
      "Ġpleasant": 2786,
      "Ġtemper": 2787,
      "Ġhither": 2788,
      "rest": 2789,
      "Ġfit": 2790,
      "Ġgates": 2791,
      "Ġnobody": 2792,
      "Ġneck": 2793,
      "Ġmove": 2794,
      "Ġattention": 2795,
      "came": 2796,
      "Ġ13": 2797,
      "Ġhide": 2798,
      "Ġpath": 2799,
      "Ġinqu": 2800,
      "Ġasham": 2801,
      "Ġmem": 2802,
      "Ġoccasion": 2803,
      "Ġladies": 2804,
      "Ġeffect": 2805,
      "..": 2806,
      "Ġmain": 2807,
      "Ġdut": 2808,
      "Ġpure": 2809,
      "Ġformer": 2810,
      "rent": 2811,
      "Ġarise": 2812,
      "Ġram": 2813,
      "acy": 2814,
      "Ġdeser": 2815,
      "Ġcarriage": 2816,
      "ushed": 2817,
      "Ġmonths": 2818,
      "Ġashamed": 2819,
      "ror": 2820,
      "sper": 2821,
      "Ġnigh": 2822,
      "osen": 2823,
      "Ġeager": 2824,
      "uct": 2825,
      "ining": 2826,
      "Ġweak": 2827,
      "Ġbri": 2828,
      "ode": 2829,
      "eable": 2830,
      "Ġvoy": 2831,
      "Ġdeck": 2832,
      "Ġlevi": 2833,
      "Ġinstead": 2834,
      "Ġprepared": 2835,
      "don": 2836,
      "first": 2837,
      "hood": 2838,
      "lady": 2839,
      "tis": 2840,
      "things": 2841,
      "Ġmal": 2842,
      "ism": 2843,
      "Ġdi": 2844,
      "Ġsel": 2845,
      "Ġgoes": 2846,
      "Ġago": 2847,
      "loy": 2848,
      "Ġbran": 2849,
      "Ġminister": 2850,
      "bet": 2851,
      "gs": 2852,
      "uous": 2853,
      "Ġsnow": 2854,
      "Ġlot": 2855,
      "Ġcha": 2856,
      "Ġlooks": 2857,
      "Ġheavens": 2858,
      "Ġminute": 2859,
      "airs": 2860,
      "Ġcounsel": 2861,
      "ming": 2862,
      "Ġ14": 2863,
      "ric": 2864,
      "ope": 2865,
      "mend": 2866,
      "119": 2867,
      "Ġprodu": 2868,
      "Ġswift": 2869,
      "Ġsins": 2870,
      "Ġengage": 2871,
      "certain": 2872,
      "happ": 2873,
      "ires": 2874,
      "made": 2875,
      "mined": 2876,
      "Ġjordan": 2877,
      "Ġwhatever": 2878,
      "Ġwherein": 2879,
      "Ġimport": 2880,
      "Ġchariot": 2881,
      "fair": 2882,
      "ivity": 2883,
      "Ġsatisfied": 2884,
      "Ġfamilies": 2885,
      "cil": 2886,
      "del": 2887,
      "Ġtall": 2888,
      "Ġfixed": 2889,
      "Ġpor": 2890,
      "Ġcho": 2891,
      "osity": 2892,
      "Ġpost": 2893,
      "Ġscri": 2894,
      "Ġfright": 2895,
      "Ġenglish": 2896,
      "Ġdestroyed": 2897,
      "Ġlucy": 2898,
      "Ġscho": 2899,
      "Ġhang": 2900,
      "ndon": 2901,
      "Ġcountenance": 2902,
      "49": 2903,
      "hon": 2904,
      "jamin": 2905,
      "think": 2906,
      "Ġhun": 2907,
      "Ġhung": 2908,
      "Ġwished": 2909,
      "reme": 2910,
      "ades": 2911,
      "cket": 2912,
      "Ġcher": 2913,
      "Ġdeg": 2914,
      "Ġworship": 2915,
      "Ġusual": 2916,
      "Ġglass": 2917,
      "Ġattend": 2918,
      "Ġgolden": 2919,
      "morrow": 2920,
      "Ġbath": 2921,
      "Ġcand": 2922,
      "Ġnation": 2923,
      "chief": 2924,
      "alls": 2925,
      "andon": 2926,
      "Ġjack": 2927,
      "quod": 2928,
      "been": 2929,
      "Ġknows": 2930,
      "eping": 2931,
      "tained": 2932,
      "Ġships": 2933,
      "Ġtender": 2934,
      "Ġstarbuck": 2935,
      "two": 2936,
      "Ġshadow": 2937,
      "cisco": 2938,
      "50": 2939,
      "hea": 2940,
      "thur": 2941,
      "thus": 2942,
      "Ġnaked": 2943,
      "chem": 2944,
      "Ġwhosoever": 2945,
      "Ġmoved": 2946,
      "command": 2947,
      "Ġpip": 2948,
      "Ġghost": 2949,
      "Ġbeat": 2950,
      "Ġarch": 2951,
      "Ġrus": 2952,
      "Ġlands": 2953,
      "Ġburst": 2954,
      "ize": 2955,
      "Ġhot": 2956,
      "oul": 2957,
      "Ġdress": 2958,
      "Ġpill": 2959,
      "Ġetern": 2960,
      "Ġwide": 2961,
      "aming": 2962,
      "erem": 2963,
      "rud": 2964,
      "Ġharv": 2965,
      "Ġcreature": 2966,
      "ccess": 2967,
      "Ġforest": 2968,
      "Ġfields": 2969,
      "saying": 2970,
      "Ġentirely": 2971,
      "'re": 2972,
      "),": 2973,
      "kiah": 2974,
      "Ġdust": 2975,
      "Ġgover": 2976,
      "Ġabomin": 2977,
      "Ġgrew": 2978,
      "aker": 2979,
      "Ġdelic": 2980,
      "pecially": 2981,
      "Ġcrew": 2982,
      "Ġtears": 2983,
      "Ġmusg": 2984,
      "Ġfortune": 2985,
      "Ġelders": 2986,
      "Ġconversation": 2987,
      "bury": 2988,
      "atic": 2989,
      "Ġconsequ": 2990,
      "ĠĠĠĠĠĠ": 2991,
      "Ġrising": 2992,
      "arks": 2993,
      "attered": 2994,
      "ourage": 2995,
      "Ġcurious": 2996,
      "Ġmeasure": 2997,
      "Ġpublic": 2998,
      ").": 2999
    },
    "merges": [
      [
        "t",
        "h"
      ],
      [
        "Ġ",
        "th"
      ],
      [
        "Ġ",
        "a"
      ],
      [
        "Ġth",
        "e"
      ],
      [
        "i",
        "n"
      ],
      [
        "Ġ",
        "s"
      ],
      [
        "Ġ",
        "h"
      ],
      [
        "e",
        "r"
      ],
      [
        "n",
        "d"
      ],
      [
        "Ġ",
        "w"
      ],
      [
        "Ġ",
        "o"
      ],
      [
        "r",
        "e"
      ],
      [
        "Ġ",
        "b"
      ],
      [
        "o",
        "u"
      ],
      [
        "Ġa",
        "nd"
      ],
      [
        "Ġ",
        "m"
      ],
      [
        "Ġ",
        "t"
      ],
      [
        "i",
        "s"
      ],
      [
        "Ġ",
        "f"
      ],
      [
        "Ġo",
        "f"
      ],
      [
        "e",
        "n"
      ],
      [
        "a",
        "t"
      ],
      [
        "e",
        "d"
      ],
      [
        "Ġ",
        "c"
      ],
      [
        "o",
        "r"
      ],
      [
        "l",
        "l"
      ],
      [
        "o",
        "n"
      ],
      [
        "e",
        "s"
      ],
      [
        "in",
        "g"
      ],
      [
        "Ġ",
        "i"
      ],
      [
        "Ġ",
        "l"
      ],
      [
        "Ġ",
        "d"
      ],
      [
        "a",
        "r"
      ],
      [
        "Ġt",
        "o"
      ],
      [
        "a",
        "n"
      ],
      [
        "Ġ",
        "p"
      ],
      [
        "č",
        "Ċ"
      ],
      [
        "a",
        "s"
      ],
      [
        "Ġ",
        "n"
      ],
      [
        "Ġ",
        "in"
      ],
      [
        "Ġ",
        "g"
      ],
      [
        "Ġb",
        "e"
      ],
      [
        "o",
        "m"
      ],
      [
        "Ġh",
        "e"
      ],
      [
        "Ġw",
        "h"
      ],
      [
        "l",
        "e"
      ],
      [
        "Ġh",
        "a"
      ],
      [
        "Ġ",
        "e"
      ],
      [
        "Ġ",
        "y"
      ],
      [
        "Ġs",
        "h"
      ],
      [
        "i",
        "t"
      ],
      [
        "Ġ",
        "u"
      ],
      [
        "o",
        "w"
      ],
      [
        "Ġw",
        "i"
      ],
      [
        "s",
        "e"
      ],
      [
        "c",
        "h"
      ],
      [
        "u",
        "t"
      ],
      [
        "l",
        "d"
      ],
      [
        "Ġth",
        "at"
      ],
      [
        "g",
        "h"
      ],
      [
        "i",
        "d"
      ],
      [
        "v",
        "e"
      ],
      [
        "o",
        "t"
      ],
      [
        "s",
        "t"
      ],
      [
        "i",
        "m"
      ],
      [
        "c",
        "e"
      ],
      [
        "a",
        "y"
      ],
      [
        "Ġf",
        "or"
      ],
      [
        "Ġi",
        "t"
      ],
      [
        "v",
        "er"
      ],
      [
        "Ġy",
        "ou"
      ],
      [
        "a",
        "ll"
      ],
      [
        "Ġh",
        "is"
      ],
      [
        "en",
        "t"
      ],
      [
        "t",
        "o"
      ],
      [
        "i",
        "r"
      ],
      [
        "l",
        "y"
      ],
      [
        "a",
        "nd"
      ],
      [
        "Ġ",
        "Ġ"
      ],
      [
        "a",
        "l"
      ],
      [
        "Ġ",
        "is"
      ],
      [
        "Ġw",
        "as"
      ],
      [
        "Ġwi",
        "th"
      ],
      [
        "r",
        "i"
      ],
      [
        "gh",
        "t"
      ],
      [
        "a",
        "d"
      ],
      [
        "Ġ",
        "re"
      ],
      [
        "th",
        "er"
      ],
      [
        "Ġo",
        "n"
      ],
      [
        "Ġn",
        "ot"
      ],
      [
        "Ġs",
        "a"
      ],
      [
        "o",
        "d"
      ],
      [
        "e",
        "t"
      ],
      [
        "Ġa",
        "s"
      ],
      [
        "i",
        "on"
      ],
      [
        "a",
        "m"
      ],
      [
        "u",
        "r"
      ],
      [
        "k",
        "e"
      ],
      [
        "r",
        "o"
      ],
      [
        "or",
        "d"
      ],
      [
        "Ġh",
        "im"
      ],
      [
        "Ġh",
        "er"
      ],
      [
        "th",
        "e"
      ],
      [
        "Ġa",
        "n"
      ],
      [
        "r",
        "a"
      ],
      [
        "Ġa",
        "ll"
      ],
      [
        "Ġs",
        "t"
      ],
      [
        "Ġs",
        "e"
      ],
      [
        "Ġu",
        "n"
      ],
      [
        "Ġm",
        "e"
      ],
      [
        "t",
        "er"
      ],
      [
        "Ġ",
        "j"
      ],
      [
        "Ġ",
        "k"
      ],
      [
        "o",
        "re"
      ],
      [
        "er",
        "e"
      ],
      [
        "Ġthe",
        "y"
      ],
      [
        "a",
        "in"
      ],
      [
        "e",
        "l"
      ],
      [
        "Ġb",
        "ut"
      ],
      [
        "Ġ",
        "Ċ"
      ],
      [
        "Ġsh",
        "all"
      ],
      [
        "ou",
        "ld"
      ],
      [
        "Ġm",
        "y"
      ],
      [
        "i",
        "l"
      ],
      [
        "es",
        "s"
      ],
      [
        "Ġthe",
        "m"
      ],
      [
        "es",
        "t"
      ],
      [
        "Ġs",
        "o"
      ],
      [
        "'",
        "s"
      ],
      [
        "Ġth",
        "ou"
      ],
      [
        "om",
        "e"
      ],
      [
        "r",
        "om"
      ],
      [
        "Ġa",
        "t"
      ],
      [
        "c",
        "k"
      ],
      [
        "Ġha",
        "d"
      ],
      [
        "-",
        "-"
      ],
      [
        "c",
        "t"
      ],
      [
        "Ġu",
        "p"
      ],
      [
        "Ġs",
        "u"
      ],
      [
        "Ġha",
        "ve"
      ],
      [
        "Ġl",
        "i"
      ],
      [
        "Ġc",
        "h"
      ],
      [
        "Ġsh",
        "e"
      ],
      [
        "i",
        "ch"
      ],
      [
        "Ġsa",
        "id"
      ],
      [
        "e",
        "a"
      ],
      [
        "u",
        "s"
      ],
      [
        "Ġun",
        "to"
      ],
      [
        "as",
        "t"
      ],
      [
        "ar",
        "d"
      ],
      [
        "Ġthe",
        "re"
      ],
      [
        "Ġf",
        "rom"
      ],
      [
        "Ġm",
        "an"
      ],
      [
        "Ġg",
        "o"
      ],
      [
        "Ġl",
        "ord"
      ],
      [
        "a",
        "b"
      ],
      [
        "Ġth",
        "is"
      ],
      [
        "i",
        "ght"
      ],
      [
        "Ġs",
        "p"
      ],
      [
        "g",
        "e"
      ],
      [
        "Ġb",
        "y"
      ],
      [
        "Ġw",
        "e"
      ],
      [
        "Ġwh",
        "ich"
      ],
      [
        "Ġ",
        "v"
      ],
      [
        "ver",
        "y"
      ],
      [
        "q",
        "u"
      ],
      [
        "Ġn",
        "o"
      ],
      [
        "Ġd",
        "o"
      ],
      [
        "v",
        "en"
      ],
      [
        "u",
        "l"
      ],
      [
        "an",
        "t"
      ],
      [
        "Ġwi",
        "ll"
      ],
      [
        "Ġthe",
        "ir"
      ],
      [
        "Ġn",
        "e"
      ],
      [
        "on",
        "g"
      ],
      [
        "Ġa",
        "l"
      ],
      [
        "p",
        "p"
      ],
      [
        "e",
        "m"
      ],
      [
        "ou",
        "r"
      ],
      [
        "i",
        "ll"
      ],
      [
        "Ġf",
        "a"
      ],
      [
        "er",
        "s"
      ],
      [
        "r",
        "ou"
      ],
      [
        "Ġo",
        "r"
      ],
      [
        "o",
        "f"
      ],
      [
        "Ġa",
        "re"
      ],
      [
        "r",
        "u"
      ],
      [
        "i",
        "c"
      ],
      [
        "Ġ",
        "\""
      ],
      [
        "Ġd",
        "e"
      ],
      [
        "w",
        "h"
      ],
      [
        "se",
        "l"
      ],
      [
        "Ġw",
        "ere"
      ],
      [
        "o",
        "k"
      ],
      [
        "Ġl",
        "o"
      ],
      [
        "Ġc",
        "on"
      ],
      [
        "Ġy",
        "e"
      ],
      [
        "at",
        "ion"
      ],
      [
        "ar",
        "t"
      ],
      [
        "Ġk",
        "n"
      ],
      [
        "am",
        "e"
      ],
      [
        ".",
        "\""
      ],
      [
        "Ġo",
        "ut"
      ],
      [
        "a",
        "ke"
      ],
      [
        "Ġwh",
        "en"
      ],
      [
        "on",
        "e"
      ],
      [
        "ou",
        "s"
      ],
      [
        "Ġon",
        "e"
      ],
      [
        "h",
        "e"
      ],
      [
        "Ġwh",
        "o"
      ],
      [
        "f",
        "ore"
      ],
      [
        "re",
        "s"
      ],
      [
        "Ġa",
        "m"
      ],
      [
        "p",
        "t"
      ],
      [
        "a",
        "u"
      ],
      [
        "Ġth",
        "y"
      ],
      [
        "Ġa",
        "b"
      ],
      [
        "Ġg",
        "od"
      ],
      [
        "ow",
        "n"
      ],
      [
        "in",
        "d"
      ],
      [
        "ou",
        "t"
      ],
      [
        "o",
        "p"
      ],
      [
        "Ġyou",
        "r"
      ],
      [
        "Ġc",
        "om"
      ],
      [
        "o",
        "l"
      ],
      [
        "u",
        "st"
      ],
      [
        "in",
        "e"
      ],
      [
        "i",
        "e"
      ],
      [
        "o",
        "s"
      ],
      [
        "f",
        "e"
      ],
      [
        "Ġwh",
        "at"
      ],
      [
        "Ġa",
        "g"
      ],
      [
        "l",
        "a"
      ],
      [
        "re",
        "d"
      ],
      [
        "is",
        "h"
      ],
      [
        ",",
        "\""
      ],
      [
        "i",
        "ve"
      ],
      [
        "ing",
        "s"
      ],
      [
        "Ġthe",
        "n"
      ],
      [
        "i",
        "f"
      ],
      [
        "i",
        "th"
      ],
      [
        "e",
        "ll"
      ],
      [
        "ur",
        "n"
      ],
      [
        "it",
        "t"
      ],
      [
        "a",
        "h"
      ],
      [
        "at",
        "e"
      ],
      [
        "Ġi",
        "f"
      ],
      [
        "sel",
        "f"
      ],
      [
        "Ġs",
        "ay"
      ],
      [
        "Ġthe",
        "e"
      ],
      [
        "is",
        "t"
      ],
      [
        "ĠĠ",
        "ĠĠ"
      ],
      [
        "u",
        "n"
      ],
      [
        "Ġe",
        "x"
      ],
      [
        "Ġg",
        "re"
      ],
      [
        "it",
        "y"
      ],
      [
        "Ġd",
        "ay"
      ],
      [
        "l",
        "o"
      ],
      [
        "Ġup",
        "on"
      ],
      [
        "u",
        "m"
      ],
      [
        "Ġa",
        "f"
      ],
      [
        "Ġn",
        "ow"
      ],
      [
        "Ġag",
        "ain"
      ],
      [
        "as",
        "s"
      ],
      [
        "re",
        "n"
      ],
      [
        "Ġm",
        "o"
      ],
      [
        "Ġm",
        "ore"
      ],
      [
        "b",
        "e"
      ],
      [
        "s",
        "o"
      ],
      [
        "Ġs",
        "on"
      ],
      [
        "f",
        "or"
      ],
      [
        "Ġw",
        "ould"
      ],
      [
        "Ġin",
        "to"
      ],
      [
        "u",
        "d"
      ],
      [
        "i",
        "ce"
      ],
      [
        "Ġkn",
        "ow"
      ],
      [
        "Ġan",
        "y"
      ],
      [
        "Ġa",
        "r"
      ],
      [
        "Ġw",
        "or"
      ],
      [
        "i",
        "g"
      ],
      [
        "i",
        "ld"
      ],
      [
        "Ġl",
        "e"
      ],
      [
        "Ġ",
        "r"
      ],
      [
        "a",
        "k"
      ],
      [
        "Ġs",
        "ome"
      ],
      [
        "Ġ",
        "very"
      ],
      [
        "Ġf",
        "e"
      ],
      [
        "ou",
        "se"
      ],
      [
        "a",
        "c"
      ],
      [
        "Ġha",
        "nd"
      ],
      [
        "Ġc",
        "ome"
      ],
      [
        "e",
        "p"
      ],
      [
        "a",
        "p"
      ],
      [
        "n",
        "ess"
      ],
      [
        "it",
        "e"
      ],
      [
        "u",
        "re"
      ],
      [
        "w",
        "ay"
      ],
      [
        "Ġb",
        "o"
      ],
      [
        "Ġse",
        "e"
      ],
      [
        "Ġp",
        "ro"
      ],
      [
        "i",
        "es"
      ],
      [
        "nd",
        "er"
      ],
      [
        "r",
        "y"
      ],
      [
        "Ġm",
        "r"
      ],
      [
        "ad",
        "e"
      ],
      [
        "en",
        "ce"
      ],
      [
        "v",
        "ed"
      ],
      [
        "n",
        "e"
      ],
      [
        "Ġc",
        "ould"
      ],
      [
        "Ġk",
        "ing"
      ],
      [
        "Ġli",
        "ke"
      ],
      [
        "o",
        "ld"
      ],
      [
        "Ġof",
        "f"
      ],
      [
        "Ġt",
        "w"
      ],
      [
        "th",
        "ing"
      ],
      [
        "Ġu",
        "s"
      ],
      [
        "Ġc",
        "an"
      ],
      [
        "Ġ",
        "en"
      ],
      [
        "ou",
        "n"
      ],
      [
        "an",
        "ce"
      ],
      [
        "Ġp",
        "e"
      ],
      [
        "Ġbe",
        "en"
      ],
      [
        "Ġ",
        "qu"
      ],
      [
        "b",
        "ut"
      ],
      [
        "o",
        "se"
      ],
      [
        "is",
        "e"
      ],
      [
        "a",
        "g"
      ],
      [
        "Ġd",
        "id"
      ],
      [
        "Ġgre",
        "at"
      ],
      [
        "im",
        "e"
      ],
      [
        "in",
        "k"
      ],
      [
        "th",
        "at"
      ],
      [
        "Ġc",
        "ame"
      ],
      [
        "m",
        "ent"
      ],
      [
        "s",
        "h"
      ],
      [
        "Ġbe",
        "fore"
      ],
      [
        "itt",
        "le"
      ],
      [
        "Ġ",
        "ro"
      ],
      [
        "id",
        "e"
      ],
      [
        "Ġe",
        "very"
      ],
      [
        "Ġth",
        "an"
      ],
      [
        "m",
        "e"
      ],
      [
        "a",
        "le"
      ],
      [
        "i",
        "p"
      ],
      [
        "u",
        "ll"
      ],
      [
        "ou",
        "nd"
      ],
      [
        "w",
        "n"
      ],
      [
        "Ġo",
        "ver"
      ],
      [
        "Ġgo",
        "od"
      ],
      [
        "u",
        "ch"
      ],
      [
        "a",
        "re"
      ],
      [
        "Ġb",
        "r"
      ],
      [
        "v",
        "es"
      ],
      [
        "ĠĠ",
        "Ġ"
      ],
      [
        "Ġl",
        "et"
      ],
      [
        "Ġ",
        "ri"
      ],
      [
        "Ġo",
        "ther"
      ],
      [
        "Ġl",
        "ittle"
      ],
      [
        "Ġh",
        "ow"
      ],
      [
        "op",
        "le"
      ],
      [
        "ar",
        "s"
      ],
      [
        "w",
        "ard"
      ],
      [
        "or",
        "t"
      ],
      [
        "ab",
        "le"
      ],
      [
        "Ġh",
        "ouse"
      ],
      [
        "e",
        "nd"
      ],
      [
        "Ġd",
        "own"
      ],
      [
        "Ġe",
        "ven"
      ],
      [
        "Ġfa",
        "ther"
      ],
      [
        "Ġaf",
        "ter"
      ],
      [
        "w",
        "e"
      ],
      [
        "b",
        "le"
      ],
      [
        "Ġo",
        "ur"
      ],
      [
        "e",
        "ct"
      ],
      [
        "i",
        "re"
      ],
      [
        "Ġlo",
        "ok"
      ],
      [
        "ra",
        "el"
      ],
      [
        "p",
        "h"
      ],
      [
        "Ġm",
        "en"
      ],
      [
        "l",
        "i"
      ],
      [
        "Ġsh",
        "ould"
      ],
      [
        "Ġch",
        "ild"
      ],
      [
        "Ġm",
        "ade"
      ],
      [
        "re",
        "e"
      ],
      [
        "au",
        "se"
      ],
      [
        "a",
        "ch"
      ],
      [
        "Ġthe",
        "se"
      ],
      [
        "'",
        "d"
      ],
      [
        "Ġpe",
        "ople"
      ],
      [
        "Ġt",
        "ime"
      ],
      [
        "or",
        "n"
      ],
      [
        "Ġa",
        "c"
      ],
      [
        "p",
        "er"
      ],
      [
        "u",
        "e"
      ],
      [
        "Ġp",
        "er"
      ],
      [
        "Ġwh",
        "ere"
      ],
      [
        "Ġm",
        "ay"
      ],
      [
        "Ġc",
        "o"
      ],
      [
        "oun",
        "t"
      ],
      [
        "l",
        "es"
      ],
      [
        "i",
        "gh"
      ],
      [
        "Ġp",
        "o"
      ],
      [
        "1",
        "0"
      ],
      [
        "Ġi",
        "m"
      ],
      [
        "Ġe",
        "ar"
      ],
      [
        "1",
        "1"
      ],
      [
        "v",
        "ing"
      ],
      [
        "Ġp",
        "r"
      ],
      [
        "Ġm",
        "ar"
      ],
      [
        "Ġw",
        "ent"
      ],
      [
        "r",
        "an"
      ],
      [
        "'",
        "t"
      ],
      [
        "i",
        "le"
      ],
      [
        "w",
        "ith"
      ],
      [
        "Ġis",
        "rael"
      ],
      [
        "Ġ",
        "ra"
      ],
      [
        "e",
        "th"
      ],
      [
        "Ġha",
        "th"
      ],
      [
        "all",
        "y"
      ],
      [
        "Ġab",
        "out"
      ],
      [
        "Ġs",
        "m"
      ],
      [
        "?",
        "\""
      ],
      [
        "a",
        "th"
      ],
      [
        "er",
        "ed"
      ],
      [
        "Ġon",
        "ly"
      ],
      [
        "l",
        "ed"
      ],
      [
        "Ġa",
        "d"
      ],
      [
        "Ġbe",
        "c"
      ],
      [
        "Ġm",
        "ight"
      ],
      [
        "Ġd",
        "is"
      ],
      [
        "Ġsu",
        "ch"
      ],
      [
        "Ġl",
        "and"
      ],
      [
        "ri",
        "ed"
      ],
      [
        "Ġw",
        "ord"
      ],
      [
        "Ġm",
        "ake"
      ],
      [
        "Ġs",
        "er"
      ],
      [
        "Ġm",
        "ust"
      ],
      [
        "Ġo",
        "wn"
      ],
      [
        "a",
        "ge"
      ],
      [
        "ir",
        "st"
      ],
      [
        "Ġtw",
        "o"
      ],
      [
        "o",
        "st"
      ],
      [
        "Ġf",
        "o"
      ],
      [
        "Ġm",
        "uch"
      ],
      [
        "al",
        "t"
      ],
      [
        "i",
        "an"
      ],
      [
        "Ġb",
        "l"
      ],
      [
        "al",
        "k"
      ],
      [
        "Ġw",
        "ay"
      ],
      [
        "f",
        "ul"
      ],
      [
        "Ġb",
        "re"
      ],
      [
        "Ġp",
        "ass"
      ],
      [
        "i",
        "ous"
      ],
      [
        "rou",
        "nd"
      ],
      [
        "n",
        "ot"
      ],
      [
        "f",
        "t"
      ],
      [
        "Ġal",
        "so"
      ],
      [
        "i",
        "ther"
      ],
      [
        "Ġp",
        "la"
      ],
      [
        "1",
        "2"
      ],
      [
        "1",
        "3"
      ],
      [
        "a",
        "ve"
      ],
      [
        "Ġchild",
        "ren"
      ],
      [
        "Ġagain",
        "st"
      ],
      [
        "Ġp",
        "art"
      ],
      [
        "Ġj",
        "o"
      ],
      [
        "1",
        "4"
      ],
      [
        "Ġl",
        "ong"
      ],
      [
        "Ġwe",
        "ll"
      ],
      [
        "Ġbe",
        "h"
      ],
      [
        "s",
        "p"
      ],
      [
        "res",
        "s"
      ],
      [
        "o",
        "od"
      ],
      [
        "Ġp",
        "re"
      ],
      [
        "b",
        "er"
      ],
      [
        "Ġy",
        "et"
      ],
      [
        "Ġt",
        "urn"
      ],
      [
        "Ġe",
        "y"
      ],
      [
        "i",
        "ck"
      ],
      [
        "Ġo",
        "ld"
      ],
      [
        "Ġp",
        "l"
      ],
      [
        "y",
        "ou"
      ],
      [
        "Ġc",
        "a"
      ],
      [
        "c",
        "o"
      ],
      [
        "r",
        "ow"
      ],
      [
        "Ġf",
        "irst"
      ],
      [
        "Ġth",
        "ink"
      ],
      [
        "d",
        "e"
      ],
      [
        "in",
        "t"
      ],
      [
        "Ġcom",
        "p"
      ],
      [
        "Ġe",
        "l"
      ],
      [
        "Ġa",
        "way"
      ],
      [
        "Ġc",
        "all"
      ],
      [
        "Ġa",
        "pp"
      ],
      [
        "rou",
        "gh"
      ],
      [
        "a",
        "ck"
      ],
      [
        "Ġs",
        "c"
      ],
      [
        "Ġu",
        "nder"
      ],
      [
        "Ġre",
        "m"
      ],
      [
        "Ġj",
        "ud"
      ],
      [
        "Ġn",
        "or"
      ],
      [
        "a",
        "v"
      ],
      [
        "Ġth",
        "ing"
      ],
      [
        "Ġcom",
        "m"
      ],
      [
        "1",
        "5"
      ],
      [
        "c",
        "es"
      ],
      [
        "is",
        "s"
      ],
      [
        "i",
        "ed"
      ],
      [
        "Ġth",
        "ings"
      ],
      [
        "Ġne",
        "ver"
      ],
      [
        "t",
        "y"
      ],
      [
        "ar",
        "k"
      ],
      [
        "Ġbe",
        "g"
      ],
      [
        "!",
        "\""
      ],
      [
        "m",
        "an"
      ],
      [
        "Ġg",
        "ive"
      ],
      [
        "Ġb",
        "ro"
      ],
      [
        "Ġg",
        "l"
      ],
      [
        "Ġf",
        "l"
      ],
      [
        "ad",
        "y"
      ],
      [
        "Ġw",
        "at"
      ],
      [
        "1",
        "6"
      ],
      [
        "Ġbe",
        "t"
      ],
      [
        "Ġt",
        "ru"
      ],
      [
        "Ġs",
        "w"
      ],
      [
        "Ġd",
        "es"
      ],
      [
        "Ġhe",
        "art"
      ],
      [
        "ion",
        "s"
      ],
      [
        "Ġt",
        "ake"
      ],
      [
        "Ġre",
        "p"
      ],
      [
        "t",
        "ain"
      ],
      [
        "ou",
        "gh"
      ],
      [
        "o",
        "ther"
      ],
      [
        "Ġhe",
        "ad"
      ],
      [
        "Ġear",
        "th"
      ],
      [
        "1",
        "8"
      ],
      [
        "Ġp",
        "ut"
      ],
      [
        "e",
        "ver"
      ],
      [
        "ea",
        "k"
      ],
      [
        "Ġ",
        "ke"
      ],
      [
        "Ġac",
        "c"
      ],
      [
        "Ġse",
        "em"
      ],
      [
        "u",
        "b"
      ],
      [
        "s",
        "w"
      ],
      [
        "i",
        "ly"
      ],
      [
        "at",
        "ed"
      ],
      [
        "Ġbec",
        "ause"
      ],
      [
        "Ġe",
        "ver"
      ],
      [
        "Ġl",
        "a"
      ],
      [
        "Ġs",
        "to"
      ],
      [
        "Ġthou",
        "ght"
      ],
      [
        "Ġri",
        "ght"
      ],
      [
        "Ġsa",
        "w"
      ],
      [
        "o",
        "ice"
      ],
      [
        "n",
        "o"
      ],
      [
        "er",
        "ing"
      ],
      [
        "Ġ",
        "2"
      ],
      [
        "le",
        "as"
      ],
      [
        "Ġs",
        "ou"
      ],
      [
        "Ġh",
        "as"
      ],
      [
        "Ġsay",
        "ing"
      ],
      [
        "Ġf",
        "ri"
      ],
      [
        "Ġe",
        "m"
      ],
      [
        "Ġhim",
        "self"
      ],
      [
        "s",
        "he"
      ],
      [
        "1",
        "7"
      ],
      [
        "Ġsh",
        "alt"
      ],
      [
        "Ġth",
        "rough"
      ],
      [
        "au",
        "ght"
      ],
      [
        "1",
        "9"
      ],
      [
        "Ġo",
        "b"
      ],
      [
        "Ġher",
        "e"
      ],
      [
        "Ġs",
        "in"
      ],
      [
        "Ġmr",
        "s"
      ],
      [
        "Ġbe",
        "ing"
      ],
      [
        "Ġth",
        "ose"
      ],
      [
        "ig",
        "n"
      ],
      [
        "Ġhe",
        "ard"
      ],
      [
        "Ġp",
        "ri"
      ],
      [
        "or",
        "y"
      ],
      [
        "od",
        "y"
      ],
      [
        "Ġthere",
        "fore"
      ],
      [
        "a",
        "ven"
      ],
      [
        "Ġman",
        "y"
      ],
      [
        "Ġs",
        "et"
      ],
      [
        "l",
        "ess"
      ],
      [
        "Ġcon",
        "t"
      ],
      [
        "v",
        "ant"
      ],
      [
        "Ġd",
        "el"
      ],
      [
        "Ġh",
        "ast"
      ],
      [
        "t",
        "urn"
      ],
      [
        "Ġh",
        "igh"
      ],
      [
        "Ġpla",
        "ce"
      ],
      [
        "i",
        "ah"
      ],
      [
        "Ġto",
        "o"
      ],
      [
        "Ġn",
        "ame"
      ],
      [
        "Ġj",
        "ust"
      ],
      [
        "Ġmo",
        "st"
      ],
      [
        "h",
        "is"
      ],
      [
        "h",
        "er"
      ],
      [
        "Ġthou",
        "gh"
      ],
      [
        "ar",
        "y"
      ],
      [
        "Ġe",
        "nd"
      ],
      [
        "Ġg",
        "i"
      ],
      [
        "g",
        "er"
      ],
      [
        "ation",
        "s"
      ],
      [
        "rou",
        "ght"
      ],
      [
        "Ġhe",
        "ar"
      ],
      [
        "Ġwor",
        "k"
      ],
      [
        "Ġf",
        "ar"
      ],
      [
        "Ġc",
        "ar"
      ],
      [
        "Ġbe",
        "l"
      ],
      [
        "Ġey",
        "es"
      ],
      [
        "Ġw",
        "om"
      ],
      [
        "v",
        "il"
      ],
      [
        "Ġbeh",
        "old"
      ],
      [
        "as",
        "h"
      ],
      [
        "on",
        "s"
      ],
      [
        "Ġh",
        "ar"
      ],
      [
        "Ġhe",
        "aven"
      ],
      [
        "Ġli",
        "fe"
      ],
      [
        "Ġo",
        "p"
      ],
      [
        "b",
        "y"
      ],
      [
        "Ġwith",
        "out"
      ],
      [
        "wh",
        "at"
      ],
      [
        "er",
        "n"
      ],
      [
        "Ġc",
        "l"
      ],
      [
        "ct",
        "ion"
      ],
      [
        "2",
        "0"
      ],
      [
        "Ġfri",
        "end"
      ],
      [
        "m",
        "a"
      ],
      [
        "Ġam",
        "ong"
      ],
      [
        "en",
        "ed"
      ],
      [
        "Ġf",
        "ound"
      ],
      [
        "2",
        "1"
      ],
      [
        "Ġn",
        "ight"
      ],
      [
        "Ġl",
        "ast"
      ],
      [
        "Ġg",
        "r"
      ],
      [
        "w",
        "ell"
      ],
      [
        "Ġwh",
        "om"
      ],
      [
        "f",
        "f"
      ],
      [
        "Ġp",
        "res"
      ],
      [
        "Ġan",
        "sw"
      ],
      [
        "ther",
        "e"
      ],
      [
        "2",
        "2"
      ],
      [
        "Ġse",
        "a"
      ],
      [
        "ea",
        "th"
      ],
      [
        "Ġlo",
        "ve"
      ],
      [
        "Ġ",
        "("
      ],
      [
        "Ġs",
        "l"
      ],
      [
        "Ġno",
        "thing"
      ],
      [
        "g",
        "ed"
      ],
      [
        "Ġp",
        "leas"
      ],
      [
        "at",
        "ter"
      ],
      [
        "os",
        "s"
      ],
      [
        "Ġwor",
        "ld"
      ],
      [
        "the",
        "y"
      ],
      [
        "Ġst",
        "ill"
      ],
      [
        "Ġd",
        "one"
      ],
      [
        "Ġth",
        "us"
      ],
      [
        "re",
        "t"
      ],
      [
        "Ġwh",
        "ale"
      ],
      [
        "Ġcon",
        "s"
      ],
      [
        "le",
        "t"
      ],
      [
        "Ġsp",
        "eak"
      ],
      [
        "n",
        "g"
      ],
      [
        "Ġex",
        "p"
      ],
      [
        "it",
        "s"
      ],
      [
        "Ġsu",
        "re"
      ],
      [
        "Ġ",
        "ent"
      ],
      [
        "Ġt",
        "ell"
      ],
      [
        "Ġh",
        "o"
      ],
      [
        "Ġha",
        "pp"
      ],
      [
        "Ġfa",
        "ce"
      ],
      [
        "u",
        "nd"
      ],
      [
        "Ġit",
        "s"
      ],
      [
        "c",
        "ed"
      ],
      [
        "Ġim",
        "p"
      ],
      [
        "Ġch",
        "ar"
      ],
      [
        "c",
        "y"
      ],
      [
        "Ġsa",
        "me"
      ],
      [
        "Ġb",
        "ack"
      ],
      [
        "Ġsa",
        "ith"
      ],
      [
        "w",
        "as"
      ],
      [
        "Ġv",
        "oice"
      ],
      [
        "Ġday",
        "s"
      ],
      [
        "Ġ",
        "ru"
      ],
      [
        "m",
        "y"
      ],
      [
        "Ġw",
        "r"
      ],
      [
        "Ġto",
        "ok"
      ],
      [
        "i",
        "x"
      ],
      [
        "Ġat",
        "t"
      ],
      [
        "o",
        "h"
      ],
      [
        "Ġmo",
        "ther"
      ],
      [
        "2",
        "3"
      ],
      [
        "or",
        "s"
      ],
      [
        "c",
        "om"
      ],
      [
        "ul",
        "t"
      ],
      [
        "e",
        "w"
      ],
      [
        "Ġl",
        "ea"
      ],
      [
        "as",
        "e"
      ],
      [
        "sel",
        "ves"
      ],
      [
        "Ġb",
        "rought"
      ],
      [
        "f",
        "a"
      ],
      [
        "ll",
        "ow"
      ],
      [
        "Ġs",
        "il"
      ],
      [
        "Ġca",
        "pt"
      ],
      [
        "Ġ",
        "'"
      ],
      [
        "er",
        "tain"
      ],
      [
        "Ġm",
        "iss"
      ],
      [
        "Ġson",
        "s"
      ],
      [
        "n",
        "ow"
      ],
      [
        "Ġsp",
        "ir"
      ],
      [
        "en",
        "s"
      ],
      [
        "m",
        "ost"
      ],
      [
        "Ġfor",
        "th"
      ],
      [
        "Ġan",
        "other"
      ],
      [
        "Ġyou",
        "ng"
      ],
      [
        "Ġb",
        "u"
      ],
      [
        "l",
        "f"
      ],
      [
        "Ġp",
        "h"
      ],
      [
        "wh",
        "ich"
      ],
      [
        "av",
        "id"
      ],
      [
        "way",
        "s"
      ],
      [
        "u",
        "p"
      ],
      [
        "Ġth",
        "ree"
      ],
      [
        "ge",
        "ther"
      ],
      [
        "Ġbr",
        "ing"
      ],
      [
        "Ġs",
        "ide"
      ],
      [
        "Ġso",
        "on"
      ],
      [
        "Ġ",
        "round"
      ],
      [
        "Ġme",
        "an"
      ],
      [
        "2",
        "4"
      ],
      [
        "Ġs",
        "at"
      ],
      [
        "is",
        "ter"
      ],
      [
        "ie",
        "ld"
      ],
      [
        "Ġw",
        "a"
      ],
      [
        "ow",
        "er"
      ],
      [
        "Ġhand",
        "s"
      ],
      [
        "Ġc",
        "ried"
      ],
      [
        "Ġas",
        "k"
      ],
      [
        "i",
        "ble"
      ],
      [
        "Ġs",
        "ent"
      ],
      [
        "Ġw",
        "alk"
      ],
      [
        "Ġpri",
        "est"
      ],
      [
        "i",
        "ver"
      ],
      [
        "Ġst",
        "and"
      ],
      [
        "Ġre",
        "st"
      ],
      [
        "Ġli",
        "ght"
      ],
      [
        "Ġser",
        "vant"
      ],
      [
        "Ġcall",
        "ed"
      ],
      [
        "m",
        "ed"
      ],
      [
        "Ġe",
        "at"
      ],
      [
        "Ġre",
        "turn"
      ],
      [
        "Ġd",
        "avid"
      ],
      [
        "Ġj",
        "es"
      ],
      [
        "it",
        "es"
      ],
      [
        "s",
        "s"
      ],
      [
        "f",
        "er"
      ],
      [
        "i",
        "v"
      ],
      [
        "Ġwh",
        "ile"
      ],
      [
        "n",
        "er"
      ],
      [
        "Ġcomm",
        "and"
      ],
      [
        "l",
        "ing"
      ],
      [
        "ish",
        "ed"
      ],
      [
        "s",
        "er"
      ],
      [
        "Ġin",
        "c"
      ],
      [
        "l",
        "and"
      ],
      [
        "Ġword",
        "s"
      ],
      [
        "Ġne",
        "w"
      ],
      [
        "Ġg",
        "ra"
      ],
      [
        "Ġt",
        "re"
      ],
      [
        ".",
        "--"
      ],
      [
        "fe",
        "ct"
      ],
      [
        "Ġsou",
        "l"
      ],
      [
        "s",
        "a"
      ],
      [
        "Ġseem",
        "ed"
      ],
      [
        "Ġne",
        "ither"
      ],
      [
        "c",
        "i"
      ],
      [
        "Ġc",
        "ity"
      ],
      [
        "g",
        "y"
      ],
      [
        "Ġbel",
        "ie"
      ],
      [
        "2",
        "5"
      ],
      [
        "at",
        "t"
      ],
      [
        "et",
        "s"
      ],
      [
        "Ġw",
        "ar"
      ],
      [
        "Ġbo",
        "th"
      ],
      [
        "z",
        "e"
      ],
      [
        "b",
        "o"
      ],
      [
        "Ġye",
        "ars"
      ],
      [
        "Ġs",
        "ir"
      ],
      [
        "Ġsu",
        "b"
      ],
      [
        "Ġth",
        "ine"
      ],
      [
        "Ġqu",
        "ite"
      ],
      [
        "Ġh",
        "op"
      ],
      [
        "m",
        "er"
      ],
      [
        "Ġin",
        "st"
      ],
      [
        "Ġle",
        "ft"
      ],
      [
        "2",
        "6"
      ],
      [
        "m",
        "en"
      ],
      [
        "Ġm",
        "ine"
      ],
      [
        "en",
        "er"
      ],
      [
        "st",
        "and"
      ],
      [
        "ak",
        "en"
      ],
      [
        "Ġm",
        "id"
      ],
      [
        "Ġd",
        "eath"
      ],
      [
        "Ġst",
        "r"
      ],
      [
        "n",
        "ing"
      ],
      [
        "Ġ",
        "3"
      ],
      [
        "th",
        "is"
      ],
      [
        "Ġj",
        "er"
      ],
      [
        "Ġw",
        "o"
      ],
      [
        "d",
        "en"
      ],
      [
        "e",
        "ar"
      ],
      [
        "Ġw",
        "ant"
      ],
      [
        "h",
        "ab"
      ],
      [
        "os",
        "es"
      ],
      [
        "Ġw",
        "ind"
      ],
      [
        "r",
        "on"
      ],
      [
        "in",
        "ess"
      ],
      [
        "Ġjes",
        "us"
      ],
      [
        "it",
        "ies"
      ],
      [
        "Ġin",
        "ter"
      ],
      [
        "Ġher",
        "self"
      ],
      [
        "Ġfe",
        "el"
      ],
      [
        "Ġlook",
        "ed"
      ],
      [
        "Ġke",
        "ep"
      ],
      [
        "j",
        "ect"
      ],
      [
        "Ġse",
        "en"
      ],
      [
        "el",
        "t"
      ],
      [
        "Ġsu",
        "pp"
      ],
      [
        "Ġal",
        "ways"
      ],
      [
        "e",
        "x"
      ],
      [
        "is",
        "ed"
      ],
      [
        "ord",
        "ing"
      ],
      [
        "Ġar",
        "t"
      ],
      [
        "Ġp",
        "ers"
      ],
      [
        "Ġwom",
        "an"
      ],
      [
        "p",
        "e"
      ],
      [
        "f",
        "rom"
      ],
      [
        "h",
        "ow"
      ],
      [
        "lo",
        "od"
      ],
      [
        "in",
        "ed"
      ],
      [
        "Ġla",
        "w"
      ],
      [
        "Ġas",
        "s"
      ],
      [
        "Ġf",
        "am"
      ],
      [
        "om",
        "ent"
      ],
      [
        "orn",
        "ing"
      ],
      [
        "ck",
        "ed"
      ],
      [
        "t",
        "ed"
      ],
      [
        "Ġsh",
        "ip"
      ],
      [
        "Ġs",
        "y"
      ],
      [
        "Ġha",
        "lf"
      ],
      [
        "Ġt",
        "ill"
      ],
      [
        "Ġd",
        "re"
      ],
      [
        "h",
        "im"
      ],
      [
        "Ġc",
        "ount"
      ],
      [
        "Ġf",
        "ind"
      ],
      [
        "an",
        "g"
      ],
      [
        "Ġf",
        "ire"
      ],
      [
        "Ġto",
        "gether"
      ],
      [
        "Ġst",
        "e"
      ],
      [
        "Ġwho",
        "le"
      ],
      [
        "Ġt",
        "ri"
      ],
      [
        "Ġf",
        "ell"
      ],
      [
        "Ġf",
        "ull"
      ],
      [
        "Ġk",
        "ind"
      ],
      [
        "2",
        "7"
      ],
      [
        "Ġs",
        "le"
      ],
      [
        "ment",
        "s"
      ],
      [
        "Ġg",
        "ave"
      ],
      [
        "c",
        "on"
      ],
      [
        "i",
        "a"
      ],
      [
        "Ġcapt",
        "ain"
      ],
      [
        "sh",
        "all"
      ],
      [
        "Ġm",
        "ind"
      ],
      [
        "Ġg",
        "u"
      ],
      [
        "ch",
        "ed"
      ],
      [
        "Ġin",
        "d"
      ],
      [
        "Ġwh",
        "y"
      ],
      [
        "Ġsu",
        "n"
      ],
      [
        "am",
        "p"
      ],
      [
        "wh",
        "en"
      ],
      [
        "Ġsto",
        "od"
      ],
      [
        "Ġm",
        "on"
      ],
      [
        "ĠĠĠĠ",
        "ĠĠĠĠ"
      ],
      [
        "at",
        "es"
      ],
      [
        "Ġp",
        "ur"
      ],
      [
        "und",
        "red"
      ],
      [
        "Ġc",
        "ertain"
      ],
      [
        "Ġto",
        "ward"
      ],
      [
        "Ġon",
        "ce"
      ],
      [
        "Ġm",
        "oment"
      ],
      [
        "Ġc",
        "re"
      ],
      [
        "ce",
        "pt"
      ],
      [
        "Ġw",
        "ood"
      ],
      [
        "Ġd",
        "r"
      ],
      [
        "Ġg",
        "et"
      ],
      [
        "in",
        "s"
      ],
      [
        "Ġc",
        "le"
      ],
      [
        "ale",
        "m"
      ],
      [
        "Ġbet",
        "ter"
      ],
      [
        "p",
        "o"
      ],
      [
        "us",
        "alem"
      ],
      [
        "Ġg",
        "ent"
      ],
      [
        "Ġm",
        "oses"
      ],
      [
        "im",
        "es"
      ],
      [
        "Ġbro",
        "ther"
      ],
      [
        "ri",
        "ght"
      ],
      [
        "Ġm",
        "orning"
      ],
      [
        "Ġc",
        "lo"
      ],
      [
        "as",
        "on"
      ],
      [
        "ak",
        "ing"
      ],
      [
        "Ġf",
        "all"
      ],
      [
        "Ġm",
        "er"
      ],
      [
        "2",
        "8"
      ],
      [
        "Ġm",
        "ount"
      ],
      [
        "Ġre",
        "s"
      ],
      [
        "us",
        "h"
      ],
      [
        "Ġd",
        "aught"
      ],
      [
        "Ġde",
        "c"
      ],
      [
        "Ġgo",
        "ld"
      ],
      [
        "d",
        "om"
      ],
      [
        "Ġs",
        "we"
      ],
      [
        "Ġd",
        "ist"
      ],
      [
        "t",
        "en"
      ],
      [
        "Ġd",
        "on"
      ],
      [
        "Ġt",
        "alk"
      ],
      [
        "e",
        "e"
      ],
      [
        "Ġne",
        "ar"
      ],
      [
        "g",
        "th"
      ],
      [
        "Ġthere",
        "of"
      ],
      [
        "Ġsome",
        "thing"
      ],
      [
        "Ġspir",
        "it"
      ],
      [
        "Ġb",
        "urn"
      ],
      [
        "ou",
        "th"
      ],
      [
        "Ġe",
        "vil"
      ],
      [
        "s",
        "and"
      ],
      [
        "Ġin",
        "de"
      ],
      [
        "we",
        "en"
      ],
      [
        "Ġcon",
        "f"
      ],
      [
        "Ġh",
        "ard"
      ],
      [
        "Ġgi",
        "ven"
      ],
      [
        "k",
        "s"
      ],
      [
        "Ġg",
        "a"
      ],
      [
        "Ġpo",
        "or"
      ],
      [
        "Ġwat",
        "er"
      ],
      [
        "Ġwh",
        "e"
      ],
      [
        "t",
        "on"
      ],
      [
        "Ġn",
        "at"
      ],
      [
        "gy",
        "pt"
      ],
      [
        "the",
        "m"
      ],
      [
        "Ġd",
        "ra"
      ],
      [
        "Ġm",
        "a"
      ],
      [
        "ou",
        "d"
      ],
      [
        "m",
        "r"
      ],
      [
        "Ġthou",
        "sand"
      ],
      [
        "d",
        "o"
      ],
      [
        "m",
        "s"
      ],
      [
        "ce",
        "i"
      ],
      [
        "Ġpres",
        "ent"
      ],
      [
        "Ġf",
        "our"
      ],
      [
        "r",
        "ist"
      ],
      [
        "Ġde",
        "p"
      ],
      [
        "Ġ",
        "ed"
      ],
      [
        "Ġst",
        "ran"
      ],
      [
        "Ġacc",
        "ording"
      ],
      [
        "Ġp",
        "a"
      ],
      [
        "Ġan",
        "g"
      ],
      [
        "Ġfe",
        "ar"
      ],
      [
        "u",
        "al"
      ],
      [
        "Ġde",
        "ad"
      ],
      [
        "e",
        "ous"
      ],
      [
        "Ġjud",
        "ah"
      ],
      [
        "p",
        "le"
      ],
      [
        "!",
        "--"
      ],
      [
        "Ġp",
        "oss"
      ],
      [
        "Ġ",
        "z"
      ],
      [
        "Ġc",
        "our"
      ],
      [
        "Ġpr",
        "ay"
      ],
      [
        "Ġh",
        "undred"
      ],
      [
        "ir",
        "d"
      ],
      [
        "Ġcan",
        "not"
      ],
      [
        "ap",
        "s"
      ],
      [
        "Ġinde",
        "ed"
      ],
      [
        "o",
        "ke"
      ],
      [
        "ie",
        "f"
      ],
      [
        "Ġansw",
        "ered"
      ],
      [
        "u",
        "ck"
      ],
      [
        "Ġen",
        "ough"
      ],
      [
        "Ġin",
        "t"
      ],
      [
        "c",
        "c"
      ],
      [
        "th",
        "y"
      ],
      [
        "Ġt",
        "em"
      ],
      [
        "Ġh",
        "or"
      ],
      [
        "Ġd",
        "ark"
      ],
      [
        "Ġb",
        "ody"
      ],
      [
        "h",
        "ad"
      ],
      [
        "Ġfo",
        "llow"
      ],
      [
        "Ġto",
        "ld"
      ],
      [
        "Ġh",
        "on"
      ],
      [
        "Ġstr",
        "ong"
      ],
      [
        "t",
        "ing"
      ],
      [
        "Ġs",
        "ight"
      ],
      [
        "Ġe",
        "ach"
      ],
      [
        "ro",
        "ss"
      ],
      [
        "Ġmy",
        "self"
      ],
      [
        "Ġwi",
        "fe"
      ],
      [
        "it",
        "ud"
      ],
      [
        "Ġgo",
        "ing"
      ],
      [
        "Ġg",
        "ener"
      ],
      [
        "Ġen",
        "g"
      ],
      [
        "v",
        "ent"
      ],
      [
        "d",
        "ay"
      ],
      [
        "Ġs",
        "ister"
      ],
      [
        "Ġc",
        "ast"
      ],
      [
        "Ġh",
        "old"
      ],
      [
        "Ġdo",
        "or"
      ],
      [
        "pp",
        "ed"
      ],
      [
        "Ġkn",
        "ew"
      ],
      [
        "ow",
        "s"
      ],
      [
        "Ġra",
        "ther"
      ],
      [
        "Ġwh",
        "ite"
      ],
      [
        "ea",
        "ce"
      ],
      [
        "Ġwho",
        "se"
      ],
      [
        "Ġbeg",
        "an"
      ],
      [
        "i",
        "er"
      ],
      [
        "2",
        "9"
      ],
      [
        "w",
        "ill"
      ],
      [
        "Ġv",
        "is"
      ],
      [
        "i",
        "red"
      ],
      [
        "Ġjer",
        "usalem"
      ],
      [
        "Ġm",
        "in"
      ],
      [
        "wh",
        "ere"
      ],
      [
        "Ġb",
        "en"
      ],
      [
        "Ġde",
        "ar"
      ],
      [
        "o",
        "ve"
      ],
      [
        "Ġb",
        "lood"
      ],
      [
        "Ġe",
        "gypt"
      ],
      [
        "il",
        "ed"
      ],
      [
        "Ġl",
        "ady"
      ],
      [
        "Ġcon",
        "c"
      ],
      [
        "i",
        "al"
      ],
      [
        "l",
        "ord"
      ],
      [
        "Ġd",
        "est"
      ],
      [
        "Ġbet",
        "ween"
      ],
      [
        "Ġs",
        "ing"
      ],
      [
        "in",
        "or"
      ],
      [
        "Ġm",
        "ac"
      ],
      [
        "Ġhe",
        "l"
      ],
      [
        "u",
        "res"
      ],
      [
        "en",
        "se"
      ],
      [
        "Ġfor",
        "g"
      ],
      [
        "Ġoff",
        "ering"
      ],
      [
        "Ġh",
        "ome"
      ],
      [
        "Ġi",
        "d"
      ],
      [
        "Ġop",
        "en"
      ],
      [
        "s",
        "u"
      ],
      [
        "Ġc",
        "ol"
      ],
      [
        "ir",
        "c"
      ],
      [
        "i",
        "b"
      ],
      [
        "Ġsw",
        "ord"
      ],
      [
        "a",
        "pp"
      ],
      [
        "ul",
        "ar"
      ],
      [
        "i",
        "z"
      ],
      [
        "'",
        "ll"
      ],
      [
        "w",
        "or"
      ],
      [
        "ut",
        "e"
      ],
      [
        "o",
        "b"
      ],
      [
        "Ġcont",
        "in"
      ],
      [
        "Ġd",
        "ou"
      ],
      [
        "Ġch",
        "rist"
      ],
      [
        "h",
        "ave"
      ],
      [
        "Ġli",
        "ve"
      ],
      [
        "la",
        "ck"
      ],
      [
        "for",
        "t"
      ],
      [
        "Ġturn",
        "ed"
      ],
      [
        "Ġg",
        "one"
      ],
      [
        "3",
        "0"
      ],
      [
        "Ġs",
        "ur"
      ],
      [
        "Ġal",
        "most"
      ],
      [
        "wh",
        "o"
      ],
      [
        "a",
        "z"
      ],
      [
        "Ġ",
        "es"
      ],
      [
        "h",
        "ouse"
      ],
      [
        "Ġhop",
        "e"
      ],
      [
        "p",
        "l"
      ],
      [
        "Ġse",
        "ven"
      ],
      [
        "Ġthem",
        "selves"
      ],
      [
        "in",
        "es"
      ],
      [
        "ri",
        "et"
      ],
      [
        "an",
        "e"
      ],
      [
        "ent",
        "ly"
      ],
      [
        "Ġbe",
        "ar"
      ],
      [
        "ver",
        "s"
      ],
      [
        "ate",
        "ly"
      ],
      [
        "Ġsm",
        "all"
      ],
      [
        "Ġb",
        "est"
      ],
      [
        "ain",
        "s"
      ],
      [
        "Ġho",
        "ly"
      ],
      [
        "c",
        "ome"
      ],
      [
        "Ġfe",
        "w"
      ],
      [
        "Ġw",
        "est"
      ],
      [
        "Ġp",
        "ra"
      ],
      [
        "Ġj",
        "e"
      ],
      [
        "Ġp",
        "eace"
      ],
      [
        "Ġbelie",
        "ve"
      ],
      [
        "th",
        "ou"
      ],
      [
        "Ġro",
        "om"
      ],
      [
        "Ġm",
        "outh"
      ],
      [
        "Ġha",
        "ving"
      ],
      [
        "3",
        "1"
      ],
      [
        "Ġem",
        "ma"
      ],
      [
        "ch",
        "es"
      ],
      [
        "the",
        "ir"
      ],
      [
        "Ġbo",
        "y"
      ],
      [
        "li",
        "ed"
      ],
      [
        "an",
        "y"
      ],
      [
        "Ġh",
        "um"
      ],
      [
        "Ġha",
        "m"
      ],
      [
        "Ġfa",
        "ir"
      ],
      [
        "Ġf",
        "ore"
      ],
      [
        "Ġh",
        "our"
      ],
      [
        "Ġsp",
        "ake"
      ],
      [
        "c",
        "ri"
      ],
      [
        "or",
        "row"
      ],
      [
        "Ġse",
        "c"
      ],
      [
        "Ġp",
        "ower"
      ],
      [
        "h",
        "aps"
      ],
      [
        "ian",
        "ne"
      ],
      [
        "itud",
        "e"
      ],
      [
        "b",
        "ody"
      ],
      [
        "k",
        "en"
      ],
      [
        "Ġa",
        "ir"
      ],
      [
        "Ġb",
        "ar"
      ],
      [
        "Ġwi",
        "ld"
      ],
      [
        "Ġc",
        "ut"
      ],
      [
        "Ġs",
        "k"
      ],
      [
        "it",
        "ion"
      ],
      [
        "Ġrem",
        "em"
      ],
      [
        "u",
        "ri"
      ],
      [
        "an",
        "s"
      ],
      [
        "as",
        "ter"
      ],
      [
        "Ġre",
        "ally"
      ],
      [
        "--",
        "\""
      ],
      [
        "Ġbl",
        "ess"
      ],
      [
        "th",
        "en"
      ],
      [
        "ro",
        "y"
      ],
      [
        "o",
        "nd"
      ],
      [
        "Ġc",
        "r"
      ],
      [
        "p",
        "s"
      ],
      [
        "Ġpro",
        "ph"
      ],
      [
        "Ġdel",
        "iver"
      ],
      [
        "e",
        "en"
      ],
      [
        "os",
        "ed"
      ],
      [
        "Ġs",
        "ort"
      ],
      [
        "Ġd",
        "if"
      ],
      [
        "Ġw",
        "ish"
      ],
      [
        "Ġpr",
        "in"
      ],
      [
        "Ġn",
        "one"
      ],
      [
        "Ġunder",
        "stand"
      ],
      [
        "Ġt",
        "en"
      ],
      [
        "p",
        "r"
      ],
      [
        "Ġt",
        "ra"
      ],
      [
        "Ġdo",
        "es"
      ],
      [
        "li",
        "ke"
      ],
      [
        "cei",
        "ved"
      ],
      [
        "Ġre",
        "g"
      ],
      [
        "o",
        "ver"
      ],
      [
        "o",
        "y"
      ],
      [
        "Ġc",
        "ur"
      ],
      [
        "m",
        "on"
      ],
      [
        "d",
        "er"
      ],
      [
        "Ġst",
        "re"
      ],
      [
        "Ġso",
        "l"
      ],
      [
        "Ġye",
        "ar"
      ],
      [
        "f",
        "ull"
      ],
      [
        "n",
        "or"
      ],
      [
        "am",
        "b"
      ],
      [
        "Ġt",
        "aken"
      ],
      [
        "h",
        "am"
      ],
      [
        "it",
        "ed"
      ],
      [
        "Ġl",
        "ess"
      ],
      [
        "ant",
        "s"
      ],
      [
        "a",
        "f"
      ],
      [
        "o",
        "int"
      ],
      [
        "b",
        "ull"
      ],
      [
        "Ġt",
        "e"
      ],
      [
        "3",
        "2"
      ],
      [
        "x",
        "t"
      ],
      [
        "Ġgent",
        "le"
      ],
      [
        "th",
        "ren"
      ],
      [
        "Ġhow",
        "ever"
      ],
      [
        "a",
        "il"
      ],
      [
        "co",
        "nd"
      ],
      [
        "Ġfe",
        "et"
      ],
      [
        "sh",
        "ip"
      ],
      [
        "u",
        "red"
      ],
      [
        "re",
        "ad"
      ],
      [
        "Ġf",
        "ield"
      ],
      [
        "Ġd",
        "well"
      ],
      [
        "Ġask",
        "ed"
      ],
      [
        "Ġdou",
        "b"
      ],
      [
        "Ġl",
        "ay"
      ],
      [
        "ow",
        "ed"
      ],
      [
        "Ġkn",
        "own"
      ],
      [
        "Ġh",
        "ost"
      ],
      [
        "Ġp",
        "ar"
      ],
      [
        "Ġjo",
        "y"
      ],
      [
        "Ġel",
        "se"
      ],
      [
        "s",
        "ome"
      ],
      [
        "at",
        "ing"
      ],
      [
        "Ġd",
        "an"
      ],
      [
        "Ġex",
        "c"
      ],
      [
        "b",
        "b"
      ],
      [
        "Ġb",
        "es"
      ],
      [
        "at",
        "s"
      ],
      [
        "m",
        "b"
      ],
      [
        "Ġ",
        "4"
      ],
      [
        "sp",
        "ect"
      ],
      [
        "re",
        "g"
      ],
      [
        "Ġb",
        "lack"
      ],
      [
        "Ġf",
        "elt"
      ],
      [
        "ent",
        "s"
      ],
      [
        "a",
        "red"
      ],
      [
        "p",
        "ro"
      ],
      [
        "ill",
        "ed"
      ],
      [
        "one",
        "y"
      ],
      [
        "el",
        "s"
      ],
      [
        "Ġcons",
        "id"
      ],
      [
        "Ġhel",
        "p"
      ],
      [
        "i",
        "ot"
      ],
      [
        "Ġjud",
        "g"
      ],
      [
        "3",
        "3"
      ],
      [
        "Ġm",
        "atter"
      ],
      [
        "ent",
        "y"
      ],
      [
        "Ġdis",
        "c"
      ],
      [
        "Ġt",
        "er"
      ],
      [
        "Ġre",
        "f"
      ],
      [
        "Ġun",
        "t"
      ],
      [
        "Ġad",
        "d"
      ],
      [
        "Ġsu",
        "ff"
      ],
      [
        "Ġga",
        "ther"
      ],
      [
        "Ġa",
        "hab"
      ],
      [
        "att",
        "le"
      ],
      [
        "n",
        "ed"
      ],
      [
        "y",
        "es"
      ],
      [
        ",",
        "'"
      ],
      [
        "Ġoff",
        "er"
      ],
      [
        "t",
        "s"
      ],
      [
        "Ġa",
        "ct"
      ],
      [
        "Ġre",
        "ason"
      ],
      [
        "Ġfather",
        "s"
      ],
      [
        "on",
        "es"
      ],
      [
        "ck",
        "s"
      ],
      [
        "les",
        "h"
      ],
      [
        "Ġey",
        "e"
      ],
      [
        "le",
        "y"
      ],
      [
        "ch",
        "ing"
      ],
      [
        "ce",
        "ed"
      ],
      [
        "un",
        "to"
      ],
      [
        "l",
        "s"
      ],
      [
        "Ġ",
        "1"
      ],
      [
        "Ġwith",
        "in"
      ],
      [
        "a",
        "ut"
      ],
      [
        "Ġr",
        "an"
      ],
      [
        "Ġhapp",
        "y"
      ],
      [
        "as",
        "k"
      ],
      [
        "d",
        "den"
      ],
      [
        "Ġp",
        "rom"
      ],
      [
        "Ġfa",
        "ith"
      ],
      [
        "a",
        "ir"
      ],
      [
        "Ġc",
        "ause"
      ],
      [
        "Ġwi",
        "cked"
      ],
      [
        "ot",
        "e"
      ],
      [
        "et",
        "er"
      ],
      [
        "Ġf",
        "ish"
      ],
      [
        "Ġpro",
        "f"
      ],
      [
        "Ġf",
        "ive"
      ],
      [
        "Ġl",
        "ar"
      ],
      [
        "Ġsu",
        "dden"
      ],
      [
        "Ġne",
        "xt"
      ],
      [
        "Ġdaught",
        "er"
      ],
      [
        "th",
        "es"
      ],
      [
        "Ġg",
        "round"
      ],
      [
        "Ġbre",
        "thren"
      ],
      [
        "r",
        "ing"
      ],
      [
        "v",
        "i"
      ],
      [
        "ce",
        "ive"
      ],
      [
        "ra",
        "id"
      ],
      [
        "Ġpo",
        "int"
      ],
      [
        "Ġme",
        "et"
      ],
      [
        "Ġshe",
        "w"
      ],
      [
        "Ġs",
        "it"
      ],
      [
        "Ġw",
        "all"
      ],
      [
        "Ġc",
        "irc"
      ],
      [
        "y",
        "e"
      ],
      [
        "al",
        "s"
      ],
      [
        "Ġun",
        "c"
      ],
      [
        "au",
        "gh"
      ],
      [
        "art",
        "ed"
      ],
      [
        "Ġar",
        "m"
      ],
      [
        "Ġru",
        "n"
      ],
      [
        "v",
        "our"
      ],
      [
        "w",
        "ere"
      ],
      [
        "Ġm",
        "us"
      ],
      [
        "Ġdr",
        "ink"
      ],
      [
        "he",
        "ad"
      ],
      [
        "Ġp",
        "ol"
      ],
      [
        "un",
        "g"
      ],
      [
        "Ġmar",
        "ianne"
      ],
      [
        "Ġc",
        "are"
      ],
      [
        "Ġservant",
        "s"
      ],
      [
        "Ġre",
        "d"
      ],
      [
        "ur",
        "y"
      ],
      [
        "Ġre",
        "ad"
      ],
      [
        "u",
        "nder"
      ],
      [
        "Ġn",
        "um"
      ],
      [
        "Ġpl",
        "ay"
      ],
      [
        "Ġwhe",
        "ther"
      ],
      [
        "Ġdest",
        "roy"
      ],
      [
        "y",
        "our"
      ],
      [
        "Ġs",
        "ix"
      ],
      [
        "ea",
        "red"
      ],
      [
        "Ġab",
        "ove"
      ],
      [
        "Ġbre",
        "ad"
      ],
      [
        "Ġe",
        "le"
      ],
      [
        "Ġen",
        "em"
      ],
      [
        "Ġsle",
        "ep"
      ],
      [
        "Ġch",
        "ur"
      ],
      [
        "Ġne",
        "ed"
      ],
      [
        "Ġtru",
        "th"
      ],
      [
        "e",
        "c"
      ],
      [
        "Ġs",
        "ound"
      ],
      [
        "Ġper",
        "fect"
      ],
      [
        "Ġst",
        "ri"
      ],
      [
        "Ġg",
        "ot"
      ],
      [
        "Ġg",
        "ard"
      ],
      [
        "Ġel",
        "inor"
      ],
      [
        "3",
        "4"
      ],
      [
        "Ġjo",
        "h"
      ],
      [
        "Ġmon",
        "th"
      ],
      [
        "ain",
        "t"
      ],
      [
        "Ġright",
        "eous"
      ],
      [
        "ab",
        "ly"
      ],
      [
        "Ġle",
        "ast"
      ],
      [
        "Ġbe",
        "aut"
      ],
      [
        "itt",
        "en"
      ],
      [
        "ag",
        "es"
      ],
      [
        "ct",
        "ly"
      ],
      [
        "Ġgl",
        "ory"
      ],
      [
        "i",
        "et"
      ],
      [
        "Ġb",
        "ra"
      ],
      [
        "Ġf",
        "lesh"
      ],
      [
        "Ġse",
        "cond"
      ],
      [
        "ic",
        "al"
      ],
      [
        "u",
        "ed"
      ],
      [
        "ain",
        "ed"
      ],
      [
        "Ġlea",
        "ve"
      ],
      [
        "Ġin",
        "v"
      ],
      [
        "ren",
        "gth"
      ],
      [
        "u",
        "ght"
      ],
      [
        "Ġbr",
        "own"
      ],
      [
        "k",
        "ing"
      ],
      [
        "y",
        "ing"
      ],
      [
        "Ġwo",
        "nder"
      ],
      [
        "Ġtru",
        "e"
      ],
      [
        "g",
        "g"
      ],
      [
        "h",
        "o"
      ],
      [
        "er",
        "y"
      ],
      [
        "Ġper",
        "haps"
      ],
      [
        "Ġb",
        "ed"
      ],
      [
        "Ġc",
        "ities"
      ],
      [
        "Ġpers",
        "on"
      ],
      [
        "re",
        "at"
      ],
      [
        "Ġman",
        "ner"
      ],
      [
        "led",
        "ge"
      ],
      [
        "ot",
        "t"
      ],
      [
        "Ġpass",
        "ed"
      ],
      [
        "Ġse",
        "nd"
      ],
      [
        "'",
        "m"
      ],
      [
        "Ġeven",
        "ing"
      ],
      [
        "Ġf",
        "in"
      ],
      [
        "Ġd",
        "ie"
      ],
      [
        "id",
        "es"
      ],
      [
        "Ġch",
        "an"
      ],
      [
        "Ġm",
        "ad"
      ],
      [
        "us",
        "ed"
      ],
      [
        "Ġ",
        "_"
      ],
      [
        "ent",
        "ion"
      ],
      [
        "Ġlet",
        "ter"
      ],
      [
        "Ġf",
        "ran"
      ],
      [
        "Ġin",
        "f"
      ],
      [
        "Ġsin",
        "ce"
      ],
      [
        "Ġunt",
        "il"
      ],
      [
        "Ġjoh",
        "n"
      ],
      [
        "Ġb",
        "us"
      ],
      [
        "Ġf",
        "ru"
      ],
      [
        "Ġbo",
        "ok"
      ],
      [
        "Ġal",
        "one"
      ],
      [
        "ne",
        "y"
      ],
      [
        "c",
        "ess"
      ],
      [
        "at",
        "i"
      ],
      [
        "Ġex",
        "t"
      ],
      [
        "Ġother",
        "s"
      ],
      [
        "Ġansw",
        "er"
      ],
      [
        "Ġt",
        "ou"
      ],
      [
        "Ġl",
        "augh"
      ],
      [
        "Ġsh",
        "o"
      ],
      [
        "Ġrep",
        "lied"
      ],
      [
        "t",
        "ar"
      ],
      [
        "Ġsh",
        "ort"
      ],
      [
        "Ġlook",
        "ing"
      ],
      [
        "Ġfam",
        "ily"
      ],
      [
        "u",
        "se"
      ],
      [
        "Ġs",
        "ign"
      ],
      [
        "Ġcom",
        "ing"
      ],
      [
        "Ġad",
        "m"
      ],
      [
        "Ġde",
        "ep"
      ],
      [
        "ak",
        "es"
      ],
      [
        "Ġph",
        "il"
      ],
      [
        "Ġf",
        "lo"
      ],
      [
        "Ġd",
        "iv"
      ],
      [
        "Ġfriend",
        "s"
      ],
      [
        "Ġc",
        "al"
      ],
      [
        "sa",
        "id"
      ],
      [
        "p",
        "ar"
      ],
      [
        "Ġst",
        "ra"
      ],
      [
        "Ġaf",
        "raid"
      ],
      [
        "Ġo",
        "cc"
      ],
      [
        "Ġswe",
        "et"
      ],
      [
        "ard",
        "s"
      ],
      [
        "g",
        "o"
      ],
      [
        "Ġs",
        "im"
      ],
      [
        "ll",
        "y"
      ],
      [
        "ress",
        "ed"
      ],
      [
        "full",
        "y"
      ],
      [
        "c",
        "ious"
      ],
      [
        "Ġh",
        "ur"
      ],
      [
        "Ġv",
        "i"
      ],
      [
        "Ġchur",
        "ch"
      ],
      [
        "Ġb",
        "ab"
      ],
      [
        "Ġwa",
        "it"
      ],
      [
        "f",
        "ic"
      ],
      [
        "ap",
        "e"
      ],
      [
        "Ġo",
        "pp"
      ],
      [
        "ar",
        "a"
      ],
      [
        "ac",
        "le"
      ],
      [
        "m",
        "ar"
      ],
      [
        "Ġt",
        "rou"
      ],
      [
        "Ġan",
        "ne"
      ],
      [
        "if",
        "ied"
      ],
      [
        "Ġbeh",
        "ind"
      ],
      [
        "Ġwest",
        "on"
      ],
      [
        "Ġf",
        "an"
      ],
      [
        "Ġe",
        "qu"
      ],
      [
        "ag",
        "ain"
      ],
      [
        "Ġst",
        "rength"
      ],
      [
        "Ġdoub",
        "t"
      ],
      [
        "Ġl",
        "ow"
      ],
      [
        "Ġal",
        "ong"
      ],
      [
        "Ġgl",
        "ad"
      ],
      [
        "l",
        "ig"
      ],
      [
        "Ġsa",
        "il"
      ],
      [
        "Ġu",
        "t"
      ],
      [
        "al",
        "es"
      ],
      [
        "Ġbe",
        "ast"
      ],
      [
        "ct",
        "ed"
      ],
      [
        "Ġbeg",
        "in"
      ],
      [
        "Ġcommand",
        "ed"
      ],
      [
        "c",
        "ing"
      ],
      [
        "u",
        "ally"
      ],
      [
        "Ġt",
        "imes"
      ],
      [
        "Ġh",
        "ill"
      ],
      [
        "id",
        "ed"
      ],
      [
        "3",
        "6"
      ],
      [
        "b",
        "and"
      ],
      [
        "Ġt",
        "ab"
      ],
      [
        "Ġt",
        "ran"
      ],
      [
        "Ġst",
        "ar"
      ],
      [
        "Ġd",
        "ire"
      ],
      [
        "wh",
        "y"
      ],
      [
        "Ġmid",
        "st"
      ],
      [
        "ut",
        "es"
      ],
      [
        "Ġdra",
        "w"
      ],
      [
        "Ġwat",
        "ers"
      ],
      [
        "med",
        "i"
      ],
      [
        "Ġstran",
        "ge"
      ],
      [
        "Ġb",
        "a"
      ],
      [
        "ok",
        "en"
      ],
      [
        "Ġtoward",
        "s"
      ],
      [
        "Ġc",
        "ry"
      ],
      [
        "an",
        "k"
      ],
      [
        "Ġdel",
        "ight"
      ],
      [
        "Ġm",
        "ist"
      ],
      [
        "Ġturn",
        "bull"
      ],
      [
        "g",
        "od"
      ],
      [
        "i",
        "qu"
      ],
      [
        "m",
        "ore"
      ],
      [
        "Ġsy",
        "me"
      ],
      [
        "s",
        "c"
      ],
      [
        "Ġm",
        "aster"
      ],
      [
        "at",
        "ch"
      ],
      [
        "Ġp",
        "ast"
      ],
      [
        "Ġsa",
        "ul"
      ],
      [
        "ro",
        "ve"
      ],
      [
        "Ġf",
        "ast"
      ],
      [
        "Ġf",
        "ine"
      ],
      [
        "Ġob",
        "ser"
      ],
      [
        "Ġhar",
        "riet"
      ],
      [
        "Ġlar",
        "ge"
      ],
      [
        "ou",
        "red"
      ],
      [
        "Ġch",
        "ief"
      ],
      [
        "Ġab",
        "s"
      ],
      [
        "Ġconc",
        "ern"
      ],
      [
        "Ġke",
        "pt"
      ],
      [
        "Ġh",
        "us"
      ],
      [
        "Ġc",
        "or"
      ],
      [
        "Ġha",
        "ue"
      ],
      [
        "if",
        "t"
      ],
      [
        "co",
        "ver"
      ],
      [
        "b",
        "s"
      ],
      [
        "Ġm",
        "oney"
      ],
      [
        "Ġt",
        "ree"
      ],
      [
        "Ġcount",
        "ry"
      ],
      [
        "3",
        "5"
      ],
      [
        "am",
        "es"
      ],
      [
        "Ġli",
        "ft"
      ],
      [
        "Ġgard",
        "en"
      ],
      [
        "Ġapp",
        "ear"
      ],
      [
        "Ġm",
        "is"
      ],
      [
        "Ġm",
        "ult"
      ],
      [
        "en",
        "n"
      ],
      [
        "Ġo",
        "h"
      ],
      [
        "Ġli",
        "ving"
      ],
      [
        "Ġkn",
        "ight"
      ],
      [
        "af",
        "ter"
      ],
      [
        "Ġth",
        "r"
      ],
      [
        "Ġb",
        "ur"
      ],
      [
        "Ġgre",
        "en"
      ],
      [
        "Ġcour",
        "se"
      ],
      [
        "Ġremem",
        "ber"
      ],
      [
        "Ġdis",
        "p"
      ],
      [
        "Ġsil",
        "ver"
      ],
      [
        "il",
        "es"
      ],
      [
        "Ġcom",
        "fort"
      ],
      [
        "Ġtw",
        "enty"
      ],
      [
        "la",
        "im"
      ],
      [
        "Ġsec",
        "ret"
      ],
      [
        "h",
        "old"
      ],
      [
        "Ġg",
        "row"
      ],
      [
        "Ġmight",
        "y"
      ],
      [
        "Ġpriest",
        "s"
      ],
      [
        "Ġcl",
        "oud"
      ],
      [
        "Ġi",
        "ll"
      ],
      [
        "Ġbre",
        "ak"
      ],
      [
        "Ġb",
        "ow"
      ],
      [
        "is",
        "ing"
      ],
      [
        "Ġk",
        "ings"
      ],
      [
        "Ġch",
        "e"
      ],
      [
        "il",
        "t"
      ],
      [
        "an",
        "ces"
      ],
      [
        "Ġaf",
        "f"
      ],
      [
        "ou",
        "ra"
      ],
      [
        "ic",
        "ular"
      ],
      [
        "be",
        "fore"
      ],
      [
        "so",
        "ever"
      ],
      [
        "Ġbu",
        "ild"
      ],
      [
        "Ġfor",
        "t"
      ],
      [
        "up",
        "on"
      ],
      [
        "Ġinst",
        "ant"
      ],
      [
        "l",
        "t"
      ],
      [
        "Ġf",
        "ree"
      ],
      [
        ".",
        "'"
      ],
      [
        "Ġa",
        "w"
      ],
      [
        "is",
        "on"
      ],
      [
        "Ġc",
        "orn"
      ],
      [
        "Ġl",
        "ou"
      ],
      [
        "ong",
        "reg"
      ],
      [
        "Ġking",
        "dom"
      ],
      [
        "e",
        "k"
      ],
      [
        "o",
        "th"
      ],
      [
        "Ġof",
        "ten"
      ],
      [
        "Ġd",
        "ri"
      ],
      [
        "Ġha",
        "ir"
      ],
      [
        "lo",
        "ok"
      ],
      [
        "Ġel",
        "ton"
      ],
      [
        "3",
        "7"
      ],
      [
        "a",
        "w"
      ],
      [
        "u",
        "es"
      ],
      [
        "w",
        "ood"
      ],
      [
        "Ġre",
        "al"
      ],
      [
        "Ġknight",
        "ley"
      ],
      [
        "re",
        "w"
      ],
      [
        "ac",
        "ob"
      ],
      [
        "ward",
        "s"
      ],
      [
        "ru",
        "pt"
      ],
      [
        "Ġac",
        "qu"
      ],
      [
        "Ġro",
        "se"
      ],
      [
        "Ġexp",
        "ect"
      ],
      [
        "Ġreturn",
        "ed"
      ],
      [
        "ongreg",
        "ation"
      ],
      [
        "Ġco",
        "ver"
      ],
      [
        "Ġpleas",
        "ure"
      ],
      [
        "Ġdif",
        "fer"
      ],
      [
        "Ġg",
        "ir"
      ],
      [
        "Ġre",
        "ady"
      ],
      [
        "?",
        "--"
      ],
      [
        "Ġl",
        "ad"
      ],
      [
        "Ġre",
        "ign"
      ],
      [
        "Ġab",
        "le"
      ],
      [
        "if",
        "ul"
      ],
      [
        "y",
        "l"
      ],
      [
        "Ġs",
        "om"
      ],
      [
        "Ġs",
        "ong"
      ],
      [
        "Ġt",
        "ea"
      ],
      [
        "Ġwom",
        "en"
      ],
      [
        "Ġ",
        "est"
      ],
      [
        "Ġt",
        "able"
      ],
      [
        "Ġqu",
        "est"
      ],
      [
        "igh",
        "b"
      ],
      [
        "Ġpre",
        "t"
      ],
      [
        "s",
        "ide"
      ],
      [
        "itt",
        "ing"
      ],
      [
        "l",
        "ic"
      ],
      [
        "er",
        "ness"
      ],
      [
        "Ġal",
        "tar"
      ],
      [
        "Ġburn",
        "t"
      ],
      [
        "ar",
        "on"
      ],
      [
        "h",
        "u"
      ],
      [
        "th",
        "ough"
      ],
      [
        "c",
        "an"
      ],
      [
        "Ġd",
        "ash"
      ],
      [
        "Ġsp",
        "oken"
      ],
      [
        "a",
        "i"
      ],
      [
        "h",
        "ere"
      ],
      [
        "Ġfo",
        "ol"
      ],
      [
        "e",
        "very"
      ],
      [
        "z",
        "z"
      ],
      [
        "Ġu",
        "se"
      ],
      [
        "ub",
        "b"
      ],
      [
        "Ġla",
        "id"
      ],
      [
        "Ġnat",
        "ure"
      ],
      [
        "Ġhus",
        "band"
      ],
      [
        "Ġst",
        "ay"
      ],
      [
        "un",
        "t"
      ],
      [
        "Ġo",
        "ught"
      ],
      [
        "ou",
        "ght"
      ],
      [
        "Ġl",
        "u"
      ],
      [
        "ch",
        "o"
      ],
      [
        "Ġsat",
        "is"
      ],
      [
        "Ġw",
        "ise"
      ],
      [
        "Ġy",
        "es"
      ],
      [
        "Ġfru",
        "it"
      ],
      [
        "Ġp",
        "al"
      ],
      [
        "w",
        "ould"
      ],
      [
        "Ġre",
        "j"
      ],
      [
        "Ġj",
        "acob"
      ],
      [
        "Ġn",
        "ations"
      ],
      [
        "Ġbro",
        "ken"
      ],
      [
        "j",
        "ust"
      ],
      [
        "y",
        "ond"
      ],
      [
        "Ġpra",
        "ise"
      ],
      [
        "l",
        "ish"
      ],
      [
        "b",
        "r"
      ],
      [
        "Ġa",
        "p"
      ],
      [
        "Ġd",
        "ro"
      ],
      [
        "Ġy",
        "ea"
      ],
      [
        "the",
        "e"
      ],
      [
        "of",
        "f"
      ],
      [
        "Ġad",
        "v"
      ],
      [
        "Ġposs",
        "ess"
      ],
      [
        ",",
        ")"
      ],
      [
        "Ġp",
        "it"
      ],
      [
        "w",
        "ise"
      ],
      [
        "il",
        "ing"
      ],
      [
        "Ġgod",
        "s"
      ],
      [
        "Ġwhere",
        "fore"
      ],
      [
        "g",
        "r"
      ],
      [
        "Ġw",
        "it"
      ],
      [
        "ach",
        "ed"
      ],
      [
        "Ġdre",
        "am"
      ],
      [
        "Ġhon",
        "our"
      ],
      [
        ";",
        "--"
      ],
      [
        "p",
        "ass"
      ],
      [
        "s",
        "ay"
      ],
      [
        "Ġc",
        "oun"
      ],
      [
        "Ġse",
        "ed"
      ],
      [
        "Ġany",
        "thing"
      ],
      [
        "ap",
        "ter"
      ],
      [
        "id",
        "ent"
      ],
      [
        "Ġit",
        "self"
      ],
      [
        "Ġor",
        "d"
      ],
      [
        "Ġwr",
        "itten"
      ],
      [
        "Ġvis",
        "it"
      ],
      [
        "in",
        "to"
      ],
      [
        "Ġco",
        "nd"
      ],
      [
        "c",
        "l"
      ],
      [
        "t",
        "w"
      ],
      [
        "ter",
        "n"
      ],
      [
        "h",
        "and"
      ],
      [
        "Ġf",
        "ight"
      ],
      [
        "if",
        "ic"
      ],
      [
        "Ġim",
        "medi"
      ],
      [
        "Ġfo",
        "ot"
      ],
      [
        "Ġconsid",
        "er"
      ],
      [
        "a",
        "ce"
      ],
      [
        "Ġb",
        "ad"
      ],
      [
        "Ġsure",
        "ly"
      ],
      [
        ",",
        "--"
      ],
      [
        "i",
        "us"
      ],
      [
        "Ġg",
        "ate"
      ],
      [
        "ri",
        "age"
      ],
      [
        "Ġj",
        "ew"
      ],
      [
        "Ġjud",
        "ge"
      ],
      [
        "er",
        "t"
      ],
      [
        "at",
        "er"
      ],
      [
        "itt",
        "ed"
      ],
      [
        "Ġsee",
        "k"
      ],
      [
        "!",
        "'"
      ],
      [
        "Ġe",
        "li"
      ],
      [
        "Ġsa",
        "cri"
      ],
      [
        "qu",
        "e"
      ],
      [
        "oint",
        "ed"
      ],
      [
        "re",
        "ady"
      ],
      [
        "ing",
        "ly"
      ],
      [
        "Ġp",
        "ain"
      ],
      [
        "res",
        "h"
      ],
      [
        "Ġtru",
        "st"
      ],
      [
        "th",
        "an"
      ],
      [
        "Ġa",
        "h"
      ],
      [
        "ur",
        "al"
      ],
      [
        "Ġde",
        "al"
      ],
      [
        "ighb",
        "our"
      ],
      [
        "Ġbo",
        "at"
      ],
      [
        "b",
        "es"
      ],
      [
        "Ġto",
        "wn"
      ],
      [
        "mr",
        "s"
      ],
      [
        "Ġ",
        "6"
      ],
      [
        "Ġm",
        "ere"
      ],
      [
        "Ġlo",
        "st"
      ],
      [
        "Ġcirc",
        "um"
      ],
      [
        "o",
        "g"
      ],
      [
        "em",
        "pt"
      ],
      [
        "Ġcomm",
        "on"
      ],
      [
        "Ġmac",
        "ian"
      ],
      [
        "Ġa",
        "aron"
      ],
      [
        "Ġf",
        "ig"
      ],
      [
        "l",
        "er"
      ],
      [
        "ri",
        "e"
      ],
      [
        "Ġpro",
        "v"
      ],
      [
        "Ġbus",
        "iness"
      ],
      [
        "on",
        "el"
      ],
      [
        "Ġhe",
        "al"
      ],
      [
        "Ġe",
        "ither"
      ],
      [
        "Ġjudg",
        "ment"
      ],
      [
        "Ġe",
        "as"
      ],
      [
        "Ġal",
        "ice"
      ],
      [
        "ern",
        "acle"
      ],
      [
        "4",
        "0"
      ],
      [
        "Ġc",
        "uri"
      ],
      [
        "ch",
        "er"
      ],
      [
        ".",
        ")"
      ],
      [
        "Ġinter",
        "est"
      ],
      [
        "k",
        "ed"
      ],
      [
        "Ġm",
        "ur"
      ],
      [
        "Ġl",
        "en"
      ],
      [
        "om",
        "in"
      ],
      [
        "Ġw",
        "ine"
      ],
      [
        "Ġb",
        "ull"
      ],
      [
        "Ġc",
        "e"
      ],
      [
        "Ġfor",
        "m"
      ],
      [
        "Ġwalk",
        "ed"
      ],
      [
        "3",
        "8"
      ],
      [
        "ent",
        "er"
      ],
      [
        "Ġre",
        "l"
      ],
      [
        "Ġsupp",
        "ose"
      ],
      [
        "Ġbless",
        "ed"
      ],
      [
        "at",
        "ure"
      ],
      [
        "om",
        "on"
      ],
      [
        "Ġre",
        "ceived"
      ],
      [
        "ry",
        "ing"
      ],
      [
        "Ġob",
        "ject"
      ],
      [
        "Ġut",
        "ter"
      ],
      [
        "Ġc",
        "ase"
      ],
      [
        "Ġpart",
        "icular"
      ],
      [
        "Ġtre",
        "es"
      ],
      [
        "Ġm",
        "et"
      ],
      [
        "ot",
        "s"
      ],
      [
        "ea",
        "re"
      ],
      [
        "um",
        "b"
      ],
      [
        "Ġto",
        "p"
      ],
      [
        "Ġme",
        "as"
      ],
      [
        "her",
        "it"
      ],
      [
        "Ġsudden",
        "ly"
      ],
      [
        "ce",
        "nd"
      ],
      [
        "Ġ",
        "5"
      ],
      [
        "Ġ",
        "7"
      ],
      [
        "le",
        "an"
      ],
      [
        "se",
        "e"
      ],
      [
        "od",
        "u"
      ],
      [
        "Ġqu",
        "ick"
      ],
      [
        "Ġcertain",
        "ly"
      ],
      [
        "'",
        "ve"
      ],
      [
        "l",
        "ight"
      ],
      [
        "Ġop",
        "ened"
      ],
      [
        "Ġs",
        "al"
      ],
      [
        "Ġca",
        "es"
      ],
      [
        "Ġspir",
        "its"
      ],
      [
        "Ġsub",
        "ject"
      ],
      [
        "Ġst",
        "ru"
      ],
      [
        "Ġsu",
        "m"
      ],
      [
        "t",
        "le"
      ],
      [
        "ow",
        "ers"
      ],
      [
        "Ġme",
        "at"
      ],
      [
        "Ġbec",
        "ome"
      ],
      [
        "Ġmid",
        "d"
      ],
      [
        "Ġmer",
        "cy"
      ],
      [
        "Ġb",
        "it"
      ],
      [
        "ll",
        "ect"
      ],
      [
        "as",
        "ed"
      ],
      [
        "Ġe",
        "v"
      ],
      [
        "ri",
        "es"
      ],
      [
        "Ġsa",
        "ve"
      ],
      [
        "Ġv",
        "ill"
      ],
      [
        "Ġknow",
        "ledge"
      ],
      [
        "Ġth",
        "ird"
      ],
      [
        "be",
        "c"
      ],
      [
        "ap",
        "h"
      ],
      [
        "Ġwork",
        "s"
      ],
      [
        "Ġl",
        "ab"
      ],
      [
        "for",
        "m"
      ],
      [
        "Ġclo",
        "se"
      ],
      [
        "ian",
        "s"
      ],
      [
        "Ġpl",
        "ain"
      ],
      [
        "Ġgentle",
        "man"
      ],
      [
        "Ġ",
        "ver"
      ],
      [
        "Ġc",
        "ru"
      ],
      [
        "Ġp",
        "ie"
      ],
      [
        "Ġre",
        "spect"
      ],
      [
        "Ġsil",
        "ence"
      ],
      [
        "e",
        "y"
      ],
      [
        "s",
        "uch"
      ],
      [
        "Ġt",
        "ong"
      ],
      [
        "Ġe",
        "ld"
      ],
      [
        "if",
        "y"
      ],
      [
        "Ġfell",
        "ow"
      ],
      [
        "Ġw",
        "ra"
      ],
      [
        "ar",
        "ing"
      ],
      [
        "an",
        "ct"
      ],
      [
        "Ġe",
        "ll"
      ],
      [
        "ven",
        "ant"
      ],
      [
        "fe",
        "ction"
      ],
      [
        "ath",
        "an"
      ],
      [
        "Ġwat",
        "ch"
      ],
      [
        "Ġang",
        "el"
      ],
      [
        "yl",
        "on"
      ],
      [
        "n",
        "ight"
      ],
      [
        "Ġc",
        "ra"
      ],
      [
        "Ġwood",
        "house"
      ],
      [
        "hab",
        "it"
      ],
      [
        "Ġw",
        "is"
      ],
      [
        "Ġt",
        "r"
      ],
      [
        "Ġf",
        "at"
      ],
      [
        "m",
        "p"
      ],
      [
        "Ġc",
        "ongregation"
      ],
      [
        "Ġp",
        "ort"
      ],
      [
        "Ġri",
        "ver"
      ],
      [
        "3",
        "9"
      ],
      [
        "m",
        "ight"
      ],
      [
        "ter",
        "s"
      ],
      [
        "Ġsee",
        "ing"
      ],
      [
        "Ġsol",
        "omon"
      ],
      [
        "c",
        "ould"
      ],
      [
        "e",
        "ed"
      ],
      [
        "Ġne",
        "ighbour"
      ],
      [
        "Ġfran",
        "k"
      ],
      [
        "Ġm",
        "ess"
      ],
      [
        "Ġc",
        "old"
      ],
      [
        "Ġe",
        "ph"
      ],
      [
        "ch",
        "apter"
      ],
      [
        "Ġsp",
        "o"
      ],
      [
        "Ġcomp",
        "an"
      ],
      [
        "Ġacc",
        "ount"
      ],
      [
        "Ġs",
        "n"
      ],
      [
        "Ġb",
        "right"
      ],
      [
        "ir",
        "ty"
      ],
      [
        "Ġv",
        "al"
      ],
      [
        "Ġenem",
        "ies"
      ],
      [
        "Ġa",
        "st"
      ],
      [
        "i",
        "ent"
      ],
      [
        "t",
        "e"
      ],
      [
        "Ġl",
        "ist"
      ],
      [
        "Ġbe",
        "yond"
      ],
      [
        "Ġsh",
        "ad"
      ],
      [
        "Ġv",
        "ain"
      ],
      [
        "Ġtran",
        "s"
      ],
      [
        "p",
        "re"
      ],
      [
        "ar",
        "ch"
      ],
      [
        "Ġde",
        "f"
      ],
      [
        "thes",
        "e"
      ],
      [
        "Ġpre",
        "p"
      ],
      [
        "Ġell",
        "iot"
      ],
      [
        "p",
        "la"
      ],
      [
        "Ġre",
        "ceive"
      ],
      [
        "Ġsu",
        "per"
      ],
      [
        "Ġnum",
        "ber"
      ],
      [
        "m",
        "ay"
      ],
      [
        "Ġs",
        "ense"
      ],
      [
        "Ġh",
        "id"
      ],
      [
        "Ġf",
        "if"
      ],
      [
        "Ġin",
        "iqu"
      ],
      [
        "Ġe",
        "ag"
      ],
      [
        "un",
        "e"
      ],
      [
        "Ġcontin",
        "ued"
      ],
      [
        "Ġh",
        "at"
      ],
      [
        "Ġw",
        "on"
      ],
      [
        "or",
        "m"
      ],
      [
        "ve",
        "l"
      ],
      [
        "Ġtw",
        "el"
      ],
      [
        "Ġro",
        "ll"
      ],
      [
        "Ġthought",
        "s"
      ],
      [
        "Ġid",
        "ea"
      ],
      [
        "s",
        "y"
      ],
      [
        "Ġw",
        "ea"
      ],
      [
        "Ġsa",
        "ke"
      ],
      [
        "Ġfa",
        "vour"
      ],
      [
        "Ġle",
        "ar"
      ],
      [
        "Ġgra",
        "ce"
      ],
      [
        "again",
        "st"
      ],
      [
        "Ġlen",
        "gth"
      ],
      [
        "i",
        "ence"
      ],
      [
        "m",
        "iss"
      ],
      [
        "Ġc",
        "ross"
      ],
      [
        "Ġent",
        "er"
      ],
      [
        "Ġfor",
        "ward"
      ],
      [
        "Ġex",
        "cept"
      ],
      [
        "Ġo",
        "il"
      ],
      [
        "em",
        "ent"
      ],
      [
        "Ġlong",
        "er"
      ],
      [
        "Ġes",
        "c"
      ],
      [
        "et",
        "imes"
      ],
      [
        "am",
        "ed"
      ],
      [
        "ious",
        "ly"
      ],
      [
        "ee",
        "ch"
      ],
      [
        "Ġgather",
        "ed"
      ],
      [
        "4",
        "1"
      ],
      [
        "en",
        "ing"
      ],
      [
        "Ġv",
        "es"
      ],
      [
        "sh",
        "ould"
      ],
      [
        "Ġpart",
        "y"
      ],
      [
        "Ġcomp",
        "any"
      ],
      [
        "Ġprof",
        "ess"
      ],
      [
        "Ġimmedi",
        "ately"
      ],
      [
        "Ġf",
        "le"
      ],
      [
        "ar",
        "m"
      ],
      [
        "Ġe",
        "ast"
      ],
      [
        "Ġan",
        "ger"
      ],
      [
        "Ġfa",
        "ct"
      ],
      [
        "Ġle",
        "v"
      ],
      [
        "Ġway",
        "s"
      ],
      [
        "Ġpla",
        "ces"
      ],
      [
        "Ġtab",
        "ernacle"
      ],
      [
        "Ġcom",
        "es"
      ],
      [
        "Ġle",
        "g"
      ],
      [
        "Ġle",
        "ad"
      ],
      [
        "Ġrem",
        "ain"
      ],
      [
        "Ġdaught",
        "ers"
      ],
      [
        "Ġgener",
        "al"
      ],
      [
        "ara",
        "oh"
      ],
      [
        "Ġs",
        "qu"
      ],
      [
        "Ġin",
        "herit"
      ],
      [
        "Ġk",
        "ill"
      ],
      [
        "ip",
        "les"
      ],
      [
        "Ġapp",
        "eared"
      ],
      [
        "c",
        "a"
      ],
      [
        "g",
        "ers"
      ],
      [
        "Ġal",
        "ready"
      ],
      [
        "Ġwr",
        "ong"
      ],
      [
        "Ġdec",
        "la"
      ],
      [
        "Ġdeliver",
        "ed"
      ],
      [
        "Ġb",
        "attle"
      ],
      [
        "Ġm",
        "aking"
      ],
      [
        "Ġd",
        "ied"
      ],
      [
        "ut",
        "ion"
      ],
      [
        "Ġso",
        "ld"
      ],
      [
        "ru",
        "n"
      ],
      [
        "Ġus",
        "ed"
      ],
      [
        "Ġri",
        "ch"
      ],
      [
        "Ġhard",
        "ly"
      ],
      [
        "Ġhor",
        "se"
      ],
      [
        "g",
        "in"
      ],
      [
        "n",
        "ers"
      ],
      [
        "Ġd",
        "in"
      ],
      [
        "Ġd",
        "en"
      ],
      [
        "Ġg",
        "ar"
      ],
      [
        "end",
        "ed"
      ],
      [
        "Ġob",
        "lig"
      ],
      [
        "d",
        "is"
      ],
      [
        "pp",
        "ing"
      ],
      [
        "Ġr",
        "ise"
      ],
      [
        "Ġpleas",
        "e"
      ],
      [
        "fa",
        "ther"
      ],
      [
        "Ġdash",
        "wood"
      ],
      [
        "g",
        "ing"
      ],
      [
        "Ġin",
        "s"
      ],
      [
        "ir",
        "m"
      ],
      [
        "ro",
        "ach"
      ],
      [
        "Ġpro",
        "p"
      ],
      [
        "Ġim",
        "ag"
      ],
      [
        "Ġsou",
        "th"
      ],
      [
        "Ġcar",
        "ried"
      ],
      [
        "Ġpur",
        "p"
      ],
      [
        "Ġcol",
        "onel"
      ],
      [
        "Ġhost",
        "s"
      ],
      [
        "Ġquest",
        "ion"
      ],
      [
        "it",
        "ation"
      ],
      [
        "ch",
        "ild"
      ],
      [
        "ab",
        "out"
      ],
      [
        "ie",
        "w"
      ],
      [
        "Ġcour",
        "t"
      ],
      [
        "Ġ",
        "9"
      ],
      [
        "Ġhe",
        "av"
      ],
      [
        "Ġdark",
        "ness"
      ],
      [
        "r",
        "ay"
      ],
      [
        "u",
        "el"
      ],
      [
        "Ġb",
        "ig"
      ],
      [
        "Ġl",
        "est"
      ],
      [
        "Ġdo",
        "th"
      ],
      [
        "wh",
        "ile"
      ],
      [
        "ix",
        "ed"
      ],
      [
        "b",
        "ed"
      ],
      [
        "l",
        "u"
      ],
      [
        "in",
        "ter"
      ],
      [
        "Ġi",
        "ron"
      ],
      [
        "Ġwi",
        "lt"
      ],
      [
        "Ġst",
        "one"
      ],
      [
        "Ġli",
        "e"
      ],
      [
        "Ġco",
        "venant"
      ],
      [
        "Ġfollow",
        "ed"
      ],
      [
        "Ġhum",
        "an"
      ],
      [
        "ce",
        "ll"
      ],
      [
        "ic",
        "es"
      ],
      [
        "ous",
        "es"
      ],
      [
        "ac",
        "c"
      ],
      [
        "Ġpro",
        "per"
      ],
      [
        "Ġnor",
        "th"
      ],
      [
        "c",
        "ul"
      ],
      [
        "am",
        "in"
      ],
      [
        "Ġsp",
        "oke"
      ],
      [
        "Ġbab",
        "ylon"
      ],
      [
        "i",
        "or"
      ],
      [
        "is",
        "a"
      ],
      [
        "Ġqu",
        "iet"
      ],
      [
        "Ġmar",
        "y"
      ],
      [
        "Ġposs",
        "ible"
      ],
      [
        "d",
        "id"
      ],
      [
        "l",
        "ong"
      ],
      [
        "er",
        "r"
      ],
      [
        "Ġde",
        "vil"
      ],
      [
        "Ġsil",
        "ent"
      ],
      [
        "Ġves",
        "sel"
      ],
      [
        "Ġm",
        "ag"
      ],
      [
        "Ġre",
        "qu"
      ],
      [
        "Ġst",
        "ate"
      ],
      [
        "ast",
        "e"
      ],
      [
        "Ġyour",
        "self"
      ],
      [
        "Ġfeel",
        "ings"
      ],
      [
        "ĠĠĠĠĠĠĠĠ",
        "ĠĠĠĠĠĠĠĠ"
      ],
      [
        "Ġgir",
        "l"
      ],
      [
        "st",
        "ood"
      ],
      [
        "ak",
        "ed"
      ],
      [
        "Ġser",
        "ve"
      ],
      [
        "Ġdes",
        "p"
      ],
      [
        "Ġmean",
        "s"
      ],
      [
        "g",
        "l"
      ],
      [
        "Ġc",
        "amp"
      ],
      [
        "Ġp",
        "ay"
      ],
      [
        "bec",
        "ause"
      ],
      [
        "f",
        "ied"
      ],
      [
        "Ġb",
        "are"
      ],
      [
        "Ġsh",
        "ow"
      ],
      [
        "et",
        "y"
      ],
      [
        "ke",
        "th"
      ],
      [
        "Ġthy",
        "self"
      ],
      [
        "Ġwind",
        "ow"
      ],
      [
        "pe",
        "ople"
      ],
      [
        "Ġreg",
        "ard"
      ],
      [
        "m",
        "in"
      ],
      [
        "en",
        "ess"
      ],
      [
        "ir",
        "t"
      ],
      [
        "Ġinc",
        "re"
      ],
      [
        "Ġl",
        "amb"
      ],
      [
        "Ġj",
        "os"
      ],
      [
        "il",
        "ity"
      ],
      [
        "Ġear",
        "ly"
      ],
      [
        "Ġrep",
        "e"
      ],
      [
        "Ġwild",
        "erness"
      ],
      [
        "Ġb",
        "ound"
      ],
      [
        "Ġstand",
        "ing"
      ],
      [
        "Ġcle",
        "ar"
      ],
      [
        "Ġres",
        "ol"
      ],
      [
        "Ġchan",
        "ge"
      ],
      [
        "b",
        "ered"
      ],
      [
        "se",
        "t"
      ],
      [
        "Ġgre",
        "y"
      ],
      [
        "Ġcome",
        "th"
      ],
      [
        "Ġent",
        "ire"
      ],
      [
        "Ġph",
        "araoh"
      ],
      [
        "Ġsur",
        "pr"
      ],
      [
        "j",
        "oy"
      ],
      [
        "Ġ",
        "ve"
      ],
      [
        "Ġs",
        "anct"
      ],
      [
        "Ġp",
        "ap"
      ],
      [
        "ra",
        "ham"
      ],
      [
        "ist",
        "ines"
      ],
      [
        "Ġbl",
        "ue"
      ],
      [
        "Ġop",
        "in"
      ],
      [
        "e",
        "ven"
      ],
      [
        "is",
        "rael"
      ],
      [
        "Ġsp",
        "read"
      ],
      [
        "be",
        "y"
      ],
      [
        "ress",
        "ion"
      ],
      [
        "Ġbegin",
        "ning"
      ],
      [
        "c",
        "is"
      ],
      [
        "g",
        "ood"
      ],
      [
        "Ġst",
        "ubb"
      ],
      [
        "Ġj",
        "ane"
      ],
      [
        "Ġbec",
        "ame"
      ],
      [
        "Ġl",
        "ine"
      ],
      [
        "Ġsh",
        "ut"
      ],
      [
        "ust",
        "er"
      ],
      [
        "Ġex",
        "a"
      ],
      [
        "Ġprin",
        "ces"
      ],
      [
        "Ġtwel",
        "ve"
      ],
      [
        "i",
        "ct"
      ],
      [
        "v",
        "ice"
      ],
      [
        "it",
        "ing"
      ],
      [
        "rou",
        "d"
      ],
      [
        "Ġsc",
        "ar"
      ],
      [
        "Ġwant",
        "ed"
      ],
      [
        "Ġstre",
        "et"
      ],
      [
        "Ġrighteous",
        "ness"
      ],
      [
        "i",
        "el"
      ],
      [
        "u",
        "ff"
      ],
      [
        "as",
        "ion"
      ],
      [
        "Ġse",
        "ver"
      ],
      [
        "Ġso",
        "ft"
      ],
      [
        "Ġadd",
        "ed"
      ],
      [
        "Ġwis",
        "dom"
      ],
      [
        "d",
        "own"
      ],
      [
        "f",
        "o"
      ],
      [
        "g",
        "reat"
      ],
      [
        "v",
        "ol"
      ],
      [
        "as",
        "se"
      ],
      [
        "Ġhe",
        "ll"
      ],
      [
        "rou",
        "s"
      ],
      [
        "Ġproph",
        "et"
      ],
      [
        "Ġpret",
        "ty"
      ],
      [
        "f",
        "ice"
      ],
      [
        "iz",
        "ed"
      ],
      [
        "m",
        "n"
      ],
      [
        "am",
        "s"
      ],
      [
        "ose",
        "ph"
      ],
      [
        "Ġexp",
        "l"
      ],
      [
        "Ġdre",
        "ad"
      ],
      [
        "Ġconcern",
        "ing"
      ],
      [
        "Ġf",
        "ly"
      ],
      [
        "Ġf",
        "ier"
      ],
      [
        "es",
        "h"
      ],
      [
        "Ġre",
        "c"
      ],
      [
        "em",
        "ed"
      ],
      [
        "Ġen",
        "c"
      ],
      [
        "ee",
        "que"
      ],
      [
        "eeque",
        "g"
      ],
      [
        "b",
        "ell"
      ],
      [
        "l",
        "in"
      ],
      [
        "Ġb",
        "orn"
      ],
      [
        "ro",
        "se"
      ],
      [
        "Ġchar",
        "ac"
      ],
      [
        "Ġmult",
        "itude"
      ],
      [
        "k",
        "n"
      ],
      [
        "Ġc",
        "row"
      ],
      [
        "am",
        "ent"
      ],
      [
        "um",
        "p"
      ],
      [
        "Ġbeaut",
        "iful"
      ],
      [
        "c",
        "r"
      ],
      [
        "f",
        "ield"
      ],
      [
        "v",
        "al"
      ],
      [
        "ar",
        "p"
      ],
      [
        "ous",
        "ly"
      ],
      [
        "Ġpleas",
        "ed"
      ],
      [
        "e",
        "ad"
      ],
      [
        "o",
        "ck"
      ],
      [
        "th",
        "rough"
      ],
      [
        "Ġs",
        "ick"
      ],
      [
        "Ġm",
        "od"
      ],
      [
        "Ġc",
        "ub"
      ],
      [
        "all",
        "ey"
      ],
      [
        "ors",
        "es"
      ],
      [
        "Ġforg",
        "et"
      ],
      [
        "hu",
        "a"
      ],
      [
        "4",
        "2"
      ],
      [
        "b",
        "el"
      ],
      [
        "s",
        "al"
      ],
      [
        "y",
        "et"
      ],
      [
        "Ġt",
        "al"
      ],
      [
        "Ġf",
        "illed"
      ],
      [
        "Ġd",
        "w"
      ],
      [
        "Ġsu",
        "s"
      ],
      [
        "um",
        "e"
      ],
      [
        "Ġsom",
        "etimes"
      ],
      [
        "v",
        "ation"
      ],
      [
        "Ġs",
        "orrow"
      ],
      [
        "en",
        "e"
      ],
      [
        "Ġwh",
        "ales"
      ],
      [
        "Ġwar",
        "m"
      ],
      [
        "Ġchurch",
        "ill"
      ],
      [
        "Ġwit",
        "ness"
      ],
      [
        "Ġiniqu",
        "ity"
      ],
      [
        "b",
        "u"
      ],
      [
        "s",
        "m"
      ],
      [
        "Ġs",
        "ad"
      ],
      [
        "Ġc",
        "ap"
      ],
      [
        "Ġne",
        "cess"
      ],
      [
        "com",
        "p"
      ],
      [
        "Ġgr",
        "and"
      ],
      [
        "b",
        "ar"
      ],
      [
        "Ġp",
        "ub"
      ],
      [
        "ri",
        "ble"
      ],
      [
        "ur",
        "ing"
      ],
      [
        "Ġst",
        "ep"
      ],
      [
        "Ġor",
        "der"
      ],
      [
        "Ġqu",
        "ar"
      ],
      [
        "Ġseem",
        "s"
      ],
      [
        "com",
        "m"
      ],
      [
        "Ġ",
        "8"
      ],
      [
        "re",
        "m"
      ],
      [
        "Ġp",
        "ull"
      ],
      [
        "Ġe",
        "ars"
      ],
      [
        "ro",
        "om"
      ],
      [
        "Ġdo",
        "ing"
      ],
      [
        "Ġar",
        "k"
      ],
      [
        "Ġcle",
        "an"
      ],
      [
        "Ġtou",
        "ch"
      ],
      [
        "Ġin",
        "habit"
      ],
      [
        "fa",
        "x"
      ],
      [
        "Ġvi",
        "ol"
      ],
      [
        "Ġjew",
        "s"
      ],
      [
        "b",
        "re"
      ],
      [
        "k",
        "es"
      ],
      [
        "Ġl",
        "ate"
      ],
      [
        "Ġli",
        "ved"
      ],
      [
        "Ġv",
        "iew"
      ],
      [
        "Ġmo",
        "on"
      ],
      [
        "Ġfam",
        "il"
      ],
      [
        "Ġlev",
        "ites"
      ],
      [
        "i",
        "ar"
      ],
      [
        "j",
        "ud"
      ],
      [
        "Ġth",
        "irty"
      ],
      [
        "Ġcon",
        "st"
      ],
      [
        "Ġab",
        "raham"
      ],
      [
        "wor",
        "th"
      ],
      [
        "Ġadm",
        "ir"
      ],
      [
        "Ġd",
        "am"
      ],
      [
        "Ġst",
        "ory"
      ],
      [
        "Ġsl",
        "ow"
      ],
      [
        "Ġed",
        "ward"
      ],
      [
        "p",
        "ri"
      ],
      [
        "Ġhe",
        "ld"
      ],
      [
        "st",
        "ance"
      ],
      [
        "Ġsp",
        "er"
      ],
      [
        "Ġpa",
        "ul"
      ],
      [
        "Ġj",
        "on"
      ],
      [
        "Ġj",
        "enn"
      ],
      [
        "Ġgr",
        "ass"
      ],
      [
        "Ġ",
        "10"
      ],
      [
        "Ġb",
        "an"
      ],
      [
        "Ġf",
        "ur"
      ],
      [
        "Ġhead",
        "s"
      ],
      [
        "Ġthr",
        "one"
      ],
      [
        "Ġm",
        "ot"
      ],
      [
        "Ġf",
        "al"
      ],
      [
        "Ġd",
        "a"
      ],
      [
        "Ġmar",
        "k"
      ],
      [
        "let",
        "e"
      ],
      [
        "Ġsk",
        "y"
      ],
      [
        "Ġsus",
        "an"
      ],
      [
        "4",
        "4"
      ],
      [
        "k",
        "now"
      ],
      [
        "Ġsa",
        "fe"
      ],
      [
        "Ġv",
        "p"
      ],
      [
        "Ġthen",
        "ce"
      ],
      [
        "Ġcr",
        "own"
      ],
      [
        "Ġh",
        "ouses"
      ],
      [
        "Ġb",
        "ru"
      ],
      [
        "Ġb",
        "ird"
      ],
      [
        "Ġj",
        "our"
      ],
      [
        "Ġj",
        "oseph"
      ],
      [
        "Ġdes",
        "ire"
      ],
      [
        "Ġgra",
        "ve"
      ],
      [
        "Ġwra",
        "th"
      ],
      [
        "Ġs",
        "ens"
      ],
      [
        "Ġse",
        "lf"
      ],
      [
        "Ġac",
        "cept"
      ],
      [
        "Ġtri",
        "be"
      ],
      [
        "Ġmount",
        "ains"
      ],
      [
        "Ġtem",
        "ple"
      ],
      [
        "Ġjenn",
        "ings"
      ],
      [
        "im",
        "p"
      ],
      [
        "Ġre",
        "co"
      ],
      [
        "ct",
        "or"
      ],
      [
        "Ġbr",
        "ut"
      ],
      [
        "ron",
        "t"
      ],
      [
        "Ġtong",
        "ue"
      ],
      [
        "Ġdw",
        "elt"
      ],
      [
        "Ġa",
        "u"
      ],
      [
        "Ġb",
        "ott"
      ],
      [
        "Ġl",
        "oud"
      ],
      [
        "Ġv",
        "an"
      ],
      [
        "Ġsm",
        "ote"
      ],
      [
        "Ġfair",
        "fax"
      ],
      [
        "b",
        "ro"
      ],
      [
        "en",
        "ance"
      ],
      [
        "Ġe",
        "ight"
      ],
      [
        "ord",
        "er"
      ],
      [
        "Ġst",
        "at"
      ],
      [
        "Ġthere",
        "in"
      ],
      [
        "Ġde",
        "v"
      ],
      [
        "Ġsm",
        "ile"
      ],
      [
        "Ġbelie",
        "ved"
      ],
      [
        "child",
        "ren"
      ],
      [
        "b",
        "l"
      ],
      [
        "Ġ",
        "12"
      ],
      [
        "Ġh",
        "ence"
      ],
      [
        "st",
        "er"
      ],
      [
        "um",
        "ed"
      ],
      [
        "Ġh",
        "ate"
      ],
      [
        "Ġe",
        "f"
      ],
      [
        "to",
        "gether"
      ],
      [
        "Ġbre",
        "ath"
      ],
      [
        "Ġtrou",
        "ble"
      ],
      [
        "c",
        "lo"
      ],
      [
        "in",
        "ary"
      ],
      [
        "Ġt",
        "y"
      ],
      [
        "Ġt",
        "est"
      ],
      [
        "Ġl",
        "ed"
      ],
      [
        "Ġg",
        "lo"
      ],
      [
        "Ġlo",
        "ved"
      ],
      [
        "Ġar",
        "ms"
      ],
      [
        "Ġr",
        "ul"
      ],
      [
        "with",
        "out"
      ],
      [
        "Ġdisc",
        "iples"
      ],
      [
        "Ġoffer",
        "ings"
      ],
      [
        "Ġh",
        "orses"
      ],
      [
        "se",
        "qu"
      ],
      [
        "im",
        "ent"
      ],
      [
        "ant",
        "ly"
      ],
      [
        "ive",
        "ly"
      ],
      [
        "Ġqu",
        "een"
      ],
      [
        "ag",
        "ed"
      ],
      [
        "Ġfan",
        "cy"
      ],
      [
        "Ġequ",
        "al"
      ],
      [
        "Ġcaes",
        "ar"
      ],
      [
        "c",
        "ent"
      ],
      [
        "f",
        "l"
      ],
      [
        "Ġ",
        "11"
      ],
      [
        "id",
        "ence"
      ],
      [
        "Ġyou",
        "th"
      ],
      [
        "Ġst",
        "ret"
      ],
      [
        "Ġro",
        "ad"
      ],
      [
        "Ġent",
        "ered"
      ],
      [
        "Ġtalk",
        "ing"
      ],
      [
        "Ġlift",
        "ed"
      ],
      [
        "Ġrej",
        "oice"
      ],
      [
        "d",
        "es"
      ],
      [
        "h",
        "ar"
      ],
      [
        "Ġs",
        "or"
      ],
      [
        "Ġw",
        "al"
      ],
      [
        "Ġf",
        "ill"
      ],
      [
        "Ġto",
        "w"
      ],
      [
        "Ġha",
        "b"
      ],
      [
        "Ġsh",
        "ame"
      ],
      [
        "se",
        "ll"
      ],
      [
        "Ġbl",
        "ind"
      ],
      [
        "Ġspeak",
        "ing"
      ],
      [
        "Ġmin",
        "utes"
      ],
      [
        "Ġproph",
        "ets"
      ],
      [
        "Ġdan",
        "ger"
      ],
      [
        "Ġcharac",
        "ter"
      ],
      [
        "t",
        "ime"
      ],
      [
        "Ġm",
        "ort"
      ],
      [
        "Ġli",
        "ps"
      ],
      [
        "Ġar",
        "ri"
      ],
      [
        "Ġbro",
        "ad"
      ],
      [
        "ough",
        "by"
      ],
      [
        "Ġem",
        "p"
      ],
      [
        "Ġhapp",
        "iness"
      ],
      [
        "Ġdep",
        "art"
      ],
      [
        "Ġstran",
        "ger"
      ],
      [
        "Ġo",
        "d"
      ],
      [
        "Ġt",
        "aking"
      ],
      [
        "Ġf",
        "re"
      ],
      [
        "Ġwas",
        "h"
      ],
      [
        "em",
        "ma"
      ],
      [
        "aught",
        "er"
      ],
      [
        "Ġnat",
        "ural"
      ],
      [
        "?",
        "'"
      ],
      [
        "l",
        "ittle"
      ],
      [
        "s",
        "on"
      ],
      [
        "Ġs",
        "itting"
      ],
      [
        "Ġhe",
        "ark"
      ],
      [
        "el",
        "ess"
      ],
      [
        "Ġso",
        "le"
      ],
      [
        "Ġaf",
        "fection"
      ],
      [
        "Ġperfect",
        "ly"
      ],
      [
        "Ġsacri",
        "fice"
      ],
      [
        "Ġsper",
        "m"
      ],
      [
        "b",
        "uck"
      ],
      [
        "t",
        "ake"
      ],
      [
        "Ġc",
        "aught"
      ],
      [
        "Ġst",
        "ars"
      ],
      [
        "Ġv",
        "ine"
      ],
      [
        "Ġcomp",
        "ass"
      ],
      [
        "Ġbeg",
        "at"
      ],
      [
        "aint",
        "ance"
      ],
      [
        "Ġstra",
        "ight"
      ],
      [
        "f",
        "ast"
      ],
      [
        "o",
        "ved"
      ],
      [
        "u",
        "er"
      ],
      [
        "Ġa",
        "ge"
      ],
      [
        "on",
        "ly"
      ],
      [
        "al",
        "ing"
      ],
      [
        "Ġshe",
        "ep"
      ],
      [
        "ru",
        "st"
      ],
      [
        "ound",
        "ed"
      ],
      [
        "Ġdep",
        "arted"
      ],
      [
        "Ġfif",
        "ty"
      ],
      [
        "Ġ",
        "ere"
      ],
      [
        "Ġg",
        "rie"
      ],
      [
        "Ġse",
        "at"
      ],
      [
        "Ġr",
        "id"
      ],
      [
        "4",
        "3"
      ],
      [
        "Ġv",
        "alley"
      ],
      [
        "Ġwent",
        "worth"
      ],
      [
        "Ġc",
        "ro"
      ],
      [
        "Ġbu",
        "ilt"
      ],
      [
        "Ġphil",
        "istines"
      ],
      [
        "ot",
        "ten"
      ],
      [
        "ri",
        "a"
      ],
      [
        "Ġme",
        "ant"
      ],
      [
        "ast",
        "s"
      ],
      [
        "our",
        "s"
      ],
      [
        "Ġgreat",
        "er"
      ],
      [
        "Ġro",
        "ck"
      ],
      [
        "Ġbel",
        "ong"
      ],
      [
        "Ġcal",
        "m"
      ],
      [
        "h",
        "ost"
      ],
      [
        "ad",
        "ed"
      ],
      [
        "no",
        "thing"
      ],
      [
        "Ġinst",
        "ru"
      ],
      [
        "4",
        "8"
      ],
      [
        "on",
        "y"
      ],
      [
        "Ġd",
        "eter"
      ],
      [
        "for",
        "th"
      ],
      [
        "Ġhar",
        "po"
      ],
      [
        "con",
        "t"
      ],
      [
        "Ġtalk",
        "ed"
      ],
      [
        "Ġpurp",
        "ose"
      ],
      [
        "l",
        "ud"
      ],
      [
        "p",
        "ect"
      ],
      [
        "Ġth",
        "ick"
      ],
      [
        "Ġt",
        "ry"
      ],
      [
        "ch",
        "ar"
      ],
      [
        "Ġst",
        "ones"
      ],
      [
        "Ġse",
        "par"
      ],
      [
        "us",
        "ion"
      ],
      [
        "Ġafter",
        "wards"
      ],
      [
        "Ġac",
        "ross"
      ],
      [
        "Ġunc",
        "lean"
      ],
      [
        "Ġinherit",
        "ance"
      ],
      [
        "Ġopin",
        "ion"
      ],
      [
        "c",
        "ar"
      ],
      [
        "h",
        "a"
      ],
      [
        "Ġt",
        "aste"
      ],
      [
        "Ġsh",
        "out"
      ],
      [
        "wh",
        "e"
      ],
      [
        "ap",
        "ed"
      ],
      [
        "oss",
        "ible"
      ],
      [
        "Ġdre",
        "w"
      ],
      [
        "Ġhour",
        "s"
      ],
      [
        "i",
        "est"
      ],
      [
        "Ġa",
        "round"
      ],
      [
        "Ġi",
        "r"
      ],
      [
        "Ġthink",
        "ing"
      ],
      [
        "Ġcont",
        "r"
      ],
      [
        "ci",
        "ally"
      ],
      [
        "Ġpers",
        "u"
      ],
      [
        "Ġmount",
        "ain"
      ],
      [
        "Ġma",
        "id"
      ],
      [
        "Ġche",
        "er"
      ],
      [
        "g",
        "ar"
      ],
      [
        "g",
        "ive"
      ],
      [
        "Ġa",
        "rose"
      ],
      [
        "Ġf",
        "ro"
      ],
      [
        "ir",
        "th"
      ],
      [
        "Ġex",
        "cell"
      ],
      [
        "Ġle",
        "an"
      ],
      [
        "Ġoblig",
        "ed"
      ],
      [
        "Ġjos",
        "hua"
      ],
      [
        "kn",
        "own"
      ],
      [
        "k",
        "ind"
      ],
      [
        "m",
        "uch"
      ],
      [
        "Ġb",
        "al"
      ],
      [
        "is",
        "es"
      ],
      [
        "Ġc",
        "ass"
      ],
      [
        "fe",
        "nd"
      ],
      [
        "int",
        "s"
      ],
      [
        "Ġdes",
        "ol"
      ],
      [
        "Ġo",
        "x"
      ],
      [
        "Ġb",
        "le"
      ],
      [
        "Ġt",
        "ried"
      ],
      [
        "Ġd",
        "em"
      ],
      [
        "Ġd",
        "are"
      ],
      [
        "Ġyour",
        "selves"
      ],
      [
        "Ġag",
        "re"
      ],
      [
        "Ġmore",
        "over"
      ],
      [
        "laim",
        "ed"
      ],
      [
        "Ġacqu",
        "aintance"
      ],
      [
        "Ġheav",
        "y"
      ],
      [
        "Ġrepe",
        "ated"
      ],
      [
        "s",
        "in"
      ],
      [
        "Ġd",
        "u"
      ],
      [
        "ve",
        "ll"
      ],
      [
        "Ġas",
        "h"
      ],
      [
        "ur",
        "s"
      ],
      [
        "Ġse",
        "as"
      ],
      [
        "Ġno",
        "ise"
      ],
      [
        "Ġpre",
        "v"
      ],
      [
        "Ġwo",
        "e"
      ],
      [
        "Ġsuff",
        "er"
      ],
      [
        "c",
        "ons"
      ],
      [
        "o",
        "c"
      ],
      [
        "er",
        "ic"
      ],
      [
        "Ġsa",
        "m"
      ],
      [
        "Ġwor",
        "se"
      ],
      [
        "Ġoff",
        "ered"
      ],
      [
        "Ġlou",
        "isa"
      ],
      [
        "Ġf",
        "r"
      ],
      [
        "ing",
        "er"
      ],
      [
        "Ġsh",
        "arp"
      ],
      [
        "Ġu",
        "nd"
      ],
      [
        "al",
        "ed"
      ],
      [
        "Ġre",
        "t"
      ],
      [
        "ord",
        "an"
      ],
      [
        "Ġfa",
        "ces"
      ],
      [
        "ish",
        "ment"
      ],
      [
        "ist",
        "s"
      ],
      [
        "Ġpr",
        "ison"
      ],
      [
        "ser",
        "vant"
      ],
      [
        "l",
        "ast"
      ],
      [
        "Ġ",
        "18"
      ],
      [
        "re",
        "es"
      ],
      [
        "Ġt",
        "ar"
      ],
      [
        "Ġf",
        "resh"
      ],
      [
        "Ġsh",
        "ore"
      ],
      [
        "Ġso",
        "ci"
      ],
      [
        "Ġsay",
        "s"
      ],
      [
        "Ġra",
        "in"
      ],
      [
        "Ġsl",
        "ain"
      ],
      [
        "Ġsle",
        "w"
      ],
      [
        "Ġpur",
        "su"
      ],
      [
        "Ġaff",
        "li"
      ],
      [
        "Ġfig",
        "ure"
      ],
      [
        "Ġstru",
        "ck"
      ],
      [
        "Ġast",
        "on"
      ],
      [
        "Ġjour",
        "ney"
      ],
      [
        "g",
        "i"
      ],
      [
        "Ġm",
        "il"
      ],
      [
        "Ġc",
        "ent"
      ],
      [
        "Ġfor",
        "ty"
      ],
      [
        "Ġwill",
        "oughby"
      ],
      [
        "Ġcon",
        "vers"
      ],
      [
        "Ġex",
        "ceed"
      ],
      [
        "Ġpro",
        "b"
      ],
      [
        "Ġser",
        "vice"
      ],
      [
        "Ġcomp",
        "lete"
      ],
      [
        "Ġenem",
        "y"
      ],
      [
        "Ġtea",
        "ch"
      ],
      [
        "b",
        "a"
      ],
      [
        "ed",
        "s"
      ],
      [
        "se",
        "mb"
      ],
      [
        "ol",
        "s"
      ],
      [
        "os",
        "ition"
      ],
      [
        "ca",
        "pt"
      ],
      [
        "Ġsor",
        "ry"
      ],
      [
        "Ġ",
        "ze"
      ],
      [
        "ow",
        "ing"
      ],
      [
        "Ġan",
        "x"
      ],
      [
        "Ġcon",
        "v"
      ],
      [
        "ne",
        "ver"
      ],
      [
        "Ġen",
        "joy"
      ],
      [
        "Ġqu",
        "eequeg"
      ],
      [
        "Ġevery",
        "thing"
      ],
      [
        "Ġturn",
        "ing"
      ],
      [
        "Ġchar",
        "ge"
      ],
      [
        "cover",
        "ed"
      ],
      [
        "4",
        "6"
      ],
      [
        "Ġh",
        "art"
      ],
      [
        "Ġb",
        "uster"
      ],
      [
        "Ġm",
        "ed"
      ],
      [
        "Ġv",
        "ar"
      ],
      [
        "ok",
        "ed"
      ],
      [
        "Ġheart",
        "s"
      ],
      [
        "Ġwalk",
        "ing"
      ],
      [
        "Ġbes",
        "ide"
      ],
      [
        "Ġdiffer",
        "ent"
      ],
      [
        "Ġf",
        "led"
      ],
      [
        "Ġd",
        "et"
      ],
      [
        "ph",
        "er"
      ],
      [
        "Ġpres",
        "ence"
      ],
      [
        "Ġsit",
        "u"
      ],
      [
        "pla",
        "ce"
      ],
      [
        "Ġfal",
        "se"
      ],
      [
        "Ġt",
        "ail"
      ],
      [
        "Ġwh",
        "is"
      ],
      [
        "Ġdis",
        "app"
      ],
      [
        "Ġgl",
        "or"
      ],
      [
        "Ġset",
        "t"
      ],
      [
        "a",
        "an"
      ],
      [
        "a",
        "iah"
      ],
      [
        "j",
        "ah"
      ],
      [
        "n",
        "at"
      ],
      [
        "p",
        "leas"
      ],
      [
        "u",
        "ge"
      ],
      [
        "ra",
        "im"
      ],
      [
        "Ġsou",
        "ght"
      ],
      [
        "Ġunderstand",
        "ing"
      ],
      [
        "Ġm",
        "ention"
      ],
      [
        "Ġl",
        "ion"
      ],
      [
        "el",
        "inor"
      ],
      [
        "Ġsu",
        "sp"
      ],
      [
        "Ġpl",
        "an"
      ],
      [
        "Ġcar",
        "ry"
      ],
      [
        "Ġfeel",
        "ing"
      ],
      [
        "Ġstre",
        "ets"
      ],
      [
        "Ġbeaut",
        "y"
      ],
      [
        "n",
        "t"
      ],
      [
        "Ġp",
        "roud"
      ],
      [
        "Ġsp",
        "eech"
      ],
      [
        "Ġoff",
        "ic"
      ],
      [
        "Ġacc",
        "om"
      ],
      [
        "Ġdif",
        "fic"
      ],
      [
        "Ġprom",
        "ise"
      ],
      [
        "Ġbeast",
        "s"
      ],
      [
        "h",
        "or"
      ],
      [
        "Ġ",
        "15"
      ],
      [
        "Ġp",
        "eter"
      ],
      [
        "Ġcon",
        "ce"
      ],
      [
        "Ġcomp",
        "l"
      ],
      [
        "Ġfar",
        "mer"
      ],
      [
        "Ġfall",
        "en"
      ],
      [
        "Ġhon",
        "est"
      ],
      [
        "b",
        "orn"
      ],
      [
        "g",
        "ue"
      ],
      [
        "n",
        "est"
      ],
      [
        "p",
        "art"
      ],
      [
        "Ġw",
        "el"
      ],
      [
        "Ġb",
        "lo"
      ],
      [
        "Ġf",
        "ront"
      ],
      [
        "Ġp",
        "un"
      ],
      [
        "ent",
        "ed"
      ],
      [
        "al",
        "ity"
      ],
      [
        "Ġsl",
        "ight"
      ],
      [
        "Ġwr",
        "ite"
      ],
      [
        "fer",
        "ence"
      ],
      [
        "Ġprin",
        "ce"
      ],
      [
        "4",
        "5"
      ],
      [
        "i",
        "ers"
      ],
      [
        "Ġa",
        "v"
      ],
      [
        "it",
        "er"
      ],
      [
        "Ġst",
        "art"
      ],
      [
        "Ġli",
        "ber"
      ],
      [
        "Ġv",
        "s"
      ],
      [
        "Ġmo",
        "ab"
      ],
      [
        "ne",
        "w"
      ],
      [
        "Ġste",
        "ad"
      ],
      [
        "Ġclo",
        "thes"
      ],
      [
        "Ġdin",
        "ner"
      ],
      [
        "Ġexa",
        "ctly"
      ],
      [
        "Ġp",
        "ati"
      ],
      [
        "Ġan",
        "t"
      ],
      [
        "ant",
        "ed"
      ],
      [
        "Ġpro",
        "ceed"
      ],
      [
        "Ġsm",
        "ith"
      ],
      [
        "Ġgi",
        "ving"
      ],
      [
        "let",
        "on"
      ],
      [
        "Ġhapp",
        "ened"
      ],
      [
        "Ġpol",
        "ice"
      ],
      [
        "Ġcrow",
        "d"
      ],
      [
        "Ġcub",
        "its"
      ],
      [
        "Ġinhabit",
        "ants"
      ],
      [
        "Ġfur",
        "ther"
      ],
      [
        "h",
        "ath"
      ],
      [
        "Ġf",
        "la"
      ],
      [
        "Ġch",
        "ance"
      ],
      [
        "Ġsp",
        "ring"
      ],
      [
        "Ġv",
        "ast"
      ],
      [
        "Ġwor",
        "th"
      ],
      [
        "Ġpleas",
        "ant"
      ],
      [
        "Ġtem",
        "per"
      ],
      [
        "Ġh",
        "ither"
      ],
      [
        "re",
        "st"
      ],
      [
        "Ġf",
        "it"
      ],
      [
        "Ġg",
        "ates"
      ],
      [
        "Ġno",
        "body"
      ],
      [
        "Ġne",
        "ck"
      ],
      [
        "Ġmo",
        "ve"
      ],
      [
        "Ġatt",
        "ention"
      ],
      [
        "c",
        "ame"
      ],
      [
        "Ġ",
        "13"
      ],
      [
        "Ġh",
        "ide"
      ],
      [
        "Ġp",
        "ath"
      ],
      [
        "Ġin",
        "qu"
      ],
      [
        "Ġas",
        "ham"
      ],
      [
        "Ġme",
        "m"
      ],
      [
        "Ġocc",
        "asion"
      ],
      [
        "Ġlad",
        "ies"
      ],
      [
        "Ġef",
        "fect"
      ],
      [
        ".",
        "."
      ],
      [
        "Ġm",
        "ain"
      ],
      [
        "Ġd",
        "ut"
      ],
      [
        "Ġp",
        "ure"
      ],
      [
        "Ġfor",
        "mer"
      ],
      [
        "ren",
        "t"
      ],
      [
        "Ġar",
        "ise"
      ],
      [
        "Ġr",
        "am"
      ],
      [
        "ac",
        "y"
      ],
      [
        "Ġdes",
        "er"
      ],
      [
        "Ġcar",
        "riage"
      ],
      [
        "ush",
        "ed"
      ],
      [
        "Ġmonth",
        "s"
      ],
      [
        "Ġasham",
        "ed"
      ],
      [
        "r",
        "or"
      ],
      [
        "s",
        "per"
      ],
      [
        "Ġn",
        "igh"
      ],
      [
        "os",
        "en"
      ],
      [
        "Ġeag",
        "er"
      ],
      [
        "u",
        "ct"
      ],
      [
        "in",
        "ing"
      ],
      [
        "Ġw",
        "eak"
      ],
      [
        "Ġb",
        "ri"
      ],
      [
        "od",
        "e"
      ],
      [
        "ea",
        "ble"
      ],
      [
        "Ġv",
        "oy"
      ],
      [
        "Ġde",
        "ck"
      ],
      [
        "Ġle",
        "vi"
      ],
      [
        "Ġinst",
        "ead"
      ],
      [
        "Ġprep",
        "ared"
      ],
      [
        "d",
        "on"
      ],
      [
        "f",
        "irst"
      ],
      [
        "h",
        "ood"
      ],
      [
        "l",
        "ady"
      ],
      [
        "t",
        "is"
      ],
      [
        "th",
        "ings"
      ],
      [
        "Ġm",
        "al"
      ],
      [
        "is",
        "m"
      ],
      [
        "Ġd",
        "i"
      ],
      [
        "Ġse",
        "l"
      ],
      [
        "Ġgo",
        "es"
      ],
      [
        "Ġag",
        "o"
      ],
      [
        "lo",
        "y"
      ],
      [
        "Ġbr",
        "an"
      ],
      [
        "Ġmin",
        "ister"
      ],
      [
        "b",
        "et"
      ],
      [
        "g",
        "s"
      ],
      [
        "u",
        "ous"
      ],
      [
        "Ġs",
        "now"
      ],
      [
        "Ġl",
        "ot"
      ],
      [
        "Ġch",
        "a"
      ],
      [
        "Ġlook",
        "s"
      ],
      [
        "Ġheaven",
        "s"
      ],
      [
        "Ġmin",
        "ute"
      ],
      [
        "air",
        "s"
      ],
      [
        "Ġcoun",
        "sel"
      ],
      [
        "m",
        "ing"
      ],
      [
        "Ġ",
        "14"
      ],
      [
        "ri",
        "c"
      ],
      [
        "op",
        "e"
      ],
      [
        "me",
        "nd"
      ],
      [
        "11",
        "9"
      ],
      [
        "Ġpr",
        "odu"
      ],
      [
        "Ġsw",
        "ift"
      ],
      [
        "Ġsin",
        "s"
      ],
      [
        "Ġeng",
        "age"
      ],
      [
        "c",
        "ertain"
      ],
      [
        "h",
        "app"
      ],
      [
        "i",
        "res"
      ],
      [
        "m",
        "ade"
      ],
      [
        "m",
        "ined"
      ],
      [
        "Ġj",
        "ordan"
      ],
      [
        "Ġwhat",
        "ever"
      ],
      [
        "Ġwhere",
        "in"
      ],
      [
        "Ġimp",
        "ort"
      ],
      [
        "Ġchar",
        "iot"
      ],
      [
        "fa",
        "ir"
      ],
      [
        "iv",
        "ity"
      ],
      [
        "Ġsatis",
        "fied"
      ],
      [
        "Ġfamil",
        "ies"
      ],
      [
        "c",
        "il"
      ],
      [
        "d",
        "el"
      ],
      [
        "Ġt",
        "all"
      ],
      [
        "Ġf",
        "ixed"
      ],
      [
        "Ġp",
        "or"
      ],
      [
        "Ġch",
        "o"
      ],
      [
        "os",
        "ity"
      ],
      [
        "Ġpo",
        "st"
      ],
      [
        "Ġsc",
        "ri"
      ],
      [
        "Ġfri",
        "ght"
      ],
      [
        "Ġeng",
        "lish"
      ],
      [
        "Ġdestroy",
        "ed"
      ],
      [
        "Ġlu",
        "cy"
      ],
      [
        "Ġs",
        "cho"
      ],
      [
        "Ġh",
        "ang"
      ],
      [
        "nd",
        "on"
      ],
      [
        "Ġcount",
        "enance"
      ],
      [
        "4",
        "9"
      ],
      [
        "h",
        "on"
      ],
      [
        "j",
        "amin"
      ],
      [
        "th",
        "ink"
      ],
      [
        "Ġh",
        "un"
      ],
      [
        "Ġh",
        "ung"
      ],
      [
        "Ġw",
        "ished"
      ],
      [
        "re",
        "me"
      ],
      [
        "ad",
        "es"
      ],
      [
        "ck",
        "et"
      ],
      [
        "Ġch",
        "er"
      ],
      [
        "Ġde",
        "g"
      ],
      [
        "Ġwor",
        "ship"
      ],
      [
        "Ġus",
        "ual"
      ],
      [
        "Ġgl",
        "ass"
      ],
      [
        "Ġatt",
        "end"
      ],
      [
        "Ġgold",
        "en"
      ],
      [
        "m",
        "orrow"
      ],
      [
        "Ġb",
        "ath"
      ],
      [
        "Ġc",
        "and"
      ],
      [
        "Ġn",
        "ation"
      ],
      [
        "ch",
        "ief"
      ],
      [
        "all",
        "s"
      ],
      [
        "and",
        "on"
      ],
      [
        "Ġj",
        "ack"
      ],
      [
        "qu",
        "od"
      ],
      [
        "be",
        "en"
      ],
      [
        "Ġknow",
        "s"
      ],
      [
        "ep",
        "ing"
      ],
      [
        "tain",
        "ed"
      ],
      [
        "Ġship",
        "s"
      ],
      [
        "Ġte",
        "nder"
      ],
      [
        "Ġstar",
        "buck"
      ],
      [
        "tw",
        "o"
      ],
      [
        "Ġshad",
        "ow"
      ],
      [
        "cis",
        "co"
      ],
      [
        "5",
        "0"
      ],
      [
        "h",
        "ea"
      ],
      [
        "th",
        "ur"
      ],
      [
        "th",
        "us"
      ],
      [
        "Ġn",
        "aked"
      ],
      [
        "ch",
        "em"
      ],
      [
        "Ġwho",
        "soever"
      ],
      [
        "Ġmo",
        "ved"
      ],
      [
        "comm",
        "and"
      ],
      [
        "Ġp",
        "ip"
      ],
      [
        "Ġg",
        "host"
      ],
      [
        "Ġbe",
        "at"
      ],
      [
        "Ġar",
        "ch"
      ],
      [
        "Ġr",
        "us"
      ],
      [
        "Ġland",
        "s"
      ],
      [
        "Ġbur",
        "st"
      ],
      [
        "i",
        "ze"
      ],
      [
        "Ġh",
        "ot"
      ],
      [
        "ou",
        "l"
      ],
      [
        "Ġd",
        "ress"
      ],
      [
        "Ġp",
        "ill"
      ],
      [
        "Ġe",
        "tern"
      ],
      [
        "Ġwi",
        "de"
      ],
      [
        "am",
        "ing"
      ],
      [
        "ere",
        "m"
      ],
      [
        "ru",
        "d"
      ],
      [
        "Ġhar",
        "v"
      ],
      [
        "Ġcre",
        "ature"
      ],
      [
        "cc",
        "ess"
      ],
      [
        "Ġfore",
        "st"
      ],
      [
        "Ġfield",
        "s"
      ],
      [
        "say",
        "ing"
      ],
      [
        "Ġentire",
        "ly"
      ],
      [
        "'",
        "re"
      ],
      [
        ")",
        ","
      ],
      [
        "k",
        "iah"
      ],
      [
        "Ġd",
        "ust"
      ],
      [
        "Ġgo",
        "ver"
      ],
      [
        "Ġab",
        "omin"
      ],
      [
        "Ġgre",
        "w"
      ],
      [
        "ak",
        "er"
      ],
      [
        "Ġdel",
        "ic"
      ],
      [
        "pe",
        "cially"
      ],
      [
        "Ġcre",
        "w"
      ],
      [
        "Ġte",
        "ars"
      ],
      [
        "Ġmus",
        "g"
      ],
      [
        "Ġfort",
        "une"
      ],
      [
        "Ġeld",
        "ers"
      ],
      [
        "Ġconvers",
        "ation"
      ],
      [
        "b",
        "ury"
      ],
      [
        "at",
        "ic"
      ],
      [
        "Ġcon",
        "sequ"
      ],
      [
        "ĠĠĠĠ",
        "ĠĠ"
      ],
      [
        "Ġr",
        "ising"
      ],
      [
        "ark",
        "s"
      ],
      [
        "atter",
        "ed"
      ],
      [
        "oura",
        "ge"
      ],
      [
        "Ġcuri",
        "ous"
      ],
      [
        "Ġmeas",
        "ure"
      ],
      [
        "Ġpub",
        "lic"
      ],
      [
        ")",
        "."
      ]
    ]
  }
}