{
  "version": "1.0",
  "truncation": null,
  "padding": null,
  "added_tokens": [
    {
      "id": 0,
      "content": "[PAD]",
      "single_word": false,
      "lstrip": false,
      "rstrip": false,
      "normalized": false,
      "special": true
    },
    {
      "id": 1,
      "content": "[UNK]",
      "single_word": false,
      "lstrip": false,
      "rstrip": false,
      "normalized": false,
      "special": true
    },
    {
      "id": 2,
      "content": "[CLS]",
      "single_word": false,
      "lstrip": false,
      "rstrip": false,
      "normalized": false,
      "special": true
    },
    {
      "id": 3,
      "content": "[SEP]",
      "single_word": false,
      "lstrip": false,
      "rstrip": false,
      "normalized": false,
      "special": true
    },
    {
      "id": 4,
      "content": "[MASK]",
      "single_word": false,
      "lstrip": false,
      "rstrip": false,
      "normalized": false,
      "special": true
    }
  ],
  "normalizer": {
    "type": "Sequence",
    "normalizers": [
      {
        "type": "NFKC"
      },
      {
        "type": "Lowercase"
      }
    ]
  },
  "pre_tokenizer": {
    "type": "ByteLevel",
    "add_prefix_space": false,
    "trim_offsets": true,
    "use_regex": true
  },
  "post_processor": null,
  "decoder": null,
  "model": {
    "type": "BPE",
    "dropout": null,
    "unk_token": "[UNK]",
    "continuing_subword_prefix": null,
    "end_of_word_suffix": null,
    "fuse_unk": false,
    "byte_fallback": false,
    "ignore_merges": false,
    "vocab": {
      "[PAD]": 0,
      "[UNK]": 1,
      "[CLS]": 2,
      "[SEP]": 3,
      "[MASK]": 4,
      "!": 5,
      "\"": 6,
      "#": 7,
      "$": 8,
      "%": 9,
      "&": 10,
      "'": 11,
      "(": 12,
      ")": 13,
      "*": 14,
      "+": 15,
      ",": 16,
      "-": 17,
      ".": 18,
      "/": 19,
      "0": 20,
      "1": 21,
      "2": 22,
      "3": 23,
      "4": 24,
      "5": 25,
      "6": 26,
      "7": 27,
      "8": 28,
      "9": 29,
      ":": 30,
      ";": 31,
      "<": 32,
      "=": 33,
      ">": 34,
      "?": 35,
      "@": 36,
      "[": 37,
      "\\": 38,
      "]": 39,
      "^": 40,
      "_": 41,
      "`": 42,
      "a": 43,
      "b": 44,
      "c": 45,
      "d": 46,
      "e": 47,
      "f": 48,
      "g": 49,
      "h": 50,
      "i": 51,
      "j": 52,
      "k": 53,
      "l": 54,
      "m": 55,
      "n": 56,
      "o": 57,
      "p": 58,
      "q": 59,
      "r": 60,
      "s": 61,
      "t": 62,
      "u": 63,
      "v": 64,
      "w": 65,
      "x": 66,
      "y": 67,
      "z": 68,
      "|": 69,
      "}": 70,
      "~": 71,
      "¡": 72,
      "¢": 73,
      "£": 74,
      "¤": 75,
      "¥": 76,
      "¦": 77,
      "§": 78,
      "¨": 79,
      "©": 80,
      "ª": 81,
      "«": 82,
      "¬": 83,
      "®": 84,
      "¯": 85,
      "°": 86,
      "±": 87,
      "²": 88,
      "³": 89,
      "´": 90,
      "µ": 91,
      "¶": 92,
      "·": 93,
      "¸": 94,
      "¹": 95,
      "º": 96,
      "»": 97,
      "¼": 98,
      "½": 99,
      "¾": 100,
      "¿": 101,
      "Â": 102,
      "Ã": 103,
      "Ä": 104,
      "Å": 105,
      "Æ": 106,
      "Ç": 107,
      "È": 108,
      "É": 109,
      "Ê": 110,
      "Ë": 111,
      "Ì": 112,
      "Í": 113,
      "Î": 114,
      "Ï": 115,
      "Ð": 116,
      "Ñ": 117,
      "Ö": 118,
      "×": 119,
      "Ø": 120,
      "Ù": 121,
      "Ü": 122,
      "à": 123,
      "á": 124,
      "â": 125,
      "ã": 126,
      "ä": 127,
      "å": 128,
      "æ": 129,
      "ç": 130,
      "è": 131,
      "é": 132,
      "ë": 133,
      "ì": 134,
      "ï": 135,
      "Ċ": 136,
      "č": 137,
      "Ě": 138,
      "Ġ": 139,
      "Ģ": 140,
      "ģ": 141,
      "Ĥ": 142,
      "ĥ": 143,
      "Ħ": 144,
      "ħ": 145,
      "Ĩ": 146,
      "ĩ": 147,
      "Ī": 148,
      "ī": 149,
      "Ĭ": 150,
      "ĭ": 151,
      "Į": 152,
      "į": 153,
      "İ": 154,
      "ı": 155,
      "Ĳ": 156,
      "ĳ": 157,
      "Ĵ": 158,
      "ĵ": 159,
      "Ķ": 160,
      "ķ": 161,
      "ĸ": 162,
      "Ĺ": 163,
      "ĺ": 164,
      "Ļ": 165,
      "ļ": 166,
      "Ľ": 167,
      "ľ": 168,
      "Ŀ": 169,
      "ŀ": 170,
      "Ł": 171,
      "ł": 172,
      "Ń": 173,
      "Ġt": 174,
      "he": 175,
      "Ġa": 176,
      "Ġthe": 177,
      "in": 178,
      "Ġs": 179,
      "Ġo": 180,
      "re": 181,
      "Ġw": 182,
      "nd": 183,
      "er": 184,
      "Ġb": 185,
      "ha": 186,
      "Ġc": 187,
      "on": 188,
      "Ġf": 189,
      "Ġm": 190,
      "it": 191,
      "ed": 192,
      "is": 193,
      "Ġand": 194,
      "or": 195,
      "Ġof": 196,
      "ou": 197,
      "en": 198,
      "es": 199,
      "Ġp": 200,
      "ing": 201,
      "Ġin": 202,
      "Ġd": 203,
      "ar": 204,
      "ll": 205,
      "at": 206,
      "Ġ,": 207,
      "an": 208,
      "Ġto": 209,
      "Ġl": 210,
      "as": 211,
      "Ġh": 212,
      "Ġn": 213,
      "Ġ.": 214,
      "om": 215,
      "Ġhe": 216,
      "Ġg": 217,
      "ic": 218,
      "le": 219,
      "Ġe": 220,
      "Ġbe": 221,
      "al": 222,
      "Ġha": 223,
      "ion": 224,
      "st": 225,
      "Ġth": 226,
      "ot": 227,
      "hat": 228,
      "Ġre": 229,
      "čĊ": 230,
      "Ġu": 231,
      "ent": 232,
      "ve": 233,
      "ow": 234,
      "Ġi": 235,
      "se": 236,
      "ut": 237,
      "id": 238,
      "Ġfor": 239,
      "Ġthat": 240,
      "ld": 241,
      "Ġwas": 242,
      "ac": 243,
      "ro": 244,
      "Ġon": 245,
      "Ġy": 246,
      "im": 247,
      "gh": 248,
      "ay": 249,
      "et": 250,
      "ly": 251,
      "ith": 252,
      "am": 253,
      "ver": 254,
      "ir": 255,
      "Ġst": 256,
      "Ġit": 257,
      "ur": 258,
      "Ġas": 259,
      "Ġ\"": 260,
      "ĠĊ": 261,
      "Ġis": 262,
      "Ġwith": 263,
      "ad": 264,
      "ri": 265,
      "th": 266,
      "Ġhis": 267,
      "Ġwh": 268,
      "Ġ=": 269,
      "and": 270,
      "ce": 271,
      "Ġ1": 272,
      "her": 273,
      "ter": 274,
      "Ġwe": 275,
      "Ġan": 276,
      "Ġse": 277,
      "Ġk": 278,
      "Ġj": 279,
      "od": 280,
      "il": 281,
      "ct": 282,
      "Ġr": 283,
      "Ġnot": 284,
      "ain": 285,
      "Ġyou": 286,
      "Ġ@": 287,
      "Ġat": 288,
      "ch": 289,
      "ght": 290,
      "Ġde": 291,
      "to": 292,
      "ill": 293,
      "all": 294,
      "Ġfr": 295,
      "Ġby": 296,
      "ation": 297,
      "ore": 298,
      "us": 299,
      "Ġ'": 300,
      "Ġun": 301,
      "est": 302,
      "Ġcom": 303,
      "ord": 304,
      "ĠĠ": 305,
      "Ġv": 306,
      "Ġcon": 307,
      "Ġsu": 308,
      "ak": 309,
      "ol": 310,
      "Ġal": 311,
      "pe": 312,
      "ul": 313,
      "Ġfrom": 314,
      "Ġme": 315,
      "red": 316,
      "Ġall": 317,
      "ag": 318,
      "-@": 319,
      "Ġ@-@": 320,
      "Ġsa": 321,
      "the": 322,
      "Ġ2": 323,
      "Ġher": 324,
      "ess": 325,
      "el": 326,
      "Ġhim": 327,
      "ra": 328,
      "Ġthey": 329,
      "Ġsha": 330,
      "Ġbut": 331,
      "Ġhad": 332,
      "ich": 333,
      "ers": 334,
      "Ġne": 335,
      "um": 336,
      "if": 337,
      "ould": 338,
      "qu": 339,
      "em": 340,
      "Ġwhe": 341,
      "os": 342,
      "Ġwere": 343,
      "res": 344,
      "ard": 345,
      "ong": 346,
      "ab": 347,
      "un": 348,
      "ant": 349,
      "Ġ(": 350,
      "ame": 351,
      "Ġwhich": 352,
      "Ġso": 353,
      "Ġhave": 354,
      "Ġshe": 355,
      "ight": 356,
      "Ġsh": 357,
      "ist": 358,
      "Ġare": 359,
      "Ġor": 360,
      "our": 361,
      "Ġup": 362,
      "ive": 363,
      "Ġthis": 364,
      "op": 365,
      "Ġthem": 366,
      "ie": 367,
      "art": 368,
      "Ġman": 369,
      "ate": 370,
      "Ġ)": 371,
      "ast": 372,
      "iv": 373,
      "pt": 374,
      "ies": 375,
      "Ġgo": 376,
      "ig": 377,
      "Ġmy": 378,
      "Ġle": 379,
      "Ġtheir": 380,
      "Ġpro": 381,
      "Ġex": 382,
      "Ġpl": 383,
      "Ġthou": 384,
      "pp": 385,
      "rou": 386,
      "ort": 387,
      "Ġ19": 388,
      "Ġshall": 389,
      "Ġlo": 390,
      "ok": 391,
      "ity": 392,
      "ud": 393,
      "Ġch": 394,
      "ust": 395,
      "ine": 396,
      "Ġthere": 397,
      "'s": 398,
      "00": 399,
      "han": 400,
      "out": 401,
      "Ġsaid": 402,
      "Ġye": 403,
      "ous": 404,
      "Ġab": 405,
      "--": 406,
      "Ġar": 407,
      "Ġone": 408,
      "Ġdo": 409,
      "own": 410,
      "Ġno": 411,
      "Ġam": 412,
      "ge": 413,
      "Ġaf": 414,
      "Ġsp": 415,
      "ome": 416,
      "very": 417,
      "ren": 418,
      "Ġro": 419,
      "Ġwho": 420,
      "Ġfe": 421,
      "Ġco": 422,
      "Ġout": 423,
      "ack": 424,
      "Ġwill": 425,
      "ke": 426,
      "Ġunto": 427,
      "ment": 428,
      "ven": 429,
      "so": 430,
      "ber": 431,
      "Ġwhen": 432,
      "Ġlord": 433,
      "we": 434,
      "Ġbr": 435,
      "one": 436,
      "Ġkn": 437,
      "Ġag": 438,
      "ip": 439,
      "Ġwor": 440,
      "Ġtr": 441,
      "Ġmo": 442,
      "ake": 443,
      "ated": 444,
      "ish": 445,
      "au": 446,
      "ind": 447,
      "fe": 448,
      "ide": 449,
      "ther": 450,
      "ck": 451,
      "sel": 452,
      "Ġen": 453,
      "ure": 454,
      "Ġtw": 455,
      "ian": 456,
      "ass": 457,
      "oun": 458,
      "Ġpr": 459,
      "ace": 460,
      "ally": 461,
      "fore": 462,
      "ound": 463,
      "Ġcha": 464,
      "lo": 465,
      "ia": 466,
      "cc": 467,
      "per": 468,
      "urn": 469,
      "ings": 470,
      "hed": 471,
      "Ġus": 472,
      "of": 473,
      "ue": 474,
      "itt": 475,
      "Ġad": 476,
      "Ġca": 477,
      "ice": 478,
      "Ġtim": 479,
      "Ġafter": 480,
      "Ġfir": 481,
      "Ġcomp": 482,
      "ite": 483,
      "reat": 484,
      "ild": 485,
      "Ġli": 486,
      "Ġbeen": 487,
      "av": 488,
      "Ġsc": 489,
      "Ġte": 490,
      "te": 491,
      "Ġmore": 492,
      "cl": 493,
      "ry": 494,
      "Ġper": 495,
      "ree": 496,
      "ary": 497,
      "ire": 498,
      "ade": 499,
      "Ġinto": 500,
      "Ġgod": 501,
      "Ġfirst": 502,
      "Ġpe": 503,
      "Ġwould": 504,
      "ars": 505,
      "ance": 506,
      "Ġday": 507,
      "Ġother": 508,
      "Ġthen": 509,
      "Ġcl": 510,
      "Ġover": 511,
      "Ġcan": 512,
      "Ġâ": 513,
      "Ġpo": 514,
      "nder": 515,
      "Ġagain": 516,
      "Ġoff": 517,
      "Ġalso": 518,
      "be": 519,
      "age": 520,
      "ions": 521,
      "Ġfo": 522,
      ".\"": 523,
      "Ġwhat": 524,
      "eth": 525,
      "Ġtwo": 526,
      "Ġbo": 527,
      "ĠâĢ": 528,
      "Ġ3": 529,
      "way": 530,
      "Ġdis": 531,
      "Ġcont": 532,
      "ence": 533,
      "Ġim": 534,
      "ile": 535,
      "Ġbec": 536,
      "ub": 537,
      "ather": 538,
      "Ġyour": 539,
      "Ġser": 540,
      "Ġthy": 541,
      "Ġmar": 542,
      "Ġcomm": 543,
      "ved": 544,
      "ne": 545,
      "Ġqu": 546,
      "for": 547,
      "other": 548,
      "Ġif": 549,
      "ount": 550,
      "co": 551,
      "self": 552,
      "Ġpart": 553,
      "ick": 554,
      "able": 555,
      "wn": 556,
      "les": 557,
      "ward": 558,
      "Ġtime": 559,
      "Ġdes": 560,
      "ign": 561,
      "Ġits": 562,
      "Ġsay": 563,
      "ach": 564,
      "Ġspe": 565,
      "ru": 566,
      "Ġear": 567,
      "Ġnow": 568,
      "Ġhas": 569,
      "ied": 570,
      "Ġri": 571,
      "Ġpre": 572,
      "Ġho": 573,
      "Ġthan": 574,
      "ial": 575,
      "Ġhow": 576,
      "Ġsome": 577,
      "Ġany": 578,
      "ap": 579,
      ",\"": 580,
      "are": 581,
      "Ġlike": 582,
      "Ġjo": 583,
      "ater": 584,
      "ress": 585,
      "Ġbefore": 586,
      "ction": 587,
      "ull": 588,
      "Ġbl": 589,
      "ted": 590,
      "Ġupon": 591,
      "ans": 592,
      "Ġmay": 593,
      "ory": 594,
      "Ġres": 595,
      "ious": 596,
      "ons": 597,
      "ouse": 598,
      "Ġgr": 599,
      "Ġnew": 600,
      "ath": 601,
      "ical": 602,
      "ble": 603,
      "ations": 604,
      "Ġthee": 605,
      "Ġcould": 606,
      "Ġ200": 607,
      "ts": 608,
      "ho": 609,
      "Ġking": 610,
      "pl": 611,
      "ĠĠĠĠ": 612,
      "ise": 613,
      "but": 614,
      "igh": 615,
      "Ġonly": 616,
      "Ġind": 617,
      "Ġvery": 618,
      "Ġfl": 619,
      "Ġnor": 620,
      "Ġhand": 621,
      "Ġdid": 622,
      "Ġgreat": 623,
      "man": 624,
      "Ġabout": 625,
      "Ġmade": 626,
      "Ġ;": 627,
      "ness": 628,
      "land": 629,
      "ink": 630,
      "oth": 631,
      "Ġknow": 632,
      "Ġwr": 633,
      "Ġwhere": 634,
      "ose": 635,
      "ep": 636,
      "Ġsee": 637,
      "Ġthese": 638,
      "orn": 639,
      "Ġrem": 640,
      "iz": 641,
      "Ġ20": 642,
      "Ġbet": 643,
      "Ġ4": 644,
      "Ġchar": 645,
      "ĠâĢĵ": 646,
      "iss": 647,
      "ause": 648,
      "Ġdown": 649,
      "Ġunder": 650,
      "Ġap": 651,
      "ople": 652,
      "Ġsuch": 653,
      "Ġcr": 654,
      "Ġ:": 655,
      "Ġplay": 656,
      "Ġrec": 657,
      "Ġacc": 658,
      "Ġsm": 659,
      "rough": 660,
      "Ġcame": 661,
      "act": 662,
      "ition": 663,
      "Ġwork": 664,
      "llow": 665,
      "ces": 666,
      "ife": 667,
      "Ġmost": 668,
      "Ġmr": 669,
      "Ġevery": 670,
      "ang": 671,
      "ult": 672,
      "ah": 673,
      "Ġbeg": 674,
      "Ġ5": 675,
      "Ġcome": 676,
      "uch": 677,
      "ittle": 678,
      "ough": 679,
      "Ġpeople": 680,
      "Ġeven": 681,
      "ood": 682,
      "Ġsou": 683,
      "Ġhar": 684,
      "Ġev": 685,
      "Ġatt": 686,
      "Ġhouse": 687,
      "Ġem": 688,
      "Ġgood": 689,
      "ced": 690,
      "Ġchild": 691,
      "Ġthrough": 692,
      "leas": 693,
      "ft": 694,
      "Ġland": 695,
      "og": 696,
      "Ġ18": 697,
      "Ġmen": 698,
      "Ġcall": 699,
      "Ġlong": 700,
      "ix": 701,
      "Ġwell": 702,
      "ens": 703,
      "uring": 704,
      "Ġlittle": 705,
      "Ġcar": 706,
      "Ġcons": 707,
      "Ġagainst": 708,
      "ily": 709,
      "Ġlet": 710,
      "ark": 711,
      "ff": 712,
      "ect": 713,
      "ors": 714,
      "vel": 715,
      "vers": 716,
      "Ġend": 717,
      "du": 718,
      "ph": 719,
      "Ġel": 720,
      ".@": 721,
      "Ġ@.@": 722,
      "Ġown": 723,
      "Ġlook": 724,
      "med": 725,
      "that": 726,
      "Ġfather": 727,
      "Ġson": 728,
      "ever": 729,
      "Ġrep": 730,
      "Ġwhile": 731,
      "clud": 732,
      "hes": 733,
      "Ġold": 734,
      "led": 735,
      "round": 736,
      "10": 737,
      "Ġthree": 738,
      "Ġla": 739,
      "ail": 740,
      "ful": 741,
      "Ġshould": 742,
      "Ġstr": 743,
      "Ġpass": 744,
      "Ġret": 745,
      "ents": 746,
      "ates": 747,
      "ale": 748,
      "Ġhigh": 749,
      "Ġbeing": 750,
      "me": 751,
      "li": 752,
      "Ġpres": 753,
      "Ġmuch": 754,
      "ves": 755,
      "Ġmany": 756,
      "Ġsong": 757,
      "ict": 758,
      "Ġway": 759,
      "Ġinter": 760,
      "Ġour": 761,
      "Ġset": 762,
      "ason": 763,
      "11": 764,
      "Ġwar": 765,
      "Ġcent": 766,
      "ited": 767,
      "Ġimp": 768,
      "ĠĠĠ": 769,
      "Ġent": 770,
      "ave": 771,
      "Ġke": 772,
      "Ġgen": 773,
      "Ġapp": 774,
      "Ġop": 775,
      "ert": 776,
      "Ġworld": 777,
      "rie": 778,
      "rael": 779,
      "ters": 780,
      "Ġbu": 781,
      "Ġwent": 782,
      "oss": 783,
      "ving": 784,
      "Ġfound": 785,
      "Ġturn": 786,
      "Ġob": 787,
      "Ġduring": 788,
      "Ġfin": 789,
      "Ġeng": 790,
      "Ġmake": 791,
      "alk": 792,
      "ried": 793,
      "Ġinclud": 794,
      "ning": 795,
      "ty": 796,
      "Ġac": 797,
      "Ġbecause": 798,
      "Ġsy": 799,
      "Ġsin": 800,
      "Ġsub": 801,
      ",@": 802,
      "Ġ@,@": 803,
      "Ġbel": 804,
      "Ġreg": 805,
      "Ġbre": 806,
      "Ġmon": 807,
      "ween": 808,
      "Ġ6": 809,
      "ished": 810,
      "ps": 811,
      "Ġhead": 812,
      "de": 813,
      "Ġback": 814,
      "als": 815,
      "Ġword": 816,
      "ci": 817,
      "Ġma": 818,
      "Ġcity": 819,
      "Ġfollow": 820,
      "Ġisrael": 821,
      "Ġact": 822,
      "att": 823,
      "Ġform": 824,
      "Ġbetween": 825,
      "12": 826,
      "'d": 827,
      "Ġchildren": 828,
      "13": 829,
      "ither": 830,
      "its": 831,
      "Ġ7": 832,
      "Ġmight": 833,
      "Ġsl": 834,
      "Ġmust": 835,
      "Ġmin": 836,
      "Ġgu": 837,
      "Ġmus": 838,
      "Ġz": 839,
      "wh": 840,
      "Ġinc": 841,
      "Ġgl": 842,
      "ular": 843,
      "cted": 844,
      "Ġfour": 845,
      "ank": 846,
      "Ġboth": 847,
      "Ġyears": 848,
      "ss": 849,
      "ase": 850,
      "Ġvo": 851,
      "with": 852,
      "'t": 853,
      "Ġsupp": 854,
      "rig": 855,
      "mo": 856,
      "Ġhath": 857,
      "ower": 858,
      "sh": 859,
      "Ġnever": 860,
      "int": 861,
      "ng": 862,
      "get": 863,
      "Ġaway": 864,
      "Ġappe": 865,
      "14": 866,
      "ody": 867,
      "ric": 868,
      "ield": 869,
      "?\"": 870,
      "ady": 871,
      "Ġsw": 872,
      "Ġlife": 873,
      "Ġrel": 874,
      "cond": 875,
      "ins": 876,
      "Ġcount": 877,
      "Ġjust": 878,
      "ubl": 879,
      "lt": 880,
      "ane": 881,
      "Ġyear": 882,
      "Ġgame": 883,
      "not": 884,
      "ities": 885,
      "ib": 886,
      "Ġnum": 887,
      "Ġey": 888,
      "Ġass": 889,
      "ual": 890,
      "ised": 891,
      "Ġname": 892,
      "lf": 893,
      "Ġpri": 894,
      "ived": 895,
      "Ġlar": 896,
      "Ġsur": 897,
      "amp": 898,
      "Ġinst": 899,
      "ared": 900,
      "Ġ9": 901,
      "Ġthose": 902,
      "Ġright": 903,
      "ating": 904,
      "ern": 905,
      "Ġgener": 906,
      "Ġsecond": 907,
      "Ġthink": 908,
      "Ġyet": 909,
      "Ġart": 910,
      "up": 911,
      "Ġ8": 912,
      "Ġed": 913,
      "15": 914,
      "Ġtake": 915,
      "Ġsame": 916,
      "Ġdr": 917,
      "Ġfil": 918,
      "ms": 919,
      "Ġsing": 920,
      "cept": 921,
      "ton": 922,
      "Ġjud": 923,
      "my": 924,
      "ject": 925,
      "ury": 926,
      "Ġlast": 927,
      "ird": 928,
      "ained": 929,
      "by": 930,
      "Ġcalled": 931,
      "ug": 932,
      "Ġopen": 933,
      "Ġrecord": 934,
      "air": 935,
      "Ġplace": 936,
      "Ġthough": 937,
      "oman": 938,
      "Ġele": 939,
      "Ġever": 940,
      "ames": 941,
      "ering": 942,
      "Ġdep": 943,
      "ron": 944,
      "Ġcol": 945,
      "Ġmiss": 946,
      "Ġthought": 947,
      "Ġput": 948,
      "hen": 949,
      "aking": 950,
      "Ġearth": 951,
      "riend": 952,
      "Ġair": 953,
      "Ġreturn": 954,
      "und": 955,
      "Ġste": 956,
      "Ġanother": 957,
      "ision": 958,
      "Ġsom": 959,
      "Ġchan": 960,
      "Ġserv": 961,
      "Ġgive": 962,
      "ote": 963,
      "iew": 964,
      "Ġpar": 965,
      "Ġlater": 966,
      "16": 967,
      "Ġthings": 968,
      "Ġprodu": 969,
      "hing": 970,
      "Ġamong": 971,
      "Ġfam": 972,
      "ible": 973,
      "Ġdist": 974,
      "Ġhowever": 975,
      "ines": 976,
      "Ġhimself": 977,
      "Ġheart": 978,
      "ments": 979,
      "Ġthing": 980,
      "Ġpol": 981,
      "ret": 982,
      "Ġnorth": 983,
      "you": 984,
      "Ġwithout": 985,
      "Ġsaw": 986,
      "hold": 987,
      "Ġpers": 988,
      "Ġmat": 989,
      "Ġadd": 990,
      "eric": 991,
      "tern": 992,
      "Ġship": 993,
      "Ġcommand": 994,
      "less": 995,
      "mb": 996,
      "Ġtook": 997,
      "Ġsim": 998,
      "Ġph": 999,
      "Ġseem": 1000,
      "ral": 1001,
      "cri": 1002,
      "ures": 1003,
      "ged": 1004,
      "row": 1005,
      "ational": 1006,
      "ific": 1007,
      "Ġtri": 1008,
      "Ġcapt": 1009,
      "mber": 1010,
      "ants": 1011,
      "no": 1012,
      "Ġrest": 1013,
      "Ġfriend": 1014,
      "Ġlove": 1015,
      "Ġspec": 1016,
      "Ġ199": 1017,
      "Ġstill": 1018,
      "ma": 1019,
      "Ġbro": 1020,
      "Ġnight": 1021,
      "fect": 1022,
      "Ġsaying": 1023,
      "Ġpubl": 1024,
      "Ġseason": 1025,
      "Ġje": 1026,
      "Ġinv": 1027,
      "Ġfar": 1028,
      "feren": 1029,
      "olog": 1030,
      "ined": 1031,
      "Ġsouth": 1032,
      "Ġknown": 1033,
      "ains": 1034,
      "Ġgiv": 1035,
      "Ġter": 1036,
      "ner": 1037,
      "Ġmid": 1038,
      "Ġcontin": 1039,
      "ross": 1040,
      "Ġbegan": 1041,
      "cy": 1042,
      "ling": 1043,
      "ired": 1044,
      "Ġdec": 1045,
      "Ġyoung": 1046,
      "cha": 1047,
      "Ġdire": 1048,
      "20": 1049,
      "az": 1050,
      "Ġtoo": 1051,
      "Ġused": 1052,
      "Ġnear": 1053,
      "Ġhere": 1054,
      "Ġtrans": 1055,
      "rew": 1056,
      "Ġrece": 1057,
      "!\"": 1058,
      "Ġexp": 1059,
      "any": 1060,
      "rop": 1061,
      "ys": 1062,
      "Ġameric": 1063,
      "Ġnat": 1064,
      "augh": 1065,
      "hn": 1066,
      "rought": 1067,
      "Ġbas": 1068,
      "aven": 1069,
      "ek": 1070,
      "Ġinf": 1071,
      "Ġdays": 1072,
      "Ġdif": 1073,
      "Ġ00": 1074,
      "Ġdeath": 1075,
      "Ġeach": 1076,
      "po": 1077,
      "Ġsent": 1078,
      "Ġstand": 1079,
      "Ġside": 1080,
      "Ġwha": 1081,
      "well": 1082,
      "Ġchr": 1083,
      "Ġdiv": 1084,
      "wards": 1085,
      "Ġce": 1086,
      "Ġreleas": 1087,
      "18": 1088,
      "Ġlight": 1089,
      "Ġconf": 1090,
      "ier": 1091,
      "Ġsea": 1092,
      "til": 1093,
      "Ġalb": 1094,
      "Ġwest": 1095,
      "Ġint": 1096,
      "Ġbelie": 1097,
      "Ġrun": 1098,
      "uth": 1099,
      "Ġpa": 1100,
      "ording": 1101,
      "17": 1102,
      "Ġhel": 1103,
      "Ġ10": 1104,
      "she": 1105,
      "Ġep": 1106,
      "pect": 1107,
      "Ġbatt": 1108,
      "Ġleft": 1109,
      "Ġest": 1110,
      "Ġjohn": 1111,
      "Ġbar": 1112,
      "ics": 1113,
      "ash": 1114,
      "Ġchur": 1115,
      "19": 1116,
      "ued": 1117,
      "Ġtherefore": 1118,
      "Ġwater": 1119,
      "Ġcare": 1120,
      "Ġshow": 1121,
      "bo": 1122,
      "Ġdel": 1123,
      "Ġcour": 1124,
      "ertain": 1125,
      "Ġang": 1126,
      "Ġheard": 1127,
      "Ġsign": 1128,
      "Ġnumber": 1129,
      "ork": 1130,
      "Ġstate": 1131,
      "Ġbest": 1132,
      "Ġwhom": 1133,
      "xt": 1134,
      "Ġref": 1135,
      "Ġfilm": 1136,
      "Ġsmall": 1137,
      "io": 1138,
      "Ġsix": 1139,
      "Ġmrs": 1140,
      "osed": 1141,
      "Ġmother": 1142,
      "Ġalbum": 1143,
      "ting": 1144,
      "Ġpur": 1145,
      "Ġwind": 1146,
      "Ġearly": 1147,
      "though": 1148,
      "Ġhist": 1149,
      "ites": 1150,
      "Ġmet": 1151,
      "Ġadv": 1152,
      "Ġcur": 1153,
      "most": 1154,
      "Ġport": 1155,
      "Ġmount": 1156,
      "Ġshalt": 1157,
      "ched": 1158,
      "gy": 1159,
      "Ġsch": 1160,
      "ten": 1161,
      "Ġstud": 1162,
      "Ġcharac": 1163,
      "form": 1164,
      "Ġinte": 1165,
      "ually": 1166,
      "Ġmil": 1167,
      "Ġalong": 1168,
      "Ġrev": 1169,
      "ured": 1170,
      "Ġsince": 1171,
      "Ġlaw": 1172,
      "nded": 1173,
      "aken": 1174,
      "Ġseries": 1175,
      "ets": 1176,
      "Ġins": 1177,
      "Ġbecame": 1178,
      "Ġtre": 1179,
      "Ġaccording": 1180,
      "Ġhum": 1181,
      "Ġuntil": 1182,
      "Ġra": 1183,
      "Ġhear": 1184,
      "Ġdav": 1185,
      "Ġsil": 1186,
      "ways": 1187,
      "gether": 1188,
      "rest": 1189,
      "Ġhast": 1190,
      "21": 1191,
      "Ġthus": 1192,
      "Ġhome": 1193,
      "Ġloc": 1194,
      "Ġsever": 1195,
      "Ġeyes": 1196,
      "what": 1197,
      "Ġlarge": 1198,
      "Ġ0": 1199,
      "here": 1200,
      "22": 1201,
      "Ġface": 1202,
      "ode": 1203,
      "Ġtell": 1204,
      "Ġhapp": 1205,
      "Ġprop": 1206,
      "Ġlead": 1207,
      "els": 1208,
      "Ġblo": 1209,
      "Ġposs": 1210,
      "Ġchurch": 1211,
      "Ġconc": 1212,
      "bed": 1213,
      "Ġfive": 1214,
      "Ġmusic": 1215,
      "der": 1216,
      "gr": 1217,
      "Ġtem": 1218,
      "Ġbrought": 1219,
      "Ġmain": 1220,
      "Ġpop": 1221,
      "Ġ000": 1222,
      "ently": 1223,
      "iah": 1224,
      "ple": 1225,
      "Ġheaven": 1226,
      "ked": 1227,
      "his": 1228,
      "Ġgre": 1229,
      "Ġseveral": 1230,
      "elt": 1231,
      "Ġfull": 1232,
      "ilt": 1233,
      "hip": 1234,
      "Ġcle": 1235,
      "Ġfire": 1236,
      "Ġhalf": 1237,
      "Ġconst": 1238,
      "Ġround": 1239,
      "ont": 1240,
      "Ġcoll": 1241,
      "Ġwat": 1242,
      "Ġdone": 1243,
      "ned": 1244,
      "Ġtra": 1245,
      "com": 1246,
      "ense": 1247,
      "Ġwhite": 1248,
      "Ġbook": 1249,
      "Ġorig": 1250,
      "ately": 1251,
      "Ġmill": 1252,
      "Ġ16": 1253,
      "Ġsoon": 1254,
      "Ġocc": 1255,
      "Ġfind": 1256,
      "Ġblack": 1257,
      "ute": 1258,
      "ided": 1259,
      "Ġpleas": 1260,
      "Ġdescri": 1261,
      "Ġes": 1262,
      "sha": 1263,
      "mer": 1264,
      "Ġdest": 1265,
      "Ġcomple": 1266,
      "Ġvoice": 1267,
      "ser": 1268,
      "Ġchrist": 1269,
      "Ġprom": 1270,
      "ember": 1271,
      "une": 1272,
      "Ġbehold": 1273,
      "Ġfore": 1274,
      "Ġdavid": 1275,
      "Ġnothing": 1276,
      "Ġ15": 1277,
      "yl": 1278,
      "now": 1279,
      "Ġpower": 1280,
      "Ġprov": 1281,
      "Ġstar": 1282,
      "Ġans": 1283,
      "Ġwant": 1284,
      "Ġ12": 1285,
      "br": 1286,
      "iet": 1287,
      "Ġsat": 1288,
      "Ġvis": 1289,
      "selves": 1290,
      "Ġprev": 1291,
      "velop": 1292,
      "Ġseen": 1293,
      "den": 1294,
      "Ġsec": 1295,
      "Ġcond": 1296,
      "ered": 1297,
      "Ġorigin": 1298,
      "Ġgave": 1299,
      "ized": 1300,
      "eter": 1301,
      "Ġche": 1302,
      "ement": 1303,
      "Ġinde": 1304,
      "iting": 1305,
      "uc": 1306,
      "iness": 1307,
      "Ġspir": 1308,
      "Ġstor": 1309,
      "Ġgold": 1310,
      "ham": 1311,
      "Ġwalk": 1312,
      "Ġsk": 1313,
      "Ġuse": 1314,
      "Ġonce": 1315,
      "Ġstart": 1316,
      "Ġcast": 1317,
      "vern": 1318,
      "anc": 1319,
      "Ġwithin": 1320,
      "let": 1321,
      "ister": 1322,
      "Ġvar": 1323,
      "Ġbrit": 1324,
      "na": 1325,
      "Ġshort": 1326,
      "Ġbring": 1327,
      "ative": 1328,
      "Ġincluding": 1329,
      "Ġsol": 1330,
      "Ġdon": 1331,
      "Ġepis": 1332,
      "Ġdam": 1333,
      "Ġ17": 1334,
      "ley": 1335,
      "there": 1336,
      "Ġdevelop": 1337,
      "Ġpresent": 1338,
      "gg": 1339,
      "ues": 1340,
      "Ġfollowing": 1341,
      "Ġdef": 1342,
      "23": 1343,
      "Ġwood": 1344,
      "ats": 1345,
      "dom": 1346,
      "Ġdra": 1347,
      "mp": 1348,
      "Ġsure": 1349,
      "hab": 1350,
      "amed": 1351,
      "used": 1352,
      "ages": 1353,
      "Ġgiven": 1354,
      "cess": 1355,
      "Ġ/": 1356,
      "Ġoper": 1357,
      "ened": 1358,
      "Ġmer": 1359,
      "Ġunited": 1360,
      "Ġcrit": 1361,
      "Ġstrong": 1362,
      "son": 1363,
      "Ġburn": 1364,
      "Ġsun": 1365,
      "was": 1366,
      "Ġext": 1367,
      "right": 1368,
      "they": 1369,
      "Ġteam": 1370,
      "Ġtown": 1371,
      "Ġwhale": 1372,
      "ime": 1373,
      "Ġtogether": 1374,
      "enn": 1375,
      "Ġhor": 1376,
      "Ġbody": 1377,
      "ĠâĢĶ": 1378,
      "ool": 1379,
      "Ġhands": 1380,
      "ident": 1381,
      "Ġspeak": 1382,
      "Ġfew": 1383,
      "eng": 1384,
      "Ġalthough": 1385,
      "Ġfield": 1386,
      "Ġ198": 1387,
      "pr": 1388,
      "Ġfall": 1389,
      "Ġget": 1390,
      "Ġhur": 1391,
      "Ġmean": 1392,
      "Ġsons": 1393,
      "Ġeu": 1394,
      "Ġfamily": 1395,
      "Ġwin": 1396,
      "Ġcor": 1397,
      "Ġcentury": 1398,
      "day": 1399,
      "Ġstre": 1400,
      "Ġdisc": 1401,
      "Ġmod": 1402,
      "Ġmag": 1403,
      "Ġjer": 1404,
      "Ġpriest": 1405,
      "stand": 1406,
      "Ġbus": 1407,
      "mon": 1408,
      "ccess": 1409,
      "Ġlive": 1410,
      "aces": 1411,
      "ified": 1412,
      "que": 1413,
      "Ġbuild": 1414,
      "Ġgovern": 1415,
      "Ġdirect": 1416,
      "ists": 1417,
      "24": 1418,
      "Ġoffic": 1419,
      "Ġriver": 1420,
      "ural": 1421,
      "Ġforth": 1422,
      "Ġsaith": 1423,
      "Ġcompany": 1424,
      "uck": 1425,
      "aim": 1426,
      "men": 1427,
      "ention": 1428,
      "ying": 1429,
      "30": 1430,
      "ides": 1431,
      "Ġpartic": 1432,
      "Ġfur": 1433,
      "Ġtimes": 1434,
      "Ġperson": 1435,
      "Ġaround": 1436,
      "Ġhaving": 1437,
      "Ġappear": 1438,
      "ives": 1439,
      "Ġfeel": 1440,
      "Ġline": 1441,
      "Ġham": 1442,
      "Ġless": 1443,
      "ung": 1444,
      "Ġroad": 1445,
      "Ġfa": 1446,
      "read": 1447,
      "Ġprin": 1448,
      "Ġmonth": 1449,
      "Ġred": 1450,
      "Ġmed": 1451,
      "Ġwoman": 1452,
      "ief": 1453,
      "Ġwords": 1454,
      "bs": 1455,
      "ething": 1456,
      "Ġstates": 1457,
      "Ġjes": 1458,
      "Ġnext": 1459,
      "Ġpat": 1460,
      "lish": 1461,
      "Ġcre": 1462,
      "Ġmaj": 1463,
      "aw": 1464,
      "ene": 1465,
      "jo": 1466,
      "Ġmos": 1467,
      "Ġdou": 1468,
      "aster": 1469,
      "Ġ194": 1470,
      "Ġsir": 1471,
      "Ġalways": 1472,
      "har": 1473,
      "Ġfeat": 1474,
      "Ġweek": 1475,
      "Ġcharacter": 1476,
      "Ġger": 1477,
      "af": 1478,
      "ows": 1479,
      "which": 1480,
      "25": 1481,
      "Ġty": 1482,
      "Ġflo": 1483,
      "Ġeat": 1484,
      "akes": 1485,
      "Ġreceived": 1486,
      "Ġpos": 1487,
      "aced": 1488,
      "Ġrepl": 1489,
      "Ġ196": 1490,
      "Ġhold": 1491,
      "ped": 1492,
      "Ġprof": 1493,
      "Ġbrother": 1494,
      "Ġamerican": 1495,
      "ery": 1496,
      "orning": 1497,
      "Ġcertain": 1498,
      "Ġeast": 1499,
      "oh": 1500,
      "Ġ197": 1501,
      "ude": 1502,
      "Ġhon": 1503,
      "Ġgra": 1504,
      "Ġgrou": 1505,
      "Ġopp": 1506,
      "Ġcamp": 1507,
      "Ġdesign": 1508,
      "Ġkill": 1509,
      "Ġhour": 1510,
      "Ġsuccess": 1511,
      "Ġwhole": 1512,
      "Ġcal": 1513,
      "ague": 1514,
      "Ġneither": 1515,
      "rom": 1516,
      "Ġtop": 1517,
      "Ġsoul": 1518,
      "Ġann": 1519,
      "ility": 1520,
      "aged": 1521,
      "Ġschool": 1522,
      "Ġwife": 1523,
      "ange": 1524,
      "Ġcried": 1525,
      "gan": 1526,
      "iter": 1527,
      "roy": 1528,
      "empt": 1529,
      "Ġuni": 1530,
      "pped": 1531,
      "itten": 1532,
      "Ġstru": 1533,
      "Ġepisode": 1534,
      "ience": 1535,
      "26": 1536,
      "Ġkind": 1537,
      "ca": 1538,
      "ient": 1539,
      "ism": 1540,
      "Ġquite": 1541,
      "Ġthird": 1542,
      "Ġdev": 1543,
      "Ġbetter": 1544,
      "Ġpublic": 1545,
      "Ġseemed": 1546,
      "Ġmom": 1547,
      "Ġge": 1548,
      "Ġdifferen": 1549,
      "Ġpoor": 1550,
      "Ġaust": 1551,
      "Ġkeep": 1552,
      "ards": 1553,
      "Ġfoot": 1554,
      "Ġmine": 1555,
      "Ġlate": 1556,
      "Ġarea": 1557,
      "omin": 1558,
      "hern": 1559,
      "Ġgeneral": 1560,
      "Ġdaugh": 1561,
      "Ã©": 1562,
      "ove": 1563,
      "Ġcommon": 1564,
      "Ġherself": 1565,
      "ott": 1566,
      "Ġbur": 1567,
      "Ġkne": 1568,
      "Ġincre": 1569,
      "aining": 1570,
      "iving": 1571,
      "ians": 1572,
      "Ġsound": 1573,
      "Ġreal": 1574,
      "Ġlist": 1575,
      "ots": 1576,
      "gypt": 1577,
      "undred": 1578,
      "ond": 1579,
      "ales": 1580,
      "Ġrather": 1581,
      "Ġalmost": 1582,
      "Ġleg": 1583,
      "orted": 1584,
      "Ġdead": 1585,
      "Ġhard": 1586,
      "Ġmorning": 1587,
      "Ġsle": 1588,
      "Ġbritish": 1589,
      "Ġmac": 1590,
      "ium": 1591,
      "Ġdoes": 1592,
      "Ġaug": 1593,
      "Ġ13": 1594,
      "Ġswe": 1595,
      "Ġmind": 1596,
      "par": 1597,
      "Ġtalk": 1598,
      "Ġeas": 1599,
      "thing": 1600,
      "Ġadm": 1601,
      "Ġvill": 1602,
      "Ġlow": 1603,
      "Ġseven": 1604,
      "Ġjesus": 1605,
      "Ġtit": 1606,
      "ison": 1607,
      "ution": 1608,
      "Ġnational": 1609,
      "Ġground": 1610,
      "Ġreleased": 1611,
      "Ġclo": 1612,
      "Ġwa": 1613,
      "Ġwon": 1614,
      "ached": 1615,
      "Ġlooked": 1616,
      ".--": 1617,
      "Ġmark": 1618,
      "Ġmillion": 1619,
      "irc": 1620,
      "Ġsomething": 1621,
      "outh": 1622,
      "aint": 1623,
      "ony": 1624,
      "Ġoften": 1625,
      "Ġdue": 1626,
      "Ġju": 1627,
      "Ġfeet": 1628,
      "Ġmajor": 1629,
      "ler": 1630,
      "Ġ14": 1631,
      "Ġpra": 1632,
      "Ġdark": 1633,
      "Ġant": 1634,
      "ones": 1635,
      "Ġtold": 1636,
      "Ġgoing": 1637,
      "Ġenough": 1638,
      "Ġfinal": 1639,
      "27": 1640,
      "use": 1641,
      "Ġfelt": 1642,
      "how": 1643,
      "Ġappro": 1644,
      "Ġcaptain": 1645,
      "stem": 1646,
      "sand": 1647,
      "Ġwhy": 1648,
      "Ġthine": 1649,
      "Ġaugust": 1650,
      "Ġarm": 1651,
      "iam": 1652,
      "go": 1653,
      "Ġten": 1654,
      "Ġrock": 1655,
      "Ġwhose": 1656,
      "ably": 1657,
      "Ġkm": 1658,
      "Ġplan": 1659,
      "..": 1660,
      "oke": 1661,
      "Ġroom": 1662,
      "con": 1663,
      "Ġstory": 1664,
      "this": 1665,
      "Ġegypt": 1666,
      "oud": 1667,
      "Ġhundred": 1668,
      "ament": 1669,
      "val": 1670,
      "Ġspirit": 1671,
      "Ġattack": 1672,
      "gn": 1673,
      "28": 1674,
      "Ġcut": 1675,
      "Ġread": 1676,
      "Ġthousand": 1677,
      "Ġcap": 1678,
      "ored": 1679,
      "Ġcontro": 1680,
      "Ġtaken": 1681,
      "ster": 1682,
      "Ġwall": 1683,
      "Ġdece": 1684,
      "Ġisland": 1685,
      "Ġpoint": 1686,
      "uary": 1687,
      "ob": 1688,
      "wer": 1689,
      "Ġcoun": 1690,
      "Ġill": 1691,
      "Ġemp": 1692,
      "Ġobser": 1693,
      "Ġsystem": 1694,
      "ken": 1695,
      "Ġneed": 1696,
      "Ġhistory": 1697,
      "vi": 1698,
      "Ġturned": 1699,
      "Ġid": 1700,
      "him": 1701,
      "Ġver": 1702,
      "arch": 1703,
      "Ġclass": 1704,
      "Ġcountry": 1705,
      "Ġwild": 1706,
      "ches": 1707,
      "ances": 1708,
      "Ġtill": 1709,
      "Ġsept": 1710,
      "alem": 1711,
      "Ġsuper": 1712,
      "Ġbow": 1713,
      "Ġequ": 1714,
      "from": 1715,
      "Ġwritten": 1716,
      "ising": 1717,
      "Ġheav": 1718,
      "thy": 1719,
      "usalem": 1720,
      "Ġrequ": 1721,
      "Ġ195": 1722,
      "Ġstood": 1723,
      "Ġcannot": 1724,
      "Ġhost": 1725,
      "Ġfree": 1726,
      "omen": 1727,
      "Ġdestroy": 1728,
      "Ġexpl": 1729,
      "ex": 1730,
      "Ġbrown": 1731,
      "Ġevil": 1732,
      "Ġlady": 1733,
      "Ġreco": 1734,
      "Ġblood": 1735,
      "Ġdecl": 1736,
      "Ġseptember": 1737,
      "ring": 1738,
      "Ġmeet": 1739,
      "ges": 1740,
      "Ġmoment": 1741,
      "inted": 1742,
      "vered": 1743,
      "Ġ%": 1744,
      "Ġdefe": 1745,
      "fic": 1746,
      "ina": 1747,
      "Ġsit": 1748,
      "Ġfort": 1749,
      "Ġtour": 1750,
      "nding": 1751,
      "Ġii": 1752,
      "Ġprot": 1753,
      "ney": 1754,
      "Ġfear": 1755,
      "Ġgames": 1756,
      "Ġstorm": 1757,
      "Ġcat": 1758,
      "Ġgun": 1759,
      "ully": 1760,
      "Ġdri": 1761,
      "Ġaustral": 1762,
      "ye": 1763,
      "chan": 1764,
      "ship": 1765,
      "che": 1766,
      "Ġoct": 1767,
      "Ġthemselves": 1768,
      "rent": 1769,
      "ock": 1770,
      "Ġmarch": 1771,
      "Ġsqu": 1772,
      "Ġallow": 1773,
      "Ġque": 1774,
      "Ġled": 1775,
      "Ġphil": 1776,
      "Ġbuilt": 1777,
      "Ġsingle": 1778,
      "Ġpal": 1779,
      "Ġothers": 1780,
      "Ġwrote": 1781,
      "su": 1782,
      "enty": 1783,
      "Ġestab": 1784,
      "shall": 1785,
      "Ġsus": 1786,
      "Ġview": 1787,
      "ically": 1788,
      "Ġpit": 1789,
      "ressed": 1790,
      "ai": 1791,
      "Ġ25": 1792,
      "hind": 1793,
      "Ġve": 1794,
      "Ġlost": 1795,
      "Ġsold": 1796,
      "Ġhope": 1797,
      "Ġgerman": 1798,
      "Ġattempt": 1799,
      "Ġcontinued": 1800,
      "Ġ11": 1801,
      "ere": 1802,
      "house": 1803,
      "ks": 1804,
      "side": 1805,
      "ceed": 1806,
      "Ġbattle": 1807,
      "when": 1808,
      "Ġleast": 1809,
      "ĠĠĠĠĠĠĠĠ": 1810,
      "ology": 1811,
      "Ġparticular": 1812,
      "Ġer": 1813,
      "Ġbegin": 1814,
      "had": 1815,
      "Ġevent": 1816,
      "port": 1817,
      "Ġgent": 1818,
      "wered": 1819,
      "lu": 1820,
      "where": 1821,
      "Ġmoses": 1822,
      "Ġjan": 1823,
      "Ġjune": 1824,
      "ital": 1825,
      "oney": 1826,
      "Ġengland": 1827,
      "ession": 1828,
      "Ġreturned": 1829,
      "Ġcirc": 1830,
      "Ġx": 1831,
      "Ġcross": 1832,
      "them": 1833,
      "Ġpray": 1834,
      "Ġfurther": 1835,
      "29": 1836,
      "icked": 1837,
      "Ġindeed": 1838,
      "Ġplayed": 1839,
      "like": 1840,
      "Ġdescribed": 1841,
      "Ġgovernment": 1842,
      "Ġmad": 1843,
      "Ġpeace": 1844,
      "do": 1845,
      "Ġbecome": 1846,
      "reg": 1847,
      "Ġmor": 1848,
      "itude": 1849,
      "Ġsum": 1850,
      "Ġsal": 1851,
      "lled": 1852,
      "fort": 1853,
      "Ġnamed": 1854,
      "Ġgroup": 1855,
      "vo": 1856,
      "Ġhill": 1857,
      "Ġtrack": 1858,
      "Ġsight": 1859,
      "Ġlay": 1860,
      "Ġauth": 1861,
      "ider": 1862,
      "ger": 1863,
      "Ġfif": 1864,
      "Ġdoor": 1865,
      "Ġwo": 1866,
      "Ġvide": 1867,
      "Ġhelp": 1868,
      "sa": 1869,
      "Ġdesp": 1870,
      "Ġkingdom": 1871,
      "Ġreview": 1872,
      "Ġvi": 1873,
      "Ġthereof": 1874,
      "Ġspecies": 1875,
      "Ġvict": 1876,
      "Ġknew": 1877,
      "ball": 1878,
      "head": 1879,
      "Ġcontr": 1880,
      "ffect": 1881,
      "Ġdepart": 1882,
      "Ġunivers": 1883,
      "Ġbill": 1884,
      "Ġcommun": 1885,
      "iously": 1886,
      "Ġdifferent": 1887,
      "atter": 1888,
      "Ġreally": 1889,
      "Ġclub": 1890,
      "mr": 1891,
      "Ġfair": 1892,
      "itions": 1893,
      "Ġide": 1894,
      "Ġstat": 1895,
      "Ġabove": 1896,
      "Ġbehind": 1897,
      "ruction": 1898,
      "Ġlab": 1899,
      "king": 1900,
      "Ġtou": 1901,
      "Ġpost": 1902,
      "iod": 1903,
      "hel": 1904,
      "Ġfle": 1905,
      "Ġhen": 1906,
      "ops": 1907,
      "Ġjerusalem": 1908,
      "31": 1909,
      "Ġbelieve": 1910,
      "Ġheld": 1911,
      "ril": 1912,
      "reng": 1913,
      "Ġleague": 1914,
      "who": 1915,
      "Ġfre": 1916,
      "ober": 1917,
      "ream": 1918,
      "Ġmouth": 1919,
      "ices": 1920,
      "Ġmyself": 1921,
      "Ġ[": 1922,
      "Ġstri": 1923,
      "Ġperform": 1924,
      "Ġoctober": 1925,
      "Ġorder": 1926,
      "Ġsongs": 1927,
      "pend": 1928,
      "Ġ...": 1929,
      "Ġsupport": 1930,
      "Ġwomen": 1931,
      "ulation": 1932,
      "Ġsword": 1933,
      "Ġjudah": 1934,
      "rench": 1935,
      "Ġmoved": 1936,
      "Ġbear": 1937,
      "rope": 1938,
      "ilar": 1939,
      "Ġasked": 1940,
      "Ġorgan": 1941,
      "Ġperiod": 1942,
      "Ġhuman": 1943,
      "Ġ$": 1944,
      "Ġpark": 1945,
      "Ġtech": 1946,
      "Ġeffect": 1947,
      "Ġgrand": 1948,
      "Ġintern": 1949,
      "Ġmove": 1950,
      "ropical": 1951,
      "Ġ30": 1952,
      "!--": 1953,
      "ior": 1954,
      "Ġanswered": 1955,
      "Ġyork": 1956,
      "iment": 1957,
      "Ġable": 1958,
      "Ġboy": 1959,
      "Ġholy": 1960,
      "anger": 1961,
      "Ġaddition": 1962,
      "Ġimport": 1963,
      "ought": 1964,
      "Ġformer": 1965,
      "Ġdet": 1966,
      "Ġaff": 1967,
      "Ġvers": 1968,
      "Ġfig": 1969,
      "cil": 1970,
      "ax": 1971,
      "aut": 1972,
      "haps": 1973,
      "Ġtowards": 1974,
      "ribut": 1975,
      "then": 1976,
      "sp": 1977,
      "Ġjuly": 1978,
      "Ġgone": 1979,
      "ression": 1980,
      "Ġunderstand": 1981,
      "ogra": 1982,
      "will": 1983,
      "Ġdraw": 1984,
      "dle": 1985,
      "Ġenglish": 1986,
      "Ġ]": 1987,
      "Ġmaking": 1988,
      "Ġinterest": 1989,
      "Ġpast": 1990,
      "irl": 1991,
      "Ġrout": 1992,
      "cher": 1993,
      "Ġband": 1994,
      "itary": 1995,
      "Ġcause": 1996,
      "Ġoriginal": 1997,
      "Ġreason": 1998,
      "Ġoffering": 1999,
      "Ġclose": 2000,
      "cial": 2001,
      "Ġval": 2002,
      "body": 2003,
      "cle": 2004,
      "ze": 2005,
      "Ġvideo": 2006,
      "Ġsister": 2007,
      "32": 2008,
      "ey": 2009,
      "Ġeight": 2010,
      "Ġapril": 2011,
      "Ġincluded": 2012,
      "lly": 2013,
      "idered": 2014,
      "Ġfav": 2015,
      "ety": 2016,
      "Ġexper": 2017,
      "Ġrose": 2018,
      "Ġbased": 2019,
      "ager": 2020,
      "come": 2021,
      "ially": 2022,
      "work": 2023,
      "Ġir": 2024,
      "Ġrus": 2025,
      "bert": 2026,
      "medi": 2027,
      "ston": 2028,
      "Ġstreng": 2029,
      "Ġgot": 2030,
      "enth": 2031,
      "Ġdoub": 2032,
      "Ġfight": 2033,
      "Ġpassed": 2034,
      "Ġdaughter": 2035,
      "Ġincreas": 2036,
      "Ġjanuary": 2037,
      "Ġchamp": 2038,
      "lord": 2039,
      "ching": 2040,
      "Ġdear": 2041,
      "ead": 2042,
      "Ġwhether": 2043,
      "have": 2044,
      "ries": 2045,
      "Ġworks": 2046,
      "Ġdivision": 2047,
      "under": 2048,
      "Ġsort": 2049,
      "itted": 2050,
      "Ġeurope": 2051,
      "Ġarmy": 2052,
      "ively": 2053,
      "Ġelse": 2054,
      "Ġeye": 2055,
      "utes": 2056,
      "Ġstop": 2057,
      "fered": 2058,
      "Ġjack": 2059,
      "inor": 2060,
      "Ġdeal": 2061,
      "Ġfriends": 2062,
      "Ġiss": 2063,
      "formed": 2064,
      "Ġmult": 2065,
      "Ġarri": 2066,
      "33": 2067,
      "Ġcam": 2068,
      "Ġgrow": 2069,
      "Ġsimilar": 2070,
      "Ġterr": 2071,
      "Ġbab": 2072,
      "Ġnove": 2073,
      "band": 2074,
      "Ġmic": 2075,
      "tar": 2076,
      "yal": 2077,
      "Ġconsidered": 2078,
      "Ġnone": 2079,
      "Ġtrad": 2080,
      "Ġben": 2081,
      "imes": 2082,
      "Ġoffer": 2083,
      "Ġage": 2084,
      "yle": 2085,
      "lling": 2086,
      "Ġthr": 2087,
      "wood": 2088,
      "por": 2089,
      "Ġdied": 2090,
      "Ġfell": 2091,
      "'ll": 2092,
      "ump": 2093,
      "aves": 2094,
      "Ġbreak": 2095,
      "Ġbes": 2096,
      "Ġnovember": 2097,
      "Ġfail": 2098,
      "Ġhus": 2099,
      "ize": 2100,
      "Ġauthor": 2101,
      "Ġfact": 2102,
      "Ġemma": 2103,
      "Ġtot": 2104,
      "Ġthroughout": 2105,
      "Ġservice": 2106,
      "Ġsan": 2107,
      "Ġvir": 2108,
      "Ġleave": 2109,
      "mar": 2110,
      "Ġfrench": 2111,
      "Ġtrue": 2112,
      "Ġenem": 2113,
      "Ġsett": 2114,
      "Ġcas": 2115,
      "Ġhy": 2116,
      "Ġperfect": 2117,
      "Ġclaim": 2118,
      "Ġpolit": 2119,
      "sc": 2120,
      "ination": 2121,
      "Ġsugg": 2122,
      "uit": 2123,
      "Ġsuggest": 2124,
      "fully": 2125,
      "Ġfed": 2126,
      "Ġhero": 2127,
      "Ġgard": 2128,
      "sequ": 2129,
      "Ġforce": 2130,
      "bit": 2131,
      "Ġdi": 2132,
      "Ġcourt": 2133,
      "Ġtropical": 2134,
      "iled": 2135,
      "Ġsuff": 2136,
      "Ġcy": 2137,
      "aught": 2138,
      "Ġeither": 2139,
      "Ġabs": 2140,
      "Ġsecret": 2141,
      "dden": 2142,
      "Ġstay": 2143,
      "Ġdecember": 2144,
      "Ġbrig": 2145,
      "Ġmot": 2146,
      "Ġcolon": 2147,
      "Ġcreat": 2148,
      "Ġproject": 2149,
      "rodu": 2150,
      "Ġcoast": 2151,
      "Ġtele": 2152,
      "mbers": 2153,
      "bes": 2154,
      "fer": 2155,
      "Ġgreen": 2156,
      "Ġjew": 2157,
      "eous": 2158,
      "Ġhig": 2159,
      "Ġacross": 2160,
      "Ġbroad": 2161,
      "Ġwit": 2162,
      "Ġfaith": 2163,
      "line": 2164,
      "Ġcase": 2165,
      "Ġrad": 2166,
      "iction": 2167,
      "Ġbusiness": 2168,
      "Ġball": 2169,
      "their": 2170,
      "Ġbless": 2171,
      "Ġlocal": 2172,
      "riet": 2173,
      "Ġbird": 2174,
      "Ġlim": 2175,
      "ift": 2176,
      "Ġhurric": 2177,
      "Ġbed": 2178,
      "Ġinit": 2179,
      "Ġden": 2180,
      "ianne": 2181,
      "Ġfill": 2182,
      "Ġmeas": 2183,
      "Ġsho": 2184,
      "Ġspake": 2185,
      "Ġplayer": 2186,
      "Ġentire": 2187,
      "arn": 2188,
      "Ġnet": 2189,
      "Ġparty": 2190,
      "Ġstreet": 2191,
      "ius": 2192,
      "Ġmur": 2193,
      "idence": 2194,
      "ission": 2195,
      "field": 2196,
      "ented": 2197,
      "ien": 2198,
      "Ġ100": 2199,
      "Ġhistor": 2200,
      "zz": 2201,
      "Ġmoney": 2202,
      "soci": 2203,
      "Ġdeep": 2204,
      "Ġgirl": 2205,
      "Ġappeared": 2206,
      "umb": 2207,
      "Ġlevel": 2208,
      "Ġhappy": 2209,
      "Ġgentle": 2210,
      "Ġru": 2211,
      "Ġopened": 2212,
      "Ġcolle": 2213,
      "Ġdisco": 2214,
      "raft": 2215,
      "Ġinstead": 2216,
      "ray": 2217,
      "Ġcong": 2218,
      "Ġborn": 2219,
      "Ġliving": 2220,
      "ption": 2221,
      "--\"": 2222,
      "ging": 2223,
      "Ġcou": 2224,
      "Ġtruth": 2225,
      "Ġfollowed": 2226,
      "Ġsam": 2227,
      "Ġpain": 2228,
      "Ġdisp": 2229,
      "rove": 2230,
      "thren": 2231,
      "Ġ2009": 2232,
      "ixed": 2233,
      "aur": 2234,
      "Ġquest": 2235,
      "Ġrespect": 2236,
      "Ġ2010": 2237,
      "ades": 2238,
      "Ġships": 2239,
      "cent": 2240,
      "Ġtest": 2241,
      "Ġsor": 2242,
      "Ġstars": 2243,
      "Ġchief": 2244,
      "Ġ2008": 2245,
      "Ġlooking": 2246,
      "ndon": 2247,
      "Ġrepres": 2248,
      "ointed": 2249,
      "Ġmis": 2250,
      "Ġut": 2251,
      "Ġassoci": 2252,
      "Ġcities": 2253,
      "Ġresult": 2254,
      "Ġbal": 2255,
      "Ġconv": 2256,
      "Ġsudden": 2257,
      "Ġjoy": 2258,
      "ico": 2259,
      "Ġ24": 2260,
      "cut": 2261,
      "Ġtor": 2262,
      "set": 2263,
      "idge": 2264,
      "Ġmass": 2265,
      "Ġcoming": 2266,
      "Ġrelease": 2267,
      "Ġalone": 2268,
      "Ġrole": 2269,
      "Ġadded": 2270,
      "Ġitself": 2271,
      "Ġcareer": 2272,
      "Ġmilitary": 2273,
      "Ġcomplete": 2274,
      "34": 2275,
      "cr": 2276,
      "Ġcorn": 2277,
      "Ġbeaut": 2278,
      "Ġfront": 2279,
      "Ġdrink": 2280,
      "Ġinflu": 2281,
      "Ġbey": 2282,
      "Ġstra": 2283,
      "bar": 2284,
      "Ġdwell": 2285,
      "Ġimmedi": 2286,
      "Ġwaters": 2287,
      "ming": 2288,
      "Ġquick": 2289,
      "ograph": 2290,
      "Ġda": 2291,
      "estern": 2292,
      "Ġcomb": 2293,
      "tered": 2294,
      "over": 2295,
      "Ġbra": 2296,
      "Ġran": 2297,
      "Ġtrou": 2298,
      "Ġpress": 2299,
      "Ġ26": 2300,
      "Ġtro": 2301,
      "Ġwish": 2302,
      "Ġciv": 2303,
      "Ġfem": 2304,
      "ception": 2305,
      "Ġuniversity": 2306,
      "nds": 2307,
      "Ġgar": 2308,
      "bb": 2309,
      "ready": 2310,
      "Ġrecorded": 2311,
      "min": 2312,
      "Ġlou": 2313,
      "Ġord": 2314,
      "Ġnature": 2315,
      "Ġ&": 2316,
      "Ġcro": 2317,
      "Ġaccount": 2318,
      "Ġhair": 2319,
      "bull": 2320,
      "Ġsac": 2321,
      "ator": 2322,
      "igned": 2323,
      "wor": 2324,
      "Ġpen": 2325,
      "Ġ21": 2326,
      "Ġlondon": 2327,
      "Ġmiddle": 2328,
      "Ġtwenty": 2329,
      "Ġperhaps": 2330,
      "Ġwriting": 2331,
      "ensive": 2332,
      "ik": 2333,
      "alth": 2334,
      "acy": 2335,
      "Ġquar": 2336,
      "Ġhurricane": 2337,
      "36": 2338,
      "atic": 2339,
      "str": 2340,
      "Ġjour": 2341,
      "Ġleng": 2342,
      "Ġroman": 2343,
      "Ġnav": 2344,
      "Ġarg": 2345,
      "Ġoccur": 2346,
      "Ġhorse": 2347,
      "Ġmodern": 2348,
      "Ġmaster": 2349,
      "Ġbattal": 2350,
      "Ġbig": 2351,
      "Ġmatter": 2352,
      "Ġproduction": 2353,
      "Ġaw": 2354,
      "unt": 2355,
      "Ġenc": 2356,
      "Ġregard": 2357,
      "Ġpublished": 2358,
      "Ġnations": 2359,
      "lesh": 2360,
      "Ġtur": 2361,
      "Ġfast": 2362,
      "riage": 2363,
      "Ġdie": 2364,
      "Ġacqu": 2365,
      "yed": 2366,
      "Ġevening": 2367,
      "ell": 2368,
      "Ġbad": 2369,
      "Ġcho": 2370,
      "Ġgods": 2371,
      "Ġcourse": 2372,
      "Ġheavy": 2373,
      "sed": 2374,
      "Ġblue": 2375,
      "Ġ2007": 2376,
      "ledge": 2377,
      "Ġpresident": 2378,
      "Ġvisit": 2379,
      "ingly": 2380,
      "Ġproduced": 2381,
      "iers": 2382,
      "Ġfly": 2383,
      "Ġrese": 2384,
      "Ġ23": 2385,
      "Ġroyal": 2386,
      "Ġfathers": 2387,
      "Ġpie": 2388,
      "Ġ28": 2389,
      "Ġresp": 2390,
      "Ġbrethren": 2391,
      "ficult": 2392,
      "Ġmary": 2393,
      "cer": 2394,
      "Ġhat": 2395,
      "Ġforces": 2396,
      "osp": 2397,
      "Ġpossible": 2398,
      "37": 2399,
      "bour": 2400,
      "lished": 2401,
      "Ġsweet": 2402,
      "vation": 2403,
      "Ġcru": 2404,
      "antly": 2405,
      "Ġaward": 2406,
      "Ġwide": 2407,
      "raid": 2408,
      "Ġobject": 2409,
      "Ġpopular": 2410,
      "gl": 2411,
      "gen": 2412,
      "Ġnort": 2413,
      "Ġmembers": 2414,
      "Ġ22": 2415,
      "Ġsilver": 2416,
      "Ġposition": 2417,
      "Ġtoward": 2418,
      "asion": 2419,
      "uel": 2420,
      "ama": 2421,
      "Ġbread": 2422,
      "Ġservant": 2423,
      "Ġdifficult": 2424,
      "Ġwanted": 2425,
      "Ġcult": 2426,
      "Ġly": 2427,
      "Ġmanner": 2428,
      "aring": 2429,
      "Ġmatch": 2430,
      "ĠÂ": 2431,
      "Ġtree": 2432,
      "Ġhot": 2433,
      "Ġreached": 2434,
      "Ġaccept": 2435,
      "35": 2436,
      "Ġroute": 2437,
      "Ġcompet": 2438,
      "Ġhusband": 2439,
      "Ġgi": 2440,
      "Ġrul": 2441,
      "Ġinvol": 2442,
      "Ġbelieved": 2443,
      "Ġcounty": 2444,
      "orts": 2445,
      "Ġangel": 2446,
      "more": 2447,
      "aked": 2448,
      "app": 2449,
      "Ġahab": 2450,
      "Ġsout": 2451,
      "itar": 2452,
      "etimes": 2453,
      "Ġcompan": 2454,
      "Ġsoci": 2455,
      "Ġshew": 2456,
      "oms": 2457,
      "ality": 2458,
      "Ġstone": 2459,
      "Ġsail": 2460,
      ",'": 2461,
      "iqu": 2462,
      "Ġba": 2463,
      "were": 2464,
      "itting": 2465,
      "play": 2466,
      "Ġsubject": 2467,
      "ference": 2468,
      "lic": 2469,
      "lls": 2470,
      "Ġconne": 2471,
      "Ġaccom": 2472,
      "vision": 2473,
      "unto": 2474,
      "cks": 2475,
      "Ġmiles": 2476,
      "Ġtotal": 2477,
      "mor": 2478,
      "Ġsepar": 2479,
      "Ġconsider": 2480,
      "Ġkept": 2481,
      "Ġprophe": 2482,
      "Ġtitle": 2483,
      "Ġwicked": 2484,
      "ams": 2485,
      "Ġelect": 2486,
      "bru": 2487,
      "tr": 2488,
      "Ġcry": 2489,
      "antic": 2490,
      "Ġdeli": 2491,
      "Ġproper": 2492,
      "Ġcontrol": 2493,
      "Ġinternational": 2494,
      "ints": 2495,
      "Ġintrodu": 2496,
      "Ġfun": 2497,
      "Ġthir": 2498,
      "acle": 2499,
      "Ġdan": 2500,
      "ask": 2501,
      "Ġfruit": 2502,
      "isted": 2503,
      "Ġservants": 2504,
      "Ġlength": 2505,
      "isf": 2506,
      "Ġlam": 2507,
      "Ġjudg": 2508,
      "Ġchampions": 2509,
      "Ġflesh": 2510,
      "Ġmonths": 2511,
      "Ġanim": 2512,
      "Ġdem": 2513,
      "Ġ27": 2514,
      "ument": 2515,
      "oured": 2516,
      "Ġcover": 2517,
      "Ġwestern": 2518,
      "Ġfac": 2519,
      "Ġforward": 2520,
      "Ġalready": 2521,
      "Ġremained": 2522,
      "cially": 2523,
      "Ġforest": 2524,
      "Ġgeor": 2525,
      "Ġestablished": 2526,
      "Ġpay": 2527,
      "Ġdevelopment": 2528,
      "Ġsouthern": 2529,
      "Ġcentral": 2530,
      "Ġamerica": 2531,
      "Ġannoun": 2532,
      "Ġdespite": 2533,
      "light": 2534,
      "Ġbull": 2535,
      "Ġlang": 2536,
      "Ġexc": 2537,
      "Ġtyp": 2538,
      "Ġviol": 2539,
      "Ġfrank": 2540,
      "omb": 2541,
      "Ġanne": 2542,
      "Ġjap": 2543,
      "Ġalice": 2544,
      "tend": 2545,
      "Ġ2011": 2546,
      "Ġchange": 2547,
      "Ġbeginning": 2548,
      "Ġoh": 2549,
      "Ġversion": 2550,
      "ught": 2551,
      "Ġwal": 2552,
      "Ġbir": 2553,
      "Ġcanad": 2554,
      "Ġtrees": 2555,
      "off": 2556,
      "Ġ2006": 2557,
      "Ġcommanded": 2558,
      "Ġmist": 2559,
      "Ġiron": 2560,
      "Ġpaul": 2561,
      "gin": 2562,
      "ners": 2563,
      "Ġmarianne": 2564,
      "Ġactiv": 2565,
      "ground": 2566,
      "Ġfine": 2567,
      "iding": 2568,
      "Ġkings": 2569,
      "pected": 2570,
      "Ġcivil": 2571,
      "bruary": 2572,
      "Ġfebruary": 2573,
      "Ġimportant": 2574,
      "pre": 2575,
      "Ġarch": 2576,
      "gar": 2577,
      "aled": 2578,
      "Ġnorthern": 2579,
      "Ġglory": 2580,
      "Ġstrength": 2581,
      "fall": 2582,
      "Ġstyle": 2583,
      "Ġvol": 2584,
      "Ġwis": 2585,
      "Ġreported": 2586,
      "after": 2587,
      "yes": 2588,
      "your": 2589,
      "lli": 2590,
      "Ġformed": 2591,
      "Ġrain": 2592,
      "Ġprogr": 2593,
      "Ġpoem": 2594,
      "Ġdoubt": 2595,
      "Ġod": 2596,
      "Ġhop": 2597,
      "Ġhous": 2598,
      "Ġstarted": 2599,
      "Ġsleep": 2600,
      "ford": 2601,
      "Ġprote": 2602,
      "Ġcritic": 2603,
      "Ġbuilding": 2604,
      "ining": 2605,
      "Ġsignific": 2606,
      "Ġvarious": 2607,
      "Ġcup": 2608,
      "Ġcloud": 2609,
      "Ġregion": 2610,
      "Ġidea": 2611,
      "Ġgarden": 2612,
      "cing": 2613,
      "down": 2614,
      "Ġdu": 2615,
      "Ġnovel": 2616,
      "ordan": 2617,
      "Ġsometimes": 2618,
      "Ġbroken": 2619,
      "Ġfish": 2620,
      "Ġze": 2621,
      "Ġclear": 2622,
      "Ġav": 2623,
      "Ġdeter": 2624,
      "ature": 2625,
      "anes": 2626,
      "aching": 2627,
      "Ġreplied": 2628,
      "Ġwonder": 2629,
      "Ġwilliam": 2630,
      "Ġelinor": 2631,
      "Ġrighteous": 2632,
      "ify": 2633,
      "Ġprim": 2634,
      "Ġstep": 2635,
      "ume": 2636,
      "Ġnar": 2637,
      "Ġrank": 2638,
      "can": 2639,
      "Ġkilled": 2640,
      "bu": 2641,
      "thou": 2642,
      "Ġjames": 2643,
      "ylan": 2644,
      "Ġhours": 2645,
      "Ġeastern": 2646,
      "Ġsite": 2647,
      "Ġforg": 2648,
      "Ġafric": 2649,
      "Ġ!": 2650,
      "Ġpha": 2651,
      "Ġdylan": 2652,
      "Ġcold": 2653,
      "Ġber": 2654,
      "Ġcaused": 2655,
      "pter": 2656,
      "xim": 2657,
      "Ġric": 2658,
      "Ġprob": 2659,
      "wise": 2660,
      "Ġtaking": 2661,
      "Ġearli": 2662,
      "olution": 2663,
      "Ġknight": 2664,
      "itive": 2665,
      "Ġire": 2666,
      "pel": 2667,
      "Ġrelig": 2668,
      "Ġ2012": 2669,
      "Ġtelevision": 2670,
      "nes": 2671,
      "Ġtab": 2672,
      "Ġaltar": 2673,
      "rupt": 2674,
      "Ġanswer": 2675,
      "Ġcop": 2676,
      "ille": 2677,
      "Ġban": 2678,
      "cture": 2679,
      "Ġlonger": 2680,
      "Ġneigh": 2681,
      "Ġenter": 2682,
      "Ġafraid": 2683,
      "Ġlaid": 2684,
      "Ġinclude": 2685,
      "Ġglad": 2686,
      "athe": 2687,
      "hu": 2688,
      "Ġdream": 2689,
      "Ġjordan": 2690,
      "usion": 2691,
      "Ġboat": 2692,
      "Ġhighway": 2693,
      "Ġcreated": 2694,
      "Ġloss": 2695,
      "Ġrich": 2696,
      "Ġshar": 2697,
      "Ġexamp": 2698,
      "'m": 2699,
      "osing": 2700,
      "action": 2701,
      "aff": 2702,
      "Ġreve": 2703,
      "Ġfourth": 2704,
      "bl": 2705,
      "Ġhall": 2706,
      "Ġusing": 2707,
      "Ġstrange": 2708,
      "Ġslow": 2709,
      "Ġtable": 2710,
      "ids": 2711,
      "aving": 2712,
      "ubb": 2713,
      "Ġcarried": 2714,
      "40": 2715,
      "craft": 2716,
      "Ġ_": 2717,
      "Ġfat": 2718,
      "ening": 2719,
      "Ġlad": 2720,
      "Ġask": 2721,
      "Ġjac": 2722,
      "iful": 2723,
      "oken": 2724,
      "Ġbattalion": 2725,
      "bor": 2726,
      "pass": 2727,
      "Ġbase": 2728,
      "Ġimmediately": 2729,
      "39": 2730,
      "Ġtechn": 2731,
      "Ġireland": 2732,
      "Ġox": 2733,
      "Ġcrew": 2734,
      "Ġmi": 2735,
      "Ġlif": 2736,
      "Ġindust": 2737,
      "ological": 2738,
      "ctor": 2739,
      "Ġpriv": 2740,
      "je": 2741,
      "Ġmess": 2742,
      "Ġlaugh": 2743,
      "ush": 2744,
      "Ġtrust": 2745,
      "Ġimag": 2746,
      "Ġprep": 2747,
      "Ġflow": 2748,
      "Ġsitu": 2749,
      "38": 2750,
      "Ġbound": 2751,
      "Ġremain": 2752,
      "Ġprevious": 2753,
      "Ġfellow": 2754,
      "Ġlangu": 2755,
      "Ġaud": 2756,
      "Ġ50": 2757,
      "said": 2758,
      "oc": 2759,
      "Ã¡": 2760,
      "Ġstated": 2761,
      "Ġbecom": 2762,
      "Ġsummer": 2763,
      "Ġgal": 2764,
      "Ġplayers": 2765,
      "Ġfan": 2766,
      "Ġmater": 2767,
      "Ġbeast": 2768,
      "Ġ2013": 2769,
      "Ġletter": 2770,
      "cast": 2771,
      "nor": 2772,
      "Ġself": 2773,
      "alley": 2774,
      "Ġevents": 2775,
      "Ġnatural": 2776,
      "Ġperformed": 2777,
      "Ġremo": 2778,
      "ipp": 2779,
      "Äģ": 2780,
      "Ġsev": 2781,
      "Ġplaces": 2782,
      "Ġagre": 2783,
      "Ġpleasure": 2784,
      "cip": 2785,
      "pro": 2786,
      "Ġperformance": 2787,
      "Ġbay": 2788,
      "Ġatl": 2789,
      "Ġ29": 2790,
      "Ġdelight": 2791,
      "cul": 2792,
      "Ġsn": 2793,
      "Ġrap": 2794,
      "Ġtemple": 2795,
      "Ġappearance": 2796,
      "Ġhonour": 2797,
      "Ġemplo": 2798,
      "Ġft": 2799,
      "Ġdro": 2800,
      "Ġur": 2801,
      "ips": 2802,
      "Ġspecial": 2803,
      "Ġweston": 2804,
      "Ġpopulation": 2805,
      "Ġnoted": 2806,
      "ivid": 2807,
      "ously": 2808,
      "reek": 2809,
      "Ġrelations": 2810,
      "old": 2811,
      "ises": 2812,
      "Ġcomfort": 2813,
      "Ġanything": 2814,
      "Ġjane": 2815,
      "look": 2816,
      "Ġguitar": 2817,
      "Ġsense": 2818,
      "Ġol": 2819,
      "Ġlower": 2820,
      "Ġaffe": 2821,
      "Ġengine": 2822,
      "Ġready": 2823,
      "Ġsend": 2824,
      "ctions": 2825,
      "Ġconstruction": 2826,
      "Ġofficial": 2827,
      "Ġfut": 2828,
      "Ġmort": 2829,
      "Ġknowledge": 2830,
      "Ġfinished": 2831,
      "Ġdecided": 2832,
      "Ġpurp": 2833,
      "yn": 2834,
      "Ġrac": 2835,
      "Ġ190": 2836,
      "Ġmidst": 2837,
      "Ġflood": 2838,
      "rem": 2839,
      "Ġeff": 2840,
      "Ġven": 2841,
      "Ġquestion": 2842,
      "again": 2843,
      "Ġminutes": 2844,
      "ino": 2845,
      "Ġlived": 2846,
      "Ġscient": 2847,
      "tended": 2848,
      "Ġseek": 2849,
      "Ġbrigade": 2850,
      "gest": 2851,
      "Ġgate": 2852,
      "otion": 2853,
      "Ġrace": 2854,
      "Ġmountain": 2855,
      "Ġdeveloped": 2856,
      "osition": 2857,
      "Ġprocess": 2858,
      "Ġspace": 2859,
      "Ġremember": 2860,
      "Ġpriests": 2861,
      "ech": 2862,
      "Ġbi": 2863,
      "Ġserved": 2864,
      "Ġchampionship": 2865,
      "hy": 2866,
      "ls": 2867,
      "ny": 2868,
      "Ġvan": 2869,
      "Ġobl": 2870,
      "Ġcondu": 2871,
      "anch": 2872,
      "Ġsave": 2873,
      "Ġfootball": 2874,
      "ds": 2875,
      "rang": 2876,
      "Ġasse": 2877,
      "50": 2878,
      "Ġbord": 2879,
      "isa": 2880,
      "Ġlie": 2881,
      "aded": 2882,
      "Ġmeans": 2883,
      "Ġimm": 2884,
      "Ġsatisf": 2885,
      "hest": 2886,
      "Ġbeyond": 2887,
      "Ġoil": 2888,
      "Ġcra": 2889,
      "Ġpot": 2890,
      "Ġdut": 2891,
      "Ġsafe": 2892,
      "Ġentered": 2893,
      "Ġindepend": 2894,
      "Ġpract": 2895,
      "Ġmach": 2896,
      "Ġhom": 2897,
      "Ġrange": 2898,
      "Ġexcept": 2899,
      "why": 2900,
      "Ġpraise": 2901,
      "eness": 2902,
      "ences": 2903,
      "Ġpred": 2904,
      "Ġrepe": 2905,
      "Ġves": 2906,
      "Ġharriet": 2907,
      "Ġsurv": 2908,
      "tw": 2909,
      "Ġgreater": 2910,
      "Ġmal": 2911,
      "Ġcrow": 2912,
      "Ġgenerally": 2913,
      "Ġcircum": 2914,
      "god": 2915,
      "just": 2916,
      "Ġtar": 2917,
      "Ġmart": 2918,
      "itation": 2919,
      "Ġpeter": 2920,
      "ils": 2921,
      "ivered": 2922,
      "Ġturnbull": 2923,
      "Ġcharacters": 2924,
      "Ġoriginally": 2925,
      "Ġaustralia": 2926,
      "Ġsociety": 2927,
      "Ġparts": 2928,
      "itor": 2929,
      "Ġpu": 2930,
      "Ġsaul": 2931,
      "Ġfood": 2932,
      "Ġcarry": 2933,
      "Ġwinds": 2934,
      "erer": 2935,
      "Ġfer": 2936,
      "Ġlu": 2937,
      "aly": 2938,
      "ste": 2939,
      "ria": 2940,
      "Ġsex": 2941,
      "Ġflight": 2942,
      "ization": 2943,
      "board": 2944,
      "Ġvillage": 2945,
      "Ġder": 2946,
      "agement": 2947,
      "Ġsyme": 2948,
      "ires": 2949,
      "ÃŃ": 2950,
      "Ġbit": 2951,
      "Ġmention": 2952,
      "Ġund": 2953,
      "Ġseas": 2954,
      "regation": 2955,
      "ae": 2956,
      "Ġspread": 2957,
      "Ġcrown": 2958,
      "Ġbank": 2959,
      "Ġeld": 2960,
      "Ġoutside": 2961,
      "Ġtouch": 2962,
      "Ġjacob": 2963,
      "nel": 2964,
      "ration": 2965,
      "while": 2966,
      "Ġnine": 2967,
      "Ġnecess": 2968,
      "Ġwheel": 2969,
      "Ġareas": 2970,
      "than": 2971,
      "Ġhaue": 2972,
      "pecially": 2973,
      "unk": 2974,
      "van": 2975,
      "Ġnon": 2976,
      "oted": 2977,
      "Ġrail": 2978,
      "Ġmere": 2979,
      "ival": 2980,
      "Ġplaying": 2981,
      "Ġtradition": 2982,
      "back": 2983,
      "Ġweeks": 2984,
      "Ġcampa": 2985,
      "Ġnames": 2986,
      "Ġjos": 2987,
      "bered": 2988,
      "Ġparticularly": 2989,
      "cus": 2990,
      "Ġglo": 2991,
      "Ġscri": 2992,
      "Ġmicha": 2993,
      "Ġmeant": 2994,
      "Ġmighty": 2995,
      "Ġdomin": 2996,
      "Ġuncle": 2997,
      "Ġstanding": 2998,
      "Ġdeterm": 2999
    },
    "merges": [
      [
        "Ġ",
        "t"
      ],
      [
        "h",
        "e"
      ],
      [
        "Ġ",
        "a"
      ],
      [
        "Ġt",
        "he"
      ],
      [
        "i",
        "n"
      ],
      [
        "Ġ",
        "s"
      ],
      [
        "Ġ",
        "o"
      ],
      [
        "r",
        "e"
      ],
      [
        "Ġ",
        "w"
      ],
      [
        "n",
        "d"
      ],
      [
        "e",
        "r"
      ],
      [
        "Ġ",
        "b"
      ],
      [
        "h",
        "a"
      ],
      [
        "Ġ",
        "c"
      ],
      [
        "o",
        "n"
      ],
      [
        "Ġ",
        "f"
      ],
      [
        "Ġ",
        "m"
      ],
      [
        "i",
        "t"
      ],
      [
        "e",
        "d"
      ],
      [
        "i",
        "s"
      ],
      [
        "Ġa",
        "nd"
      ],
      [
        "o",
        "r"
      ],
      [
        "Ġo",
        "f"
      ],
      [
        "o",
        "u"
      ],
      [
        "e",
        "n"
      ],
      [
        "e",
        "s"
      ],
      [
        "Ġ",
        "p"
      ],
      [
        "in",
        "g"
      ],
      [
        "Ġ",
        "in"
      ],
      [
        "Ġ",
        "d"
      ],
      [
        "a",
        "r"
      ],
      [
        "l",
        "l"
      ],
      [
        "a",
        "t"
      ],
      [
        "Ġ",
        ","
      ],
      [
        "a",
        "n"
      ],
      [
        "Ġt",
        "o"
      ],
      [
        "Ġ",
        "l"
      ],
      [
        "a",
        "s"
      ],
      [
        "Ġ",
        "h"
      ],
      [
        "Ġ",
        "n"
      ],
      [
        "Ġ",
        "."
      ],
      [
        "o",
        "m"
      ],
      [
        "Ġ",
        "he"
      ],
      [
        "Ġ",
        "g"
      ],
      [
        "i",
        "c"
      ],
      [
        "l",
        "e"
      ],
      [
        "Ġ",
        "e"
      ],
      [
        "Ġb",
        "e"
      ],
      [
        "a",
        "l"
      ],
      [
        "Ġ",
        "ha"
      ],
      [
        "i",
        "on"
      ],
      [
        "s",
        "t"
      ],
      [
        "Ġt",
        "h"
      ],
      [
        "o",
        "t"
      ],
      [
        "ha",
        "t"
      ],
      [
        "Ġ",
        "re"
      ],
      [
        "č",
        "Ċ"
      ],
      [
        "Ġ",
        "u"
      ],
      [
        "en",
        "t"
      ],
      [
        "v",
        "e"
      ],
      [
        "o",
        "w"
      ],
      [
        "Ġ",
        "i"
      ],
      [
        "s",
        "e"
      ],
      [
        "u",
        "t"
      ],
      [
        "i",
        "d"
      ],
      [
        "Ġf",
        "or"
      ],
      [
        "Ġt",
        "hat"
      ],
      [
        "l",
        "d"
      ],
      [
        "Ġw",
        "as"
      ],
      [
        "a",
        "c"
      ],
      [
        "r",
        "o"
      ],
      [
        "Ġo",
        "n"
      ],
      [
        "Ġ",
        "y"
      ],
      [
        "i",
        "m"
      ],
      [
        "g",
        "h"
      ],
      [
        "a",
        "y"
      ],
      [
        "e",
        "t"
      ],
      [
        "l",
        "y"
      ],
      [
        "it",
        "h"
      ],
      [
        "a",
        "m"
      ],
      [
        "v",
        "er"
      ],
      [
        "i",
        "r"
      ],
      [
        "Ġs",
        "t"
      ],
      [
        "Ġ",
        "it"
      ],
      [
        "u",
        "r"
      ],
      [
        "Ġa",
        "s"
      ],
      [
        "Ġ",
        "\""
      ],
      [
        "Ġ",
        "Ċ"
      ],
      [
        "Ġ",
        "is"
      ],
      [
        "Ġw",
        "ith"
      ],
      [
        "a",
        "d"
      ],
      [
        "r",
        "i"
      ],
      [
        "t",
        "h"
      ],
      [
        "Ġh",
        "is"
      ],
      [
        "Ġw",
        "h"
      ],
      [
        "Ġ",
        "="
      ],
      [
        "a",
        "nd"
      ],
      [
        "c",
        "e"
      ],
      [
        "Ġ",
        "1"
      ],
      [
        "he",
        "r"
      ],
      [
        "t",
        "er"
      ],
      [
        "Ġw",
        "e"
      ],
      [
        "Ġa",
        "n"
      ],
      [
        "Ġs",
        "e"
      ],
      [
        "Ġ",
        "k"
      ],
      [
        "Ġ",
        "j"
      ],
      [
        "o",
        "d"
      ],
      [
        "i",
        "l"
      ],
      [
        "c",
        "t"
      ],
      [
        "Ġ",
        "r"
      ],
      [
        "Ġn",
        "ot"
      ],
      [
        "a",
        "in"
      ],
      [
        "Ġy",
        "ou"
      ],
      [
        "Ġ",
        "@"
      ],
      [
        "Ġa",
        "t"
      ],
      [
        "c",
        "h"
      ],
      [
        "gh",
        "t"
      ],
      [
        "Ġd",
        "e"
      ],
      [
        "t",
        "o"
      ],
      [
        "i",
        "ll"
      ],
      [
        "a",
        "ll"
      ],
      [
        "Ġf",
        "r"
      ],
      [
        "Ġb",
        "y"
      ],
      [
        "at",
        "ion"
      ],
      [
        "o",
        "re"
      ],
      [
        "u",
        "s"
      ],
      [
        "Ġ",
        "'"
      ],
      [
        "Ġu",
        "n"
      ],
      [
        "es",
        "t"
      ],
      [
        "Ġc",
        "om"
      ],
      [
        "or",
        "d"
      ],
      [
        "Ġ",
        "Ġ"
      ],
      [
        "Ġ",
        "v"
      ],
      [
        "Ġc",
        "on"
      ],
      [
        "Ġs",
        "u"
      ],
      [
        "a",
        "k"
      ],
      [
        "o",
        "l"
      ],
      [
        "Ġa",
        "l"
      ],
      [
        "p",
        "e"
      ],
      [
        "u",
        "l"
      ],
      [
        "Ġfr",
        "om"
      ],
      [
        "Ġm",
        "e"
      ],
      [
        "re",
        "d"
      ],
      [
        "Ġa",
        "ll"
      ],
      [
        "a",
        "g"
      ],
      [
        "-",
        "@"
      ],
      [
        "Ġ@",
        "-@"
      ],
      [
        "Ġs",
        "a"
      ],
      [
        "t",
        "he"
      ],
      [
        "Ġ",
        "2"
      ],
      [
        "Ġhe",
        "r"
      ],
      [
        "es",
        "s"
      ],
      [
        "e",
        "l"
      ],
      [
        "Ġh",
        "im"
      ],
      [
        "r",
        "a"
      ],
      [
        "Ġthe",
        "y"
      ],
      [
        "Ġs",
        "ha"
      ],
      [
        "Ġb",
        "ut"
      ],
      [
        "Ġha",
        "d"
      ],
      [
        "ic",
        "h"
      ],
      [
        "er",
        "s"
      ],
      [
        "Ġn",
        "e"
      ],
      [
        "u",
        "m"
      ],
      [
        "i",
        "f"
      ],
      [
        "ou",
        "ld"
      ],
      [
        "q",
        "u"
      ],
      [
        "e",
        "m"
      ],
      [
        "Ġw",
        "he"
      ],
      [
        "o",
        "s"
      ],
      [
        "Ġwe",
        "re"
      ],
      [
        "re",
        "s"
      ],
      [
        "ar",
        "d"
      ],
      [
        "on",
        "g"
      ],
      [
        "a",
        "b"
      ],
      [
        "u",
        "n"
      ],
      [
        "an",
        "t"
      ],
      [
        "Ġ",
        "("
      ],
      [
        "am",
        "e"
      ],
      [
        "Ġwh",
        "ich"
      ],
      [
        "Ġs",
        "o"
      ],
      [
        "Ġha",
        "ve"
      ],
      [
        "Ġs",
        "he"
      ],
      [
        "i",
        "ght"
      ],
      [
        "Ġs",
        "h"
      ],
      [
        "is",
        "t"
      ],
      [
        "Ġa",
        "re"
      ],
      [
        "Ġo",
        "r"
      ],
      [
        "ou",
        "r"
      ],
      [
        "Ġu",
        "p"
      ],
      [
        "i",
        "ve"
      ],
      [
        "Ġth",
        "is"
      ],
      [
        "o",
        "p"
      ],
      [
        "Ġthe",
        "m"
      ],
      [
        "i",
        "e"
      ],
      [
        "ar",
        "t"
      ],
      [
        "Ġm",
        "an"
      ],
      [
        "at",
        "e"
      ],
      [
        "Ġ",
        ")"
      ],
      [
        "as",
        "t"
      ],
      [
        "i",
        "v"
      ],
      [
        "p",
        "t"
      ],
      [
        "i",
        "es"
      ],
      [
        "Ġg",
        "o"
      ],
      [
        "i",
        "g"
      ],
      [
        "Ġm",
        "y"
      ],
      [
        "Ġl",
        "e"
      ],
      [
        "Ġthe",
        "ir"
      ],
      [
        "Ġp",
        "ro"
      ],
      [
        "Ġe",
        "x"
      ],
      [
        "Ġp",
        "l"
      ],
      [
        "Ġth",
        "ou"
      ],
      [
        "p",
        "p"
      ],
      [
        "r",
        "ou"
      ],
      [
        "or",
        "t"
      ],
      [
        "Ġ1",
        "9"
      ],
      [
        "Ġsha",
        "ll"
      ],
      [
        "Ġl",
        "o"
      ],
      [
        "o",
        "k"
      ],
      [
        "it",
        "y"
      ],
      [
        "u",
        "d"
      ],
      [
        "Ġc",
        "h"
      ],
      [
        "u",
        "st"
      ],
      [
        "in",
        "e"
      ],
      [
        "Ġthe",
        "re"
      ],
      [
        "'",
        "s"
      ],
      [
        "0",
        "0"
      ],
      [
        "ha",
        "n"
      ],
      [
        "ou",
        "t"
      ],
      [
        "Ġsa",
        "id"
      ],
      [
        "Ġy",
        "e"
      ],
      [
        "ou",
        "s"
      ],
      [
        "Ġa",
        "b"
      ],
      [
        "-",
        "-"
      ],
      [
        "Ġa",
        "r"
      ],
      [
        "Ġon",
        "e"
      ],
      [
        "Ġd",
        "o"
      ],
      [
        "ow",
        "n"
      ],
      [
        "Ġn",
        "o"
      ],
      [
        "Ġa",
        "m"
      ],
      [
        "g",
        "e"
      ],
      [
        "Ġa",
        "f"
      ],
      [
        "Ġs",
        "p"
      ],
      [
        "om",
        "e"
      ],
      [
        "ver",
        "y"
      ],
      [
        "re",
        "n"
      ],
      [
        "Ġ",
        "ro"
      ],
      [
        "Ġwh",
        "o"
      ],
      [
        "Ġf",
        "e"
      ],
      [
        "Ġc",
        "o"
      ],
      [
        "Ġo",
        "ut"
      ],
      [
        "ac",
        "k"
      ],
      [
        "Ġw",
        "ill"
      ],
      [
        "k",
        "e"
      ],
      [
        "Ġun",
        "to"
      ],
      [
        "m",
        "ent"
      ],
      [
        "v",
        "en"
      ],
      [
        "s",
        "o"
      ],
      [
        "b",
        "er"
      ],
      [
        "Ġwhe",
        "n"
      ],
      [
        "Ġl",
        "ord"
      ],
      [
        "w",
        "e"
      ],
      [
        "Ġb",
        "r"
      ],
      [
        "on",
        "e"
      ],
      [
        "Ġk",
        "n"
      ],
      [
        "Ġa",
        "g"
      ],
      [
        "i",
        "p"
      ],
      [
        "Ġw",
        "or"
      ],
      [
        "Ġt",
        "r"
      ],
      [
        "Ġm",
        "o"
      ],
      [
        "ak",
        "e"
      ],
      [
        "at",
        "ed"
      ],
      [
        "is",
        "h"
      ],
      [
        "a",
        "u"
      ],
      [
        "in",
        "d"
      ],
      [
        "f",
        "e"
      ],
      [
        "id",
        "e"
      ],
      [
        "t",
        "her"
      ],
      [
        "c",
        "k"
      ],
      [
        "se",
        "l"
      ],
      [
        "Ġ",
        "en"
      ],
      [
        "u",
        "re"
      ],
      [
        "Ġt",
        "w"
      ],
      [
        "i",
        "an"
      ],
      [
        "as",
        "s"
      ],
      [
        "ou",
        "n"
      ],
      [
        "Ġp",
        "r"
      ],
      [
        "ac",
        "e"
      ],
      [
        "all",
        "y"
      ],
      [
        "f",
        "ore"
      ],
      [
        "ou",
        "nd"
      ],
      [
        "Ġc",
        "ha"
      ],
      [
        "l",
        "o"
      ],
      [
        "i",
        "a"
      ],
      [
        "c",
        "c"
      ],
      [
        "p",
        "er"
      ],
      [
        "ur",
        "n"
      ],
      [
        "ing",
        "s"
      ],
      [
        "he",
        "d"
      ],
      [
        "Ġu",
        "s"
      ],
      [
        "o",
        "f"
      ],
      [
        "u",
        "e"
      ],
      [
        "it",
        "t"
      ],
      [
        "Ġa",
        "d"
      ],
      [
        "Ġc",
        "a"
      ],
      [
        "ic",
        "e"
      ],
      [
        "Ġt",
        "im"
      ],
      [
        "Ġaf",
        "ter"
      ],
      [
        "Ġf",
        "ir"
      ],
      [
        "Ġcom",
        "p"
      ],
      [
        "it",
        "e"
      ],
      [
        "re",
        "at"
      ],
      [
        "i",
        "ld"
      ],
      [
        "Ġl",
        "i"
      ],
      [
        "Ġbe",
        "en"
      ],
      [
        "a",
        "v"
      ],
      [
        "Ġs",
        "c"
      ],
      [
        "Ġt",
        "e"
      ],
      [
        "t",
        "e"
      ],
      [
        "Ġm",
        "ore"
      ],
      [
        "c",
        "l"
      ],
      [
        "r",
        "y"
      ],
      [
        "Ġp",
        "er"
      ],
      [
        "re",
        "e"
      ],
      [
        "ar",
        "y"
      ],
      [
        "i",
        "re"
      ],
      [
        "ad",
        "e"
      ],
      [
        "Ġin",
        "to"
      ],
      [
        "Ġg",
        "od"
      ],
      [
        "Ġfir",
        "st"
      ],
      [
        "Ġp",
        "e"
      ],
      [
        "Ġw",
        "ould"
      ],
      [
        "ar",
        "s"
      ],
      [
        "an",
        "ce"
      ],
      [
        "Ġd",
        "ay"
      ],
      [
        "Ġo",
        "ther"
      ],
      [
        "Ġthe",
        "n"
      ],
      [
        "Ġc",
        "l"
      ],
      [
        "Ġo",
        "ver"
      ],
      [
        "Ġc",
        "an"
      ],
      [
        "Ġ",
        "â"
      ],
      [
        "Ġp",
        "o"
      ],
      [
        "nd",
        "er"
      ],
      [
        "Ġag",
        "ain"
      ],
      [
        "Ġof",
        "f"
      ],
      [
        "Ġal",
        "so"
      ],
      [
        "b",
        "e"
      ],
      [
        "ag",
        "e"
      ],
      [
        "ion",
        "s"
      ],
      [
        "Ġf",
        "o"
      ],
      [
        ".",
        "\""
      ],
      [
        "Ġw",
        "hat"
      ],
      [
        "et",
        "h"
      ],
      [
        "Ġtw",
        "o"
      ],
      [
        "Ġb",
        "o"
      ],
      [
        "Ġâ",
        "Ģ"
      ],
      [
        "Ġ",
        "3"
      ],
      [
        "w",
        "ay"
      ],
      [
        "Ġd",
        "is"
      ],
      [
        "Ġcon",
        "t"
      ],
      [
        "en",
        "ce"
      ],
      [
        "Ġi",
        "m"
      ],
      [
        "i",
        "le"
      ],
      [
        "Ġbe",
        "c"
      ],
      [
        "u",
        "b"
      ],
      [
        "at",
        "her"
      ],
      [
        "Ġyou",
        "r"
      ],
      [
        "Ġs",
        "er"
      ],
      [
        "Ġth",
        "y"
      ],
      [
        "Ġm",
        "ar"
      ],
      [
        "Ġcom",
        "m"
      ],
      [
        "v",
        "ed"
      ],
      [
        "n",
        "e"
      ],
      [
        "Ġ",
        "qu"
      ],
      [
        "f",
        "or"
      ],
      [
        "ot",
        "her"
      ],
      [
        "Ġi",
        "f"
      ],
      [
        "oun",
        "t"
      ],
      [
        "c",
        "o"
      ],
      [
        "sel",
        "f"
      ],
      [
        "Ġp",
        "art"
      ],
      [
        "ic",
        "k"
      ],
      [
        "ab",
        "le"
      ],
      [
        "w",
        "n"
      ],
      [
        "l",
        "es"
      ],
      [
        "w",
        "ard"
      ],
      [
        "Ġtim",
        "e"
      ],
      [
        "Ġd",
        "es"
      ],
      [
        "ig",
        "n"
      ],
      [
        "Ġit",
        "s"
      ],
      [
        "Ġs",
        "ay"
      ],
      [
        "ac",
        "h"
      ],
      [
        "Ġs",
        "pe"
      ],
      [
        "r",
        "u"
      ],
      [
        "Ġe",
        "ar"
      ],
      [
        "Ġn",
        "ow"
      ],
      [
        "Ġha",
        "s"
      ],
      [
        "i",
        "ed"
      ],
      [
        "Ġ",
        "ri"
      ],
      [
        "Ġp",
        "re"
      ],
      [
        "Ġh",
        "o"
      ],
      [
        "Ġt",
        "han"
      ],
      [
        "i",
        "al"
      ],
      [
        "Ġh",
        "ow"
      ],
      [
        "Ġs",
        "ome"
      ],
      [
        "Ġan",
        "y"
      ],
      [
        "a",
        "p"
      ],
      [
        ",",
        "\""
      ],
      [
        "a",
        "re"
      ],
      [
        "Ġli",
        "ke"
      ],
      [
        "Ġj",
        "o"
      ],
      [
        "at",
        "er"
      ],
      [
        "res",
        "s"
      ],
      [
        "Ġbe",
        "fore"
      ],
      [
        "ct",
        "ion"
      ],
      [
        "u",
        "ll"
      ],
      [
        "Ġb",
        "l"
      ],
      [
        "t",
        "ed"
      ],
      [
        "Ġup",
        "on"
      ],
      [
        "an",
        "s"
      ],
      [
        "Ġm",
        "ay"
      ],
      [
        "or",
        "y"
      ],
      [
        "Ġre",
        "s"
      ],
      [
        "i",
        "ous"
      ],
      [
        "on",
        "s"
      ],
      [
        "ou",
        "se"
      ],
      [
        "Ġg",
        "r"
      ],
      [
        "Ġne",
        "w"
      ],
      [
        "at",
        "h"
      ],
      [
        "ic",
        "al"
      ],
      [
        "b",
        "le"
      ],
      [
        "ation",
        "s"
      ],
      [
        "Ġthe",
        "e"
      ],
      [
        "Ġc",
        "ould"
      ],
      [
        "Ġ2",
        "00"
      ],
      [
        "t",
        "s"
      ],
      [
        "h",
        "o"
      ],
      [
        "Ġk",
        "ing"
      ],
      [
        "p",
        "l"
      ],
      [
        "ĠĠ",
        "ĠĠ"
      ],
      [
        "is",
        "e"
      ],
      [
        "b",
        "ut"
      ],
      [
        "i",
        "gh"
      ],
      [
        "Ġon",
        "ly"
      ],
      [
        "Ġin",
        "d"
      ],
      [
        "Ġ",
        "very"
      ],
      [
        "Ġf",
        "l"
      ],
      [
        "Ġn",
        "or"
      ],
      [
        "Ġha",
        "nd"
      ],
      [
        "Ġd",
        "id"
      ],
      [
        "Ġg",
        "reat"
      ],
      [
        "m",
        "an"
      ],
      [
        "Ġab",
        "out"
      ],
      [
        "Ġm",
        "ade"
      ],
      [
        "Ġ",
        ";"
      ],
      [
        "n",
        "ess"
      ],
      [
        "l",
        "and"
      ],
      [
        "in",
        "k"
      ],
      [
        "ot",
        "h"
      ],
      [
        "Ġkn",
        "ow"
      ],
      [
        "Ġw",
        "r"
      ],
      [
        "Ġwhe",
        "re"
      ],
      [
        "o",
        "se"
      ],
      [
        "e",
        "p"
      ],
      [
        "Ġse",
        "e"
      ],
      [
        "Ġthe",
        "se"
      ],
      [
        "or",
        "n"
      ],
      [
        "Ġre",
        "m"
      ],
      [
        "i",
        "z"
      ],
      [
        "Ġ2",
        "0"
      ],
      [
        "Ġbe",
        "t"
      ],
      [
        "Ġ",
        "4"
      ],
      [
        "Ġcha",
        "r"
      ],
      [
        "ĠâĢ",
        "ĵ"
      ],
      [
        "is",
        "s"
      ],
      [
        "au",
        "se"
      ],
      [
        "Ġd",
        "own"
      ],
      [
        "Ġu",
        "nder"
      ],
      [
        "Ġa",
        "p"
      ],
      [
        "op",
        "le"
      ],
      [
        "Ġsu",
        "ch"
      ],
      [
        "Ġc",
        "r"
      ],
      [
        "Ġ",
        ":"
      ],
      [
        "Ġpl",
        "ay"
      ],
      [
        "Ġre",
        "c"
      ],
      [
        "Ġa",
        "cc"
      ],
      [
        "Ġs",
        "m"
      ],
      [
        "rou",
        "gh"
      ],
      [
        "Ġc",
        "ame"
      ],
      [
        "ac",
        "t"
      ],
      [
        "it",
        "ion"
      ],
      [
        "Ġwor",
        "k"
      ],
      [
        "ll",
        "ow"
      ],
      [
        "c",
        "es"
      ],
      [
        "if",
        "e"
      ],
      [
        "Ġmo",
        "st"
      ],
      [
        "Ġm",
        "r"
      ],
      [
        "Ġe",
        "very"
      ],
      [
        "an",
        "g"
      ],
      [
        "ul",
        "t"
      ],
      [
        "a",
        "h"
      ],
      [
        "Ġbe",
        "g"
      ],
      [
        "Ġ",
        "5"
      ],
      [
        "Ġcom",
        "e"
      ],
      [
        "u",
        "ch"
      ],
      [
        "itt",
        "le"
      ],
      [
        "ou",
        "gh"
      ],
      [
        "Ġpe",
        "ople"
      ],
      [
        "Ġe",
        "ven"
      ],
      [
        "o",
        "od"
      ],
      [
        "Ġs",
        "ou"
      ],
      [
        "Ġha",
        "r"
      ],
      [
        "Ġe",
        "v"
      ],
      [
        "Ġat",
        "t"
      ],
      [
        "Ġh",
        "ouse"
      ],
      [
        "Ġe",
        "m"
      ],
      [
        "Ġgo",
        "od"
      ],
      [
        "c",
        "ed"
      ],
      [
        "Ġch",
        "ild"
      ],
      [
        "Ġth",
        "rough"
      ],
      [
        "le",
        "as"
      ],
      [
        "f",
        "t"
      ],
      [
        "Ġl",
        "and"
      ],
      [
        "o",
        "g"
      ],
      [
        "Ġ1",
        "8"
      ],
      [
        "Ġm",
        "en"
      ],
      [
        "Ġc",
        "all"
      ],
      [
        "Ġl",
        "ong"
      ],
      [
        "i",
        "x"
      ],
      [
        "Ġwe",
        "ll"
      ],
      [
        "en",
        "s"
      ],
      [
        "ur",
        "ing"
      ],
      [
        "Ġl",
        "ittle"
      ],
      [
        "Ġc",
        "ar"
      ],
      [
        "Ġcon",
        "s"
      ],
      [
        "Ġagain",
        "st"
      ],
      [
        "i",
        "ly"
      ],
      [
        "Ġl",
        "et"
      ],
      [
        "ar",
        "k"
      ],
      [
        "f",
        "f"
      ],
      [
        "e",
        "ct"
      ],
      [
        "or",
        "s"
      ],
      [
        "ve",
        "l"
      ],
      [
        "ver",
        "s"
      ],
      [
        "Ġe",
        "nd"
      ],
      [
        "d",
        "u"
      ],
      [
        "p",
        "h"
      ],
      [
        "Ġe",
        "l"
      ],
      [
        ".",
        "@"
      ],
      [
        "Ġ@",
        ".@"
      ],
      [
        "Ġo",
        "wn"
      ],
      [
        "Ġlo",
        "ok"
      ],
      [
        "m",
        "ed"
      ],
      [
        "t",
        "hat"
      ],
      [
        "Ġf",
        "ather"
      ],
      [
        "Ġs",
        "on"
      ],
      [
        "e",
        "ver"
      ],
      [
        "Ġre",
        "p"
      ],
      [
        "Ġwh",
        "ile"
      ],
      [
        "cl",
        "ud"
      ],
      [
        "he",
        "s"
      ],
      [
        "Ġo",
        "ld"
      ],
      [
        "l",
        "ed"
      ],
      [
        "rou",
        "nd"
      ],
      [
        "1",
        "0"
      ],
      [
        "Ġth",
        "ree"
      ],
      [
        "Ġl",
        "a"
      ],
      [
        "a",
        "il"
      ],
      [
        "f",
        "ul"
      ],
      [
        "Ġsh",
        "ould"
      ],
      [
        "Ġst",
        "r"
      ],
      [
        "Ġp",
        "ass"
      ],
      [
        "Ġre",
        "t"
      ],
      [
        "ent",
        "s"
      ],
      [
        "at",
        "es"
      ],
      [
        "a",
        "le"
      ],
      [
        "Ġh",
        "igh"
      ],
      [
        "Ġbe",
        "ing"
      ],
      [
        "m",
        "e"
      ],
      [
        "l",
        "i"
      ],
      [
        "Ġp",
        "res"
      ],
      [
        "Ġm",
        "uch"
      ],
      [
        "v",
        "es"
      ],
      [
        "Ġman",
        "y"
      ],
      [
        "Ġs",
        "ong"
      ],
      [
        "ic",
        "t"
      ],
      [
        "Ġw",
        "ay"
      ],
      [
        "Ġin",
        "ter"
      ],
      [
        "Ġo",
        "ur"
      ],
      [
        "Ġs",
        "et"
      ],
      [
        "as",
        "on"
      ],
      [
        "1",
        "1"
      ],
      [
        "Ġw",
        "ar"
      ],
      [
        "Ġc",
        "ent"
      ],
      [
        "it",
        "ed"
      ],
      [
        "Ġim",
        "p"
      ],
      [
        "ĠĠ",
        "Ġ"
      ],
      [
        "Ġ",
        "ent"
      ],
      [
        "a",
        "ve"
      ],
      [
        "Ġk",
        "e"
      ],
      [
        "Ġg",
        "en"
      ],
      [
        "Ġa",
        "pp"
      ],
      [
        "Ġo",
        "p"
      ],
      [
        "er",
        "t"
      ],
      [
        "Ġwor",
        "ld"
      ],
      [
        "ri",
        "e"
      ],
      [
        "ra",
        "el"
      ],
      [
        "ter",
        "s"
      ],
      [
        "Ġb",
        "u"
      ],
      [
        "Ġw",
        "ent"
      ],
      [
        "os",
        "s"
      ],
      [
        "v",
        "ing"
      ],
      [
        "Ġf",
        "ound"
      ],
      [
        "Ġt",
        "urn"
      ],
      [
        "Ġo",
        "b"
      ],
      [
        "Ġd",
        "uring"
      ],
      [
        "Ġf",
        "in"
      ],
      [
        "Ġen",
        "g"
      ],
      [
        "Ġm",
        "ake"
      ],
      [
        "al",
        "k"
      ],
      [
        "ri",
        "ed"
      ],
      [
        "Ġin",
        "clud"
      ],
      [
        "n",
        "ing"
      ],
      [
        "t",
        "y"
      ],
      [
        "Ġa",
        "c"
      ],
      [
        "Ġbec",
        "ause"
      ],
      [
        "Ġs",
        "y"
      ],
      [
        "Ġs",
        "in"
      ],
      [
        "Ġsu",
        "b"
      ],
      [
        ",",
        "@"
      ],
      [
        "Ġ@",
        ",@"
      ],
      [
        "Ġbe",
        "l"
      ],
      [
        "Ġre",
        "g"
      ],
      [
        "Ġb",
        "re"
      ],
      [
        "Ġm",
        "on"
      ],
      [
        "we",
        "en"
      ],
      [
        "Ġ",
        "6"
      ],
      [
        "is",
        "hed"
      ],
      [
        "p",
        "s"
      ],
      [
        "Ġhe",
        "ad"
      ],
      [
        "d",
        "e"
      ],
      [
        "Ġb",
        "ack"
      ],
      [
        "al",
        "s"
      ],
      [
        "Ġw",
        "ord"
      ],
      [
        "c",
        "i"
      ],
      [
        "Ġm",
        "a"
      ],
      [
        "Ġc",
        "ity"
      ],
      [
        "Ġfo",
        "llow"
      ],
      [
        "Ġis",
        "rael"
      ],
      [
        "Ġa",
        "ct"
      ],
      [
        "at",
        "t"
      ],
      [
        "Ġfor",
        "m"
      ],
      [
        "Ġbet",
        "ween"
      ],
      [
        "1",
        "2"
      ],
      [
        "'",
        "d"
      ],
      [
        "Ġchild",
        "ren"
      ],
      [
        "1",
        "3"
      ],
      [
        "it",
        "her"
      ],
      [
        "it",
        "s"
      ],
      [
        "Ġ",
        "7"
      ],
      [
        "Ġm",
        "ight"
      ],
      [
        "Ġs",
        "l"
      ],
      [
        "Ġm",
        "ust"
      ],
      [
        "Ġm",
        "in"
      ],
      [
        "Ġg",
        "u"
      ],
      [
        "Ġm",
        "us"
      ],
      [
        "Ġ",
        "z"
      ],
      [
        "w",
        "h"
      ],
      [
        "Ġin",
        "c"
      ],
      [
        "Ġg",
        "l"
      ],
      [
        "ul",
        "ar"
      ],
      [
        "ct",
        "ed"
      ],
      [
        "Ġf",
        "our"
      ],
      [
        "an",
        "k"
      ],
      [
        "Ġb",
        "oth"
      ],
      [
        "Ġye",
        "ars"
      ],
      [
        "s",
        "s"
      ],
      [
        "as",
        "e"
      ],
      [
        "Ġv",
        "o"
      ],
      [
        "w",
        "ith"
      ],
      [
        "'",
        "t"
      ],
      [
        "Ġsu",
        "pp"
      ],
      [
        "ri",
        "g"
      ],
      [
        "m",
        "o"
      ],
      [
        "Ġha",
        "th"
      ],
      [
        "ow",
        "er"
      ],
      [
        "s",
        "h"
      ],
      [
        "Ġne",
        "ver"
      ],
      [
        "in",
        "t"
      ],
      [
        "n",
        "g"
      ],
      [
        "g",
        "et"
      ],
      [
        "Ġa",
        "way"
      ],
      [
        "Ġap",
        "pe"
      ],
      [
        "1",
        "4"
      ],
      [
        "od",
        "y"
      ],
      [
        "r",
        "ic"
      ],
      [
        "ie",
        "ld"
      ],
      [
        "?",
        "\""
      ],
      [
        "ad",
        "y"
      ],
      [
        "Ġs",
        "w"
      ],
      [
        "Ġl",
        "ife"
      ],
      [
        "Ġre",
        "l"
      ],
      [
        "co",
        "nd"
      ],
      [
        "in",
        "s"
      ],
      [
        "Ġc",
        "ount"
      ],
      [
        "Ġj",
        "ust"
      ],
      [
        "ub",
        "l"
      ],
      [
        "l",
        "t"
      ],
      [
        "an",
        "e"
      ],
      [
        "Ġye",
        "ar"
      ],
      [
        "Ġg",
        "ame"
      ],
      [
        "n",
        "ot"
      ],
      [
        "it",
        "ies"
      ],
      [
        "i",
        "b"
      ],
      [
        "Ġn",
        "um"
      ],
      [
        "Ġe",
        "y"
      ],
      [
        "Ġas",
        "s"
      ],
      [
        "u",
        "al"
      ],
      [
        "is",
        "ed"
      ],
      [
        "Ġn",
        "ame"
      ],
      [
        "l",
        "f"
      ],
      [
        "Ġp",
        "ri"
      ],
      [
        "iv",
        "ed"
      ],
      [
        "Ġl",
        "ar"
      ],
      [
        "Ġs",
        "ur"
      ],
      [
        "am",
        "p"
      ],
      [
        "Ġin",
        "st"
      ],
      [
        "a",
        "red"
      ],
      [
        "Ġ",
        "9"
      ],
      [
        "Ġth",
        "ose"
      ],
      [
        "Ġri",
        "ght"
      ],
      [
        "at",
        "ing"
      ],
      [
        "er",
        "n"
      ],
      [
        "Ġgen",
        "er"
      ],
      [
        "Ġse",
        "cond"
      ],
      [
        "Ġth",
        "ink"
      ],
      [
        "Ġy",
        "et"
      ],
      [
        "Ġar",
        "t"
      ],
      [
        "u",
        "p"
      ],
      [
        "Ġ",
        "8"
      ],
      [
        "Ġ",
        "ed"
      ],
      [
        "1",
        "5"
      ],
      [
        "Ġt",
        "ake"
      ],
      [
        "Ġs",
        "ame"
      ],
      [
        "Ġd",
        "r"
      ],
      [
        "Ġf",
        "il"
      ],
      [
        "m",
        "s"
      ],
      [
        "Ġs",
        "ing"
      ],
      [
        "ce",
        "pt"
      ],
      [
        "t",
        "on"
      ],
      [
        "Ġj",
        "ud"
      ],
      [
        "m",
        "y"
      ],
      [
        "j",
        "ect"
      ],
      [
        "ur",
        "y"
      ],
      [
        "Ġl",
        "ast"
      ],
      [
        "ir",
        "d"
      ],
      [
        "ain",
        "ed"
      ],
      [
        "b",
        "y"
      ],
      [
        "Ġcall",
        "ed"
      ],
      [
        "u",
        "g"
      ],
      [
        "Ġop",
        "en"
      ],
      [
        "Ġrec",
        "ord"
      ],
      [
        "a",
        "ir"
      ],
      [
        "Ġpl",
        "ace"
      ],
      [
        "Ġthou",
        "gh"
      ],
      [
        "om",
        "an"
      ],
      [
        "Ġe",
        "le"
      ],
      [
        "Ġe",
        "ver"
      ],
      [
        "am",
        "es"
      ],
      [
        "er",
        "ing"
      ],
      [
        "Ġde",
        "p"
      ],
      [
        "r",
        "on"
      ],
      [
        "Ġc",
        "ol"
      ],
      [
        "Ġm",
        "iss"
      ],
      [
        "Ġthou",
        "ght"
      ],
      [
        "Ġp",
        "ut"
      ],
      [
        "he",
        "n"
      ],
      [
        "ak",
        "ing"
      ],
      [
        "Ġear",
        "th"
      ],
      [
        "rie",
        "nd"
      ],
      [
        "Ġa",
        "ir"
      ],
      [
        "Ġret",
        "urn"
      ],
      [
        "u",
        "nd"
      ],
      [
        "Ġst",
        "e"
      ],
      [
        "Ġan",
        "other"
      ],
      [
        "is",
        "ion"
      ],
      [
        "Ġs",
        "om"
      ],
      [
        "Ġc",
        "han"
      ],
      [
        "Ġser",
        "v"
      ],
      [
        "Ġg",
        "ive"
      ],
      [
        "ot",
        "e"
      ],
      [
        "ie",
        "w"
      ],
      [
        "Ġp",
        "ar"
      ],
      [
        "Ġl",
        "ater"
      ],
      [
        "1",
        "6"
      ],
      [
        "Ġth",
        "ings"
      ],
      [
        "Ġpro",
        "du"
      ],
      [
        "h",
        "ing"
      ],
      [
        "Ġam",
        "ong"
      ],
      [
        "Ġf",
        "am"
      ],
      [
        "i",
        "ble"
      ],
      [
        "Ġd",
        "ist"
      ],
      [
        "Ġhow",
        "ever"
      ],
      [
        "in",
        "es"
      ],
      [
        "Ġhim",
        "self"
      ],
      [
        "Ġhe",
        "art"
      ],
      [
        "ment",
        "s"
      ],
      [
        "Ġth",
        "ing"
      ],
      [
        "Ġp",
        "ol"
      ],
      [
        "re",
        "t"
      ],
      [
        "Ġnor",
        "th"
      ],
      [
        "y",
        "ou"
      ],
      [
        "Ġwith",
        "out"
      ],
      [
        "Ġsa",
        "w"
      ],
      [
        "ho",
        "ld"
      ],
      [
        "Ġp",
        "ers"
      ],
      [
        "Ġm",
        "at"
      ],
      [
        "Ġad",
        "d"
      ],
      [
        "er",
        "ic"
      ],
      [
        "ter",
        "n"
      ],
      [
        "Ġsh",
        "ip"
      ],
      [
        "Ġcomm",
        "and"
      ],
      [
        "l",
        "ess"
      ],
      [
        "m",
        "b"
      ],
      [
        "Ġto",
        "ok"
      ],
      [
        "Ġs",
        "im"
      ],
      [
        "Ġp",
        "h"
      ],
      [
        "Ġse",
        "em"
      ],
      [
        "r",
        "al"
      ],
      [
        "c",
        "ri"
      ],
      [
        "u",
        "res"
      ],
      [
        "g",
        "ed"
      ],
      [
        "r",
        "ow"
      ],
      [
        "ation",
        "al"
      ],
      [
        "if",
        "ic"
      ],
      [
        "Ġt",
        "ri"
      ],
      [
        "Ġca",
        "pt"
      ],
      [
        "m",
        "ber"
      ],
      [
        "ant",
        "s"
      ],
      [
        "n",
        "o"
      ],
      [
        "Ġre",
        "st"
      ],
      [
        "Ġf",
        "riend"
      ],
      [
        "Ġlo",
        "ve"
      ],
      [
        "Ġspe",
        "c"
      ],
      [
        "Ġ19",
        "9"
      ],
      [
        "Ġst",
        "ill"
      ],
      [
        "m",
        "a"
      ],
      [
        "Ġb",
        "ro"
      ],
      [
        "Ġn",
        "ight"
      ],
      [
        "fe",
        "ct"
      ],
      [
        "Ġsay",
        "ing"
      ],
      [
        "Ġp",
        "ubl"
      ],
      [
        "Ġse",
        "ason"
      ],
      [
        "Ġj",
        "e"
      ],
      [
        "Ġin",
        "v"
      ],
      [
        "Ġf",
        "ar"
      ],
      [
        "fe",
        "ren"
      ],
      [
        "ol",
        "og"
      ],
      [
        "in",
        "ed"
      ],
      [
        "Ġsou",
        "th"
      ],
      [
        "Ġkn",
        "own"
      ],
      [
        "ain",
        "s"
      ],
      [
        "Ġg",
        "iv"
      ],
      [
        "Ġt",
        "er"
      ],
      [
        "n",
        "er"
      ],
      [
        "Ġm",
        "id"
      ],
      [
        "Ġcont",
        "in"
      ],
      [
        "ro",
        "ss"
      ],
      [
        "Ġbeg",
        "an"
      ],
      [
        "c",
        "y"
      ],
      [
        "l",
        "ing"
      ],
      [
        "i",
        "red"
      ],
      [
        "Ġde",
        "c"
      ],
      [
        "Ġyou",
        "ng"
      ],
      [
        "c",
        "ha"
      ],
      [
        "Ġd",
        "ire"
      ],
      [
        "2",
        "0"
      ],
      [
        "a",
        "z"
      ],
      [
        "Ġto",
        "o"
      ],
      [
        "Ġus",
        "ed"
      ],
      [
        "Ġne",
        "ar"
      ],
      [
        "Ġhe",
        "re"
      ],
      [
        "Ġtr",
        "ans"
      ],
      [
        "re",
        "w"
      ],
      [
        "Ġre",
        "ce"
      ],
      [
        "!",
        "\""
      ],
      [
        "Ġex",
        "p"
      ],
      [
        "an",
        "y"
      ],
      [
        "ro",
        "p"
      ],
      [
        "y",
        "s"
      ],
      [
        "Ġam",
        "eric"
      ],
      [
        "Ġn",
        "at"
      ],
      [
        "au",
        "gh"
      ],
      [
        "h",
        "n"
      ],
      [
        "rou",
        "ght"
      ],
      [
        "Ġb",
        "as"
      ],
      [
        "a",
        "ven"
      ],
      [
        "e",
        "k"
      ],
      [
        "Ġin",
        "f"
      ],
      [
        "Ġday",
        "s"
      ],
      [
        "Ġd",
        "if"
      ],
      [
        "Ġ",
        "00"
      ],
      [
        "Ġde",
        "ath"
      ],
      [
        "Ġe",
        "ach"
      ],
      [
        "p",
        "o"
      ],
      [
        "Ġs",
        "ent"
      ],
      [
        "Ġst",
        "and"
      ],
      [
        "Ġs",
        "ide"
      ],
      [
        "Ġw",
        "ha"
      ],
      [
        "we",
        "ll"
      ],
      [
        "Ġch",
        "r"
      ],
      [
        "Ġd",
        "iv"
      ],
      [
        "ward",
        "s"
      ],
      [
        "Ġc",
        "e"
      ],
      [
        "Ġre",
        "leas"
      ],
      [
        "1",
        "8"
      ],
      [
        "Ġl",
        "ight"
      ],
      [
        "Ġcon",
        "f"
      ],
      [
        "i",
        "er"
      ],
      [
        "Ġse",
        "a"
      ],
      [
        "t",
        "il"
      ],
      [
        "Ġal",
        "b"
      ],
      [
        "Ġw",
        "est"
      ],
      [
        "Ġin",
        "t"
      ],
      [
        "Ġbel",
        "ie"
      ],
      [
        "Ġr",
        "un"
      ],
      [
        "ut",
        "h"
      ],
      [
        "Ġp",
        "a"
      ],
      [
        "ord",
        "ing"
      ],
      [
        "1",
        "7"
      ],
      [
        "Ġhe",
        "l"
      ],
      [
        "Ġ1",
        "0"
      ],
      [
        "s",
        "he"
      ],
      [
        "Ġe",
        "p"
      ],
      [
        "pe",
        "ct"
      ],
      [
        "Ġb",
        "att"
      ],
      [
        "Ġle",
        "ft"
      ],
      [
        "Ġ",
        "est"
      ],
      [
        "Ġjo",
        "hn"
      ],
      [
        "Ġb",
        "ar"
      ],
      [
        "ic",
        "s"
      ],
      [
        "as",
        "h"
      ],
      [
        "Ġch",
        "ur"
      ],
      [
        "1",
        "9"
      ],
      [
        "u",
        "ed"
      ],
      [
        "Ġthere",
        "fore"
      ],
      [
        "Ġw",
        "ater"
      ],
      [
        "Ġca",
        "re"
      ],
      [
        "Ġsh",
        "ow"
      ],
      [
        "b",
        "o"
      ],
      [
        "Ġde",
        "l"
      ],
      [
        "Ġc",
        "our"
      ],
      [
        "ert",
        "ain"
      ],
      [
        "Ġan",
        "g"
      ],
      [
        "Ġhe",
        "ard"
      ],
      [
        "Ġs",
        "ign"
      ],
      [
        "Ġnum",
        "ber"
      ],
      [
        "or",
        "k"
      ],
      [
        "Ġst",
        "ate"
      ],
      [
        "Ġb",
        "est"
      ],
      [
        "Ġwh",
        "om"
      ],
      [
        "x",
        "t"
      ],
      [
        "Ġre",
        "f"
      ],
      [
        "Ġfil",
        "m"
      ],
      [
        "Ġsm",
        "all"
      ],
      [
        "i",
        "o"
      ],
      [
        "Ġs",
        "ix"
      ],
      [
        "Ġmr",
        "s"
      ],
      [
        "os",
        "ed"
      ],
      [
        "Ġm",
        "other"
      ],
      [
        "Ġalb",
        "um"
      ],
      [
        "t",
        "ing"
      ],
      [
        "Ġp",
        "ur"
      ],
      [
        "Ġw",
        "ind"
      ],
      [
        "Ġear",
        "ly"
      ],
      [
        "th",
        "ough"
      ],
      [
        "Ġhis",
        "t"
      ],
      [
        "it",
        "es"
      ],
      [
        "Ġm",
        "et"
      ],
      [
        "Ġad",
        "v"
      ],
      [
        "Ġc",
        "ur"
      ],
      [
        "mo",
        "st"
      ],
      [
        "Ġp",
        "ort"
      ],
      [
        "Ġm",
        "ount"
      ],
      [
        "Ġsha",
        "lt"
      ],
      [
        "c",
        "hed"
      ],
      [
        "g",
        "y"
      ],
      [
        "Ġs",
        "ch"
      ],
      [
        "t",
        "en"
      ],
      [
        "Ġst",
        "ud"
      ],
      [
        "Ġchar",
        "ac"
      ],
      [
        "for",
        "m"
      ],
      [
        "Ġin",
        "te"
      ],
      [
        "u",
        "ally"
      ],
      [
        "Ġm",
        "il"
      ],
      [
        "Ġal",
        "ong"
      ],
      [
        "Ġre",
        "v"
      ],
      [
        "u",
        "red"
      ],
      [
        "Ġsin",
        "ce"
      ],
      [
        "Ġla",
        "w"
      ],
      [
        "nd",
        "ed"
      ],
      [
        "ak",
        "en"
      ],
      [
        "Ġser",
        "ies"
      ],
      [
        "et",
        "s"
      ],
      [
        "Ġin",
        "s"
      ],
      [
        "Ġbec",
        "ame"
      ],
      [
        "Ġt",
        "re"
      ],
      [
        "Ġacc",
        "ording"
      ],
      [
        "Ġh",
        "um"
      ],
      [
        "Ġun",
        "til"
      ],
      [
        "Ġr",
        "a"
      ],
      [
        "Ġhe",
        "ar"
      ],
      [
        "Ġd",
        "av"
      ],
      [
        "Ġs",
        "il"
      ],
      [
        "way",
        "s"
      ],
      [
        "get",
        "her"
      ],
      [
        "re",
        "st"
      ],
      [
        "Ġha",
        "st"
      ],
      [
        "2",
        "1"
      ],
      [
        "Ġth",
        "us"
      ],
      [
        "Ġh",
        "ome"
      ],
      [
        "Ġlo",
        "c"
      ],
      [
        "Ġse",
        "ver"
      ],
      [
        "Ġey",
        "es"
      ],
      [
        "w",
        "hat"
      ],
      [
        "Ġlar",
        "ge"
      ],
      [
        "Ġ",
        "0"
      ],
      [
        "he",
        "re"
      ],
      [
        "2",
        "2"
      ],
      [
        "Ġf",
        "ace"
      ],
      [
        "od",
        "e"
      ],
      [
        "Ġte",
        "ll"
      ],
      [
        "Ġha",
        "pp"
      ],
      [
        "Ġpro",
        "p"
      ],
      [
        "Ġle",
        "ad"
      ],
      [
        "el",
        "s"
      ],
      [
        "Ġb",
        "lo"
      ],
      [
        "Ġp",
        "oss"
      ],
      [
        "Ġchur",
        "ch"
      ],
      [
        "Ġcon",
        "c"
      ],
      [
        "b",
        "ed"
      ],
      [
        "Ġf",
        "ive"
      ],
      [
        "Ġmus",
        "ic"
      ],
      [
        "d",
        "er"
      ],
      [
        "g",
        "r"
      ],
      [
        "Ġt",
        "em"
      ],
      [
        "Ġb",
        "rought"
      ],
      [
        "Ġm",
        "ain"
      ],
      [
        "Ġp",
        "op"
      ],
      [
        "Ġ00",
        "0"
      ],
      [
        "ent",
        "ly"
      ],
      [
        "ia",
        "h"
      ],
      [
        "p",
        "le"
      ],
      [
        "Ġhe",
        "aven"
      ],
      [
        "k",
        "ed"
      ],
      [
        "h",
        "is"
      ],
      [
        "Ġg",
        "re"
      ],
      [
        "Ġsever",
        "al"
      ],
      [
        "el",
        "t"
      ],
      [
        "Ġf",
        "ull"
      ],
      [
        "il",
        "t"
      ],
      [
        "h",
        "ip"
      ],
      [
        "Ġc",
        "le"
      ],
      [
        "Ġf",
        "ire"
      ],
      [
        "Ġha",
        "lf"
      ],
      [
        "Ġcon",
        "st"
      ],
      [
        "Ġr",
        "ound"
      ],
      [
        "on",
        "t"
      ],
      [
        "Ġco",
        "ll"
      ],
      [
        "Ġw",
        "at"
      ],
      [
        "Ġd",
        "one"
      ],
      [
        "n",
        "ed"
      ],
      [
        "Ġt",
        "ra"
      ],
      [
        "c",
        "om"
      ],
      [
        "en",
        "se"
      ],
      [
        "Ġwh",
        "ite"
      ],
      [
        "Ġbo",
        "ok"
      ],
      [
        "Ġo",
        "rig"
      ],
      [
        "ate",
        "ly"
      ],
      [
        "Ġm",
        "ill"
      ],
      [
        "Ġ1",
        "6"
      ],
      [
        "Ġso",
        "on"
      ],
      [
        "Ġo",
        "cc"
      ],
      [
        "Ġf",
        "ind"
      ],
      [
        "Ġbl",
        "ack"
      ],
      [
        "ut",
        "e"
      ],
      [
        "id",
        "ed"
      ],
      [
        "Ġp",
        "leas"
      ],
      [
        "Ġdes",
        "cri"
      ],
      [
        "Ġ",
        "es"
      ],
      [
        "s",
        "ha"
      ],
      [
        "m",
        "er"
      ],
      [
        "Ġd",
        "est"
      ],
      [
        "Ġcomp",
        "le"
      ],
      [
        "Ġvo",
        "ice"
      ],
      [
        "s",
        "er"
      ],
      [
        "Ġchr",
        "ist"
      ],
      [
        "Ġpr",
        "om"
      ],
      [
        "em",
        "ber"
      ],
      [
        "un",
        "e"
      ],
      [
        "Ġbe",
        "hold"
      ],
      [
        "Ġf",
        "ore"
      ],
      [
        "Ġdav",
        "id"
      ],
      [
        "Ġnot",
        "hing"
      ],
      [
        "Ġ1",
        "5"
      ],
      [
        "y",
        "l"
      ],
      [
        "n",
        "ow"
      ],
      [
        "Ġp",
        "ower"
      ],
      [
        "Ġpro",
        "v"
      ],
      [
        "Ġst",
        "ar"
      ],
      [
        "Ġan",
        "s"
      ],
      [
        "Ġw",
        "ant"
      ],
      [
        "Ġ1",
        "2"
      ],
      [
        "b",
        "r"
      ],
      [
        "i",
        "et"
      ],
      [
        "Ġs",
        "at"
      ],
      [
        "Ġv",
        "is"
      ],
      [
        "sel",
        "ves"
      ],
      [
        "Ġpre",
        "v"
      ],
      [
        "vel",
        "op"
      ],
      [
        "Ġse",
        "en"
      ],
      [
        "d",
        "en"
      ],
      [
        "Ġse",
        "c"
      ],
      [
        "Ġco",
        "nd"
      ],
      [
        "e",
        "red"
      ],
      [
        "Ġorig",
        "in"
      ],
      [
        "Ġg",
        "ave"
      ],
      [
        "iz",
        "ed"
      ],
      [
        "et",
        "er"
      ],
      [
        "Ġc",
        "he"
      ],
      [
        "em",
        "ent"
      ],
      [
        "Ġind",
        "e"
      ],
      [
        "it",
        "ing"
      ],
      [
        "u",
        "c"
      ],
      [
        "in",
        "ess"
      ],
      [
        "Ġsp",
        "ir"
      ],
      [
        "Ġst",
        "or"
      ],
      [
        "Ġgo",
        "ld"
      ],
      [
        "ha",
        "m"
      ],
      [
        "Ġw",
        "alk"
      ],
      [
        "Ġs",
        "k"
      ],
      [
        "Ġu",
        "se"
      ],
      [
        "Ġon",
        "ce"
      ],
      [
        "Ġst",
        "art"
      ],
      [
        "Ġc",
        "ast"
      ],
      [
        "ver",
        "n"
      ],
      [
        "an",
        "c"
      ],
      [
        "Ġwith",
        "in"
      ],
      [
        "le",
        "t"
      ],
      [
        "is",
        "ter"
      ],
      [
        "Ġv",
        "ar"
      ],
      [
        "Ġbr",
        "it"
      ],
      [
        "n",
        "a"
      ],
      [
        "Ġsh",
        "ort"
      ],
      [
        "Ġbr",
        "ing"
      ],
      [
        "at",
        "ive"
      ],
      [
        "Ġinclud",
        "ing"
      ],
      [
        "Ġs",
        "ol"
      ],
      [
        "Ġd",
        "on"
      ],
      [
        "Ġep",
        "is"
      ],
      [
        "Ġd",
        "am"
      ],
      [
        "Ġ1",
        "7"
      ],
      [
        "le",
        "y"
      ],
      [
        "the",
        "re"
      ],
      [
        "Ġde",
        "velop"
      ],
      [
        "Ġpres",
        "ent"
      ],
      [
        "g",
        "g"
      ],
      [
        "u",
        "es"
      ],
      [
        "Ġfollow",
        "ing"
      ],
      [
        "Ġde",
        "f"
      ],
      [
        "2",
        "3"
      ],
      [
        "Ġw",
        "ood"
      ],
      [
        "at",
        "s"
      ],
      [
        "d",
        "om"
      ],
      [
        "Ġd",
        "ra"
      ],
      [
        "m",
        "p"
      ],
      [
        "Ġsu",
        "re"
      ],
      [
        "ha",
        "b"
      ],
      [
        "am",
        "ed"
      ],
      [
        "us",
        "ed"
      ],
      [
        "ag",
        "es"
      ],
      [
        "Ġgiv",
        "en"
      ],
      [
        "c",
        "ess"
      ],
      [
        "Ġ",
        "/"
      ],
      [
        "Ġo",
        "per"
      ],
      [
        "en",
        "ed"
      ],
      [
        "Ġm",
        "er"
      ],
      [
        "Ġun",
        "ited"
      ],
      [
        "Ġcr",
        "it"
      ],
      [
        "Ġstr",
        "ong"
      ],
      [
        "s",
        "on"
      ],
      [
        "Ġb",
        "urn"
      ],
      [
        "Ġsu",
        "n"
      ],
      [
        "w",
        "as"
      ],
      [
        "Ġex",
        "t"
      ],
      [
        "ri",
        "ght"
      ],
      [
        "the",
        "y"
      ],
      [
        "Ġte",
        "am"
      ],
      [
        "Ġto",
        "wn"
      ],
      [
        "Ġwha",
        "le"
      ],
      [
        "im",
        "e"
      ],
      [
        "Ġto",
        "gether"
      ],
      [
        "en",
        "n"
      ],
      [
        "Ġh",
        "or"
      ],
      [
        "Ġb",
        "ody"
      ],
      [
        "ĠâĢ",
        "Ķ"
      ],
      [
        "o",
        "ol"
      ],
      [
        "Ġhand",
        "s"
      ],
      [
        "id",
        "ent"
      ],
      [
        "Ġspe",
        "ak"
      ],
      [
        "Ġfe",
        "w"
      ],
      [
        "en",
        "g"
      ],
      [
        "Ġal",
        "though"
      ],
      [
        "Ġf",
        "ield"
      ],
      [
        "Ġ19",
        "8"
      ],
      [
        "p",
        "r"
      ],
      [
        "Ġf",
        "all"
      ],
      [
        "Ġg",
        "et"
      ],
      [
        "Ġh",
        "ur"
      ],
      [
        "Ġme",
        "an"
      ],
      [
        "Ġs",
        "ons"
      ],
      [
        "Ġe",
        "u"
      ],
      [
        "Ġfam",
        "ily"
      ],
      [
        "Ġw",
        "in"
      ],
      [
        "Ġc",
        "or"
      ],
      [
        "Ġcent",
        "ury"
      ],
      [
        "d",
        "ay"
      ],
      [
        "Ġst",
        "re"
      ],
      [
        "Ġdis",
        "c"
      ],
      [
        "Ġm",
        "od"
      ],
      [
        "Ġm",
        "ag"
      ],
      [
        "Ġj",
        "er"
      ],
      [
        "Ġpri",
        "est"
      ],
      [
        "st",
        "and"
      ],
      [
        "Ġb",
        "us"
      ],
      [
        "m",
        "on"
      ],
      [
        "cc",
        "ess"
      ],
      [
        "Ġl",
        "ive"
      ],
      [
        "ac",
        "es"
      ],
      [
        "if",
        "ied"
      ],
      [
        "qu",
        "e"
      ],
      [
        "Ġbu",
        "ild"
      ],
      [
        "Ġgo",
        "vern"
      ],
      [
        "Ġdire",
        "ct"
      ],
      [
        "ist",
        "s"
      ],
      [
        "2",
        "4"
      ],
      [
        "Ġoff",
        "ic"
      ],
      [
        "Ġri",
        "ver"
      ],
      [
        "ur",
        "al"
      ],
      [
        "Ġfor",
        "th"
      ],
      [
        "Ġsa",
        "ith"
      ],
      [
        "Ġcomp",
        "any"
      ],
      [
        "u",
        "ck"
      ],
      [
        "a",
        "im"
      ],
      [
        "m",
        "en"
      ],
      [
        "ent",
        "ion"
      ],
      [
        "y",
        "ing"
      ],
      [
        "3",
        "0"
      ],
      [
        "id",
        "es"
      ],
      [
        "Ġpart",
        "ic"
      ],
      [
        "Ġf",
        "ur"
      ],
      [
        "Ġtim",
        "es"
      ],
      [
        "Ġpers",
        "on"
      ],
      [
        "Ġa",
        "round"
      ],
      [
        "Ġha",
        "ving"
      ],
      [
        "Ġappe",
        "ar"
      ],
      [
        "iv",
        "es"
      ],
      [
        "Ġfe",
        "el"
      ],
      [
        "Ġl",
        "ine"
      ],
      [
        "Ġha",
        "m"
      ],
      [
        "Ġl",
        "ess"
      ],
      [
        "un",
        "g"
      ],
      [
        "Ġro",
        "ad"
      ],
      [
        "Ġf",
        "a"
      ],
      [
        "re",
        "ad"
      ],
      [
        "Ġpr",
        "in"
      ],
      [
        "Ġmon",
        "th"
      ],
      [
        "Ġre",
        "d"
      ],
      [
        "Ġm",
        "ed"
      ],
      [
        "Ġw",
        "oman"
      ],
      [
        "ie",
        "f"
      ],
      [
        "Ġword",
        "s"
      ],
      [
        "b",
        "s"
      ],
      [
        "eth",
        "ing"
      ],
      [
        "Ġst",
        "ates"
      ],
      [
        "Ġj",
        "es"
      ],
      [
        "Ġne",
        "xt"
      ],
      [
        "Ġp",
        "at"
      ],
      [
        "l",
        "ish"
      ],
      [
        "Ġc",
        "re"
      ],
      [
        "Ġma",
        "j"
      ],
      [
        "a",
        "w"
      ],
      [
        "en",
        "e"
      ],
      [
        "j",
        "o"
      ],
      [
        "Ġm",
        "os"
      ],
      [
        "Ġd",
        "ou"
      ],
      [
        "as",
        "ter"
      ],
      [
        "Ġ19",
        "4"
      ],
      [
        "Ġs",
        "ir"
      ],
      [
        "Ġal",
        "ways"
      ],
      [
        "ha",
        "r"
      ],
      [
        "Ġfe",
        "at"
      ],
      [
        "Ġwe",
        "ek"
      ],
      [
        "Ġcharac",
        "ter"
      ],
      [
        "Ġg",
        "er"
      ],
      [
        "a",
        "f"
      ],
      [
        "ow",
        "s"
      ],
      [
        "wh",
        "ich"
      ],
      [
        "2",
        "5"
      ],
      [
        "Ġt",
        "y"
      ],
      [
        "Ġf",
        "lo"
      ],
      [
        "Ġe",
        "at"
      ],
      [
        "ak",
        "es"
      ],
      [
        "Ġrece",
        "ived"
      ],
      [
        "Ġp",
        "os"
      ],
      [
        "ac",
        "ed"
      ],
      [
        "Ġre",
        "pl"
      ],
      [
        "Ġ19",
        "6"
      ],
      [
        "Ġho",
        "ld"
      ],
      [
        "p",
        "ed"
      ],
      [
        "Ġpro",
        "f"
      ],
      [
        "Ġbr",
        "other"
      ],
      [
        "Ġameric",
        "an"
      ],
      [
        "er",
        "y"
      ],
      [
        "orn",
        "ing"
      ],
      [
        "Ġc",
        "ertain"
      ],
      [
        "Ġe",
        "ast"
      ],
      [
        "o",
        "h"
      ],
      [
        "Ġ19",
        "7"
      ],
      [
        "ud",
        "e"
      ],
      [
        "Ġh",
        "on"
      ],
      [
        "Ġg",
        "ra"
      ],
      [
        "Ġg",
        "rou"
      ],
      [
        "Ġo",
        "pp"
      ],
      [
        "Ġc",
        "amp"
      ],
      [
        "Ġdes",
        "ign"
      ],
      [
        "Ġk",
        "ill"
      ],
      [
        "Ġh",
        "our"
      ],
      [
        "Ġsu",
        "ccess"
      ],
      [
        "Ġwho",
        "le"
      ],
      [
        "Ġc",
        "al"
      ],
      [
        "ag",
        "ue"
      ],
      [
        "Ġne",
        "ither"
      ],
      [
        "r",
        "om"
      ],
      [
        "Ġto",
        "p"
      ],
      [
        "Ġsou",
        "l"
      ],
      [
        "Ġan",
        "n"
      ],
      [
        "il",
        "ity"
      ],
      [
        "ag",
        "ed"
      ],
      [
        "Ġsch",
        "ool"
      ],
      [
        "Ġw",
        "ife"
      ],
      [
        "an",
        "ge"
      ],
      [
        "Ġc",
        "ried"
      ],
      [
        "g",
        "an"
      ],
      [
        "it",
        "er"
      ],
      [
        "ro",
        "y"
      ],
      [
        "em",
        "pt"
      ],
      [
        "Ġun",
        "i"
      ],
      [
        "pp",
        "ed"
      ],
      [
        "itt",
        "en"
      ],
      [
        "Ġst",
        "ru"
      ],
      [
        "Ġepis",
        "ode"
      ],
      [
        "i",
        "ence"
      ],
      [
        "2",
        "6"
      ],
      [
        "Ġk",
        "ind"
      ],
      [
        "c",
        "a"
      ],
      [
        "i",
        "ent"
      ],
      [
        "is",
        "m"
      ],
      [
        "Ġqu",
        "ite"
      ],
      [
        "Ġth",
        "ird"
      ],
      [
        "Ġde",
        "v"
      ],
      [
        "Ġbet",
        "ter"
      ],
      [
        "Ġpubl",
        "ic"
      ],
      [
        "Ġseem",
        "ed"
      ],
      [
        "Ġm",
        "om"
      ],
      [
        "Ġg",
        "e"
      ],
      [
        "Ġdif",
        "feren"
      ],
      [
        "Ġpo",
        "or"
      ],
      [
        "Ġa",
        "ust"
      ],
      [
        "Ġke",
        "ep"
      ],
      [
        "ard",
        "s"
      ],
      [
        "Ġfo",
        "ot"
      ],
      [
        "Ġm",
        "ine"
      ],
      [
        "Ġl",
        "ate"
      ],
      [
        "Ġare",
        "a"
      ],
      [
        "om",
        "in"
      ],
      [
        "her",
        "n"
      ],
      [
        "Ġgener",
        "al"
      ],
      [
        "Ġd",
        "augh"
      ],
      [
        "Ã",
        "©"
      ],
      [
        "o",
        "ve"
      ],
      [
        "Ġcomm",
        "on"
      ],
      [
        "Ġher",
        "self"
      ],
      [
        "ot",
        "t"
      ],
      [
        "Ġb",
        "ur"
      ],
      [
        "Ġkn",
        "e"
      ],
      [
        "Ġinc",
        "re"
      ],
      [
        "ain",
        "ing"
      ],
      [
        "iv",
        "ing"
      ],
      [
        "ian",
        "s"
      ],
      [
        "Ġs",
        "ound"
      ],
      [
        "Ġre",
        "al"
      ],
      [
        "Ġl",
        "ist"
      ],
      [
        "ot",
        "s"
      ],
      [
        "gy",
        "pt"
      ],
      [
        "und",
        "red"
      ],
      [
        "o",
        "nd"
      ],
      [
        "al",
        "es"
      ],
      [
        "Ġr",
        "ather"
      ],
      [
        "Ġal",
        "most"
      ],
      [
        "Ġle",
        "g"
      ],
      [
        "ort",
        "ed"
      ],
      [
        "Ġde",
        "ad"
      ],
      [
        "Ġhar",
        "d"
      ],
      [
        "Ġm",
        "orning"
      ],
      [
        "Ġs",
        "le"
      ],
      [
        "Ġbrit",
        "ish"
      ],
      [
        "Ġm",
        "ac"
      ],
      [
        "i",
        "um"
      ],
      [
        "Ġdo",
        "es"
      ],
      [
        "Ġa",
        "ug"
      ],
      [
        "Ġ1",
        "3"
      ],
      [
        "Ġs",
        "we"
      ],
      [
        "Ġm",
        "ind"
      ],
      [
        "p",
        "ar"
      ],
      [
        "Ġt",
        "alk"
      ],
      [
        "Ġe",
        "as"
      ],
      [
        "th",
        "ing"
      ],
      [
        "Ġad",
        "m"
      ],
      [
        "Ġv",
        "ill"
      ],
      [
        "Ġl",
        "ow"
      ],
      [
        "Ġse",
        "ven"
      ],
      [
        "Ġjes",
        "us"
      ],
      [
        "Ġt",
        "it"
      ],
      [
        "is",
        "on"
      ],
      [
        "ut",
        "ion"
      ],
      [
        "Ġn",
        "ational"
      ],
      [
        "Ġg",
        "round"
      ],
      [
        "Ġreleas",
        "ed"
      ],
      [
        "Ġc",
        "lo"
      ],
      [
        "Ġw",
        "a"
      ],
      [
        "Ġw",
        "on"
      ],
      [
        "ac",
        "hed"
      ],
      [
        "Ġlook",
        "ed"
      ],
      [
        ".",
        "--"
      ],
      [
        "Ġmar",
        "k"
      ],
      [
        "Ġmill",
        "ion"
      ],
      [
        "ir",
        "c"
      ],
      [
        "Ġsom",
        "ething"
      ],
      [
        "ou",
        "th"
      ],
      [
        "ain",
        "t"
      ],
      [
        "on",
        "y"
      ],
      [
        "Ġof",
        "ten"
      ],
      [
        "Ġd",
        "ue"
      ],
      [
        "Ġj",
        "u"
      ],
      [
        "Ġfe",
        "et"
      ],
      [
        "Ġmaj",
        "or"
      ],
      [
        "l",
        "er"
      ],
      [
        "Ġ1",
        "4"
      ],
      [
        "Ġp",
        "ra"
      ],
      [
        "Ġd",
        "ark"
      ],
      [
        "Ġan",
        "t"
      ],
      [
        "on",
        "es"
      ],
      [
        "Ġto",
        "ld"
      ],
      [
        "Ġgo",
        "ing"
      ],
      [
        "Ġen",
        "ough"
      ],
      [
        "Ġfin",
        "al"
      ],
      [
        "2",
        "7"
      ],
      [
        "u",
        "se"
      ],
      [
        "Ġf",
        "elt"
      ],
      [
        "h",
        "ow"
      ],
      [
        "Ġapp",
        "ro"
      ],
      [
        "Ġcapt",
        "ain"
      ],
      [
        "st",
        "em"
      ],
      [
        "s",
        "and"
      ],
      [
        "Ġwh",
        "y"
      ],
      [
        "Ġth",
        "ine"
      ],
      [
        "Ġaug",
        "ust"
      ],
      [
        "Ġar",
        "m"
      ],
      [
        "i",
        "am"
      ],
      [
        "g",
        "o"
      ],
      [
        "Ġt",
        "en"
      ],
      [
        "Ġro",
        "ck"
      ],
      [
        "Ġwho",
        "se"
      ],
      [
        "ab",
        "ly"
      ],
      [
        "Ġk",
        "m"
      ],
      [
        "Ġpl",
        "an"
      ],
      [
        ".",
        "."
      ],
      [
        "ok",
        "e"
      ],
      [
        "Ġro",
        "om"
      ],
      [
        "c",
        "on"
      ],
      [
        "Ġst",
        "ory"
      ],
      [
        "th",
        "is"
      ],
      [
        "Ġe",
        "gypt"
      ],
      [
        "ou",
        "d"
      ],
      [
        "Ġh",
        "undred"
      ],
      [
        "am",
        "ent"
      ],
      [
        "v",
        "al"
      ],
      [
        "Ġspir",
        "it"
      ],
      [
        "Ġatt",
        "ack"
      ],
      [
        "g",
        "n"
      ],
      [
        "2",
        "8"
      ],
      [
        "Ġc",
        "ut"
      ],
      [
        "Ġre",
        "ad"
      ],
      [
        "Ġthou",
        "sand"
      ],
      [
        "Ġca",
        "p"
      ],
      [
        "ore",
        "d"
      ],
      [
        "Ġcont",
        "ro"
      ],
      [
        "Ġt",
        "aken"
      ],
      [
        "st",
        "er"
      ],
      [
        "Ġw",
        "all"
      ],
      [
        "Ġde",
        "ce"
      ],
      [
        "Ġis",
        "land"
      ],
      [
        "Ġpo",
        "int"
      ],
      [
        "u",
        "ary"
      ],
      [
        "o",
        "b"
      ],
      [
        "w",
        "er"
      ],
      [
        "Ġc",
        "oun"
      ],
      [
        "Ġi",
        "ll"
      ],
      [
        "Ġem",
        "p"
      ],
      [
        "Ġob",
        "ser"
      ],
      [
        "Ġsy",
        "stem"
      ],
      [
        "k",
        "en"
      ],
      [
        "Ġne",
        "ed"
      ],
      [
        "Ġhist",
        "ory"
      ],
      [
        "v",
        "i"
      ],
      [
        "Ġturn",
        "ed"
      ],
      [
        "Ġi",
        "d"
      ],
      [
        "h",
        "im"
      ],
      [
        "Ġ",
        "ver"
      ],
      [
        "ar",
        "ch"
      ],
      [
        "Ġcl",
        "ass"
      ],
      [
        "Ġcount",
        "ry"
      ],
      [
        "Ġw",
        "ild"
      ],
      [
        "c",
        "hes"
      ],
      [
        "an",
        "ces"
      ],
      [
        "Ġt",
        "ill"
      ],
      [
        "Ġse",
        "pt"
      ],
      [
        "ale",
        "m"
      ],
      [
        "Ġsu",
        "per"
      ],
      [
        "Ġb",
        "ow"
      ],
      [
        "Ġe",
        "qu"
      ],
      [
        "f",
        "rom"
      ],
      [
        "Ġwr",
        "itten"
      ],
      [
        "is",
        "ing"
      ],
      [
        "Ġhe",
        "av"
      ],
      [
        "th",
        "y"
      ],
      [
        "us",
        "alem"
      ],
      [
        "Ġre",
        "qu"
      ],
      [
        "Ġ19",
        "5"
      ],
      [
        "Ġst",
        "ood"
      ],
      [
        "Ġcan",
        "not"
      ],
      [
        "Ġho",
        "st"
      ],
      [
        "Ġf",
        "ree"
      ],
      [
        "om",
        "en"
      ],
      [
        "Ġdest",
        "roy"
      ],
      [
        "Ġex",
        "pl"
      ],
      [
        "e",
        "x"
      ],
      [
        "Ġbr",
        "own"
      ],
      [
        "Ġev",
        "il"
      ],
      [
        "Ġl",
        "ady"
      ],
      [
        "Ġre",
        "co"
      ],
      [
        "Ġblo",
        "od"
      ],
      [
        "Ġde",
        "cl"
      ],
      [
        "Ġsept",
        "ember"
      ],
      [
        "r",
        "ing"
      ],
      [
        "Ġme",
        "et"
      ],
      [
        "g",
        "es"
      ],
      [
        "Ġmom",
        "ent"
      ],
      [
        "in",
        "ted"
      ],
      [
        "ve",
        "red"
      ],
      [
        "Ġ",
        "%"
      ],
      [
        "Ġde",
        "fe"
      ],
      [
        "f",
        "ic"
      ],
      [
        "in",
        "a"
      ],
      [
        "Ġs",
        "it"
      ],
      [
        "Ġfor",
        "t"
      ],
      [
        "Ġt",
        "our"
      ],
      [
        "nd",
        "ing"
      ],
      [
        "Ġi",
        "i"
      ],
      [
        "Ġpr",
        "ot"
      ],
      [
        "ne",
        "y"
      ],
      [
        "Ġfe",
        "ar"
      ],
      [
        "Ġg",
        "ames"
      ],
      [
        "Ġstor",
        "m"
      ],
      [
        "Ġc",
        "at"
      ],
      [
        "Ġg",
        "un"
      ],
      [
        "ull",
        "y"
      ],
      [
        "Ġd",
        "ri"
      ],
      [
        "Ġaust",
        "ral"
      ],
      [
        "y",
        "e"
      ],
      [
        "c",
        "han"
      ],
      [
        "sh",
        "ip"
      ],
      [
        "c",
        "he"
      ],
      [
        "Ġo",
        "ct"
      ],
      [
        "Ġthem",
        "selves"
      ],
      [
        "ren",
        "t"
      ],
      [
        "o",
        "ck"
      ],
      [
        "Ġmar",
        "ch"
      ],
      [
        "Ġs",
        "qu"
      ],
      [
        "Ġall",
        "ow"
      ],
      [
        "Ġqu",
        "e"
      ],
      [
        "Ġl",
        "ed"
      ],
      [
        "Ġph",
        "il"
      ],
      [
        "Ġbu",
        "ilt"
      ],
      [
        "Ġsing",
        "le"
      ],
      [
        "Ġp",
        "al"
      ],
      [
        "Ġother",
        "s"
      ],
      [
        "Ġwr",
        "ote"
      ],
      [
        "s",
        "u"
      ],
      [
        "ent",
        "y"
      ],
      [
        "Ġest",
        "ab"
      ],
      [
        "sha",
        "ll"
      ],
      [
        "Ġs",
        "us"
      ],
      [
        "Ġv",
        "iew"
      ],
      [
        "ic",
        "ally"
      ],
      [
        "Ġp",
        "it"
      ],
      [
        "ress",
        "ed"
      ],
      [
        "a",
        "i"
      ],
      [
        "Ġ2",
        "5"
      ],
      [
        "h",
        "ind"
      ],
      [
        "Ġ",
        "ve"
      ],
      [
        "Ġlo",
        "st"
      ],
      [
        "Ġso",
        "ld"
      ],
      [
        "Ġho",
        "pe"
      ],
      [
        "Ġger",
        "man"
      ],
      [
        "Ġatt",
        "empt"
      ],
      [
        "Ġcontin",
        "ued"
      ],
      [
        "Ġ1",
        "1"
      ],
      [
        "e",
        "re"
      ],
      [
        "h",
        "ouse"
      ],
      [
        "k",
        "s"
      ],
      [
        "s",
        "ide"
      ],
      [
        "ce",
        "ed"
      ],
      [
        "Ġbatt",
        "le"
      ],
      [
        "w",
        "hen"
      ],
      [
        "Ġle",
        "ast"
      ],
      [
        "ĠĠĠĠ",
        "ĠĠĠĠ"
      ],
      [
        "olog",
        "y"
      ],
      [
        "Ġpartic",
        "ular"
      ],
      [
        "Ġ",
        "er"
      ],
      [
        "Ġbeg",
        "in"
      ],
      [
        "ha",
        "d"
      ],
      [
        "Ġev",
        "ent"
      ],
      [
        "p",
        "ort"
      ],
      [
        "Ġg",
        "ent"
      ],
      [
        "we",
        "red"
      ],
      [
        "l",
        "u"
      ],
      [
        "w",
        "here"
      ],
      [
        "Ġmos",
        "es"
      ],
      [
        "Ġj",
        "an"
      ],
      [
        "Ġj",
        "une"
      ],
      [
        "it",
        "al"
      ],
      [
        "one",
        "y"
      ],
      [
        "Ġeng",
        "land"
      ],
      [
        "ess",
        "ion"
      ],
      [
        "Ġreturn",
        "ed"
      ],
      [
        "Ġc",
        "irc"
      ],
      [
        "Ġ",
        "x"
      ],
      [
        "Ġc",
        "ross"
      ],
      [
        "the",
        "m"
      ],
      [
        "Ġpr",
        "ay"
      ],
      [
        "Ġfur",
        "ther"
      ],
      [
        "2",
        "9"
      ],
      [
        "ick",
        "ed"
      ],
      [
        "Ġinde",
        "ed"
      ],
      [
        "Ġplay",
        "ed"
      ],
      [
        "li",
        "ke"
      ],
      [
        "Ġdescri",
        "bed"
      ],
      [
        "Ġgovern",
        "ment"
      ],
      [
        "Ġm",
        "ad"
      ],
      [
        "Ġpe",
        "ace"
      ],
      [
        "d",
        "o"
      ],
      [
        "Ġbec",
        "ome"
      ],
      [
        "re",
        "g"
      ],
      [
        "Ġm",
        "or"
      ],
      [
        "it",
        "ude"
      ],
      [
        "Ġsu",
        "m"
      ],
      [
        "Ġs",
        "al"
      ],
      [
        "ll",
        "ed"
      ],
      [
        "f",
        "ort"
      ],
      [
        "Ġn",
        "amed"
      ],
      [
        "Ġgrou",
        "p"
      ],
      [
        "v",
        "o"
      ],
      [
        "Ġh",
        "ill"
      ],
      [
        "Ġtr",
        "ack"
      ],
      [
        "Ġs",
        "ight"
      ],
      [
        "Ġl",
        "ay"
      ],
      [
        "Ġa",
        "uth"
      ],
      [
        "id",
        "er"
      ],
      [
        "g",
        "er"
      ],
      [
        "Ġf",
        "if"
      ],
      [
        "Ġdo",
        "or"
      ],
      [
        "Ġw",
        "o"
      ],
      [
        "Ġv",
        "ide"
      ],
      [
        "Ġhel",
        "p"
      ],
      [
        "s",
        "a"
      ],
      [
        "Ġdes",
        "p"
      ],
      [
        "Ġking",
        "dom"
      ],
      [
        "Ġrev",
        "iew"
      ],
      [
        "Ġv",
        "i"
      ],
      [
        "Ġthere",
        "of"
      ],
      [
        "Ġspec",
        "ies"
      ],
      [
        "Ġv",
        "ict"
      ],
      [
        "Ġkne",
        "w"
      ],
      [
        "b",
        "all"
      ],
      [
        "he",
        "ad"
      ],
      [
        "Ġcont",
        "r"
      ],
      [
        "f",
        "fect"
      ],
      [
        "Ġdep",
        "art"
      ],
      [
        "Ġuni",
        "vers"
      ],
      [
        "Ġb",
        "ill"
      ],
      [
        "Ġcomm",
        "un"
      ],
      [
        "ious",
        "ly"
      ],
      [
        "Ġdifferen",
        "t"
      ],
      [
        "at",
        "ter"
      ],
      [
        "Ġre",
        "ally"
      ],
      [
        "Ġcl",
        "ub"
      ],
      [
        "m",
        "r"
      ],
      [
        "Ġf",
        "air"
      ],
      [
        "it",
        "ions"
      ],
      [
        "Ġi",
        "de"
      ],
      [
        "Ġst",
        "at"
      ],
      [
        "Ġab",
        "ove"
      ],
      [
        "Ġbe",
        "hind"
      ],
      [
        "ru",
        "ction"
      ],
      [
        "Ġl",
        "ab"
      ],
      [
        "k",
        "ing"
      ],
      [
        "Ġt",
        "ou"
      ],
      [
        "Ġpo",
        "st"
      ],
      [
        "i",
        "od"
      ],
      [
        "he",
        "l"
      ],
      [
        "Ġf",
        "le"
      ],
      [
        "Ġhe",
        "n"
      ],
      [
        "op",
        "s"
      ],
      [
        "Ġjer",
        "usalem"
      ],
      [
        "3",
        "1"
      ],
      [
        "Ġbelie",
        "ve"
      ],
      [
        "Ġhe",
        "ld"
      ],
      [
        "ri",
        "l"
      ],
      [
        "ren",
        "g"
      ],
      [
        "Ġle",
        "ague"
      ],
      [
        "w",
        "ho"
      ],
      [
        "Ġf",
        "re"
      ],
      [
        "o",
        "ber"
      ],
      [
        "re",
        "am"
      ],
      [
        "Ġm",
        "outh"
      ],
      [
        "ic",
        "es"
      ],
      [
        "Ġmy",
        "self"
      ],
      [
        "Ġ",
        "["
      ],
      [
        "Ġst",
        "ri"
      ],
      [
        "Ġper",
        "form"
      ],
      [
        "Ġoct",
        "ober"
      ],
      [
        "Ġor",
        "der"
      ],
      [
        "Ġsong",
        "s"
      ],
      [
        "pe",
        "nd"
      ],
      [
        "Ġ.",
        ".."
      ],
      [
        "Ġsupp",
        "ort"
      ],
      [
        "Ġw",
        "omen"
      ],
      [
        "ul",
        "ation"
      ],
      [
        "Ġsw",
        "ord"
      ],
      [
        "Ġjud",
        "ah"
      ],
      [
        "ren",
        "ch"
      ],
      [
        "Ġmo",
        "ved"
      ],
      [
        "Ġbe",
        "ar"
      ],
      [
        "ro",
        "pe"
      ],
      [
        "il",
        "ar"
      ],
      [
        "Ġas",
        "ked"
      ],
      [
        "Ġor",
        "gan"
      ],
      [
        "Ġper",
        "iod"
      ],
      [
        "Ġhum",
        "an"
      ],
      [
        "Ġ",
        "$"
      ],
      [
        "Ġp",
        "ark"
      ],
      [
        "Ġte",
        "ch"
      ],
      [
        "Ġe",
        "ffect"
      ],
      [
        "Ġgr",
        "and"
      ],
      [
        "Ġinter",
        "n"
      ],
      [
        "Ġmo",
        "ve"
      ],
      [
        "rop",
        "ical"
      ],
      [
        "Ġ3",
        "0"
      ],
      [
        "!",
        "--"
      ],
      [
        "i",
        "or"
      ],
      [
        "Ġans",
        "wered"
      ],
      [
        "Ġy",
        "ork"
      ],
      [
        "im",
        "ent"
      ],
      [
        "Ġab",
        "le"
      ],
      [
        "Ġbo",
        "y"
      ],
      [
        "Ġho",
        "ly"
      ],
      [
        "ang",
        "er"
      ],
      [
        "Ġadd",
        "ition"
      ],
      [
        "Ġimp",
        "ort"
      ],
      [
        "ou",
        "ght"
      ],
      [
        "Ġform",
        "er"
      ],
      [
        "Ġd",
        "et"
      ],
      [
        "Ġaf",
        "f"
      ],
      [
        "Ġ",
        "vers"
      ],
      [
        "Ġf",
        "ig"
      ],
      [
        "c",
        "il"
      ],
      [
        "a",
        "x"
      ],
      [
        "a",
        "ut"
      ],
      [
        "ha",
        "ps"
      ],
      [
        "Ġto",
        "wards"
      ],
      [
        "ri",
        "but"
      ],
      [
        "the",
        "n"
      ],
      [
        "s",
        "p"
      ],
      [
        "Ġju",
        "ly"
      ],
      [
        "Ġg",
        "one"
      ],
      [
        "ress",
        "ion"
      ],
      [
        "Ġunder",
        "stand"
      ],
      [
        "og",
        "ra"
      ],
      [
        "w",
        "ill"
      ],
      [
        "Ġdra",
        "w"
      ],
      [
        "d",
        "le"
      ],
      [
        "Ġeng",
        "lish"
      ],
      [
        "Ġ",
        "]"
      ],
      [
        "Ġm",
        "aking"
      ],
      [
        "Ġinte",
        "rest"
      ],
      [
        "Ġp",
        "ast"
      ],
      [
        "ir",
        "l"
      ],
      [
        "Ġr",
        "out"
      ],
      [
        "c",
        "her"
      ],
      [
        "Ġb",
        "and"
      ],
      [
        "it",
        "ary"
      ],
      [
        "Ġc",
        "ause"
      ],
      [
        "Ġorigin",
        "al"
      ],
      [
        "Ġre",
        "ason"
      ],
      [
        "Ġoff",
        "ering"
      ],
      [
        "Ġclo",
        "se"
      ],
      [
        "c",
        "ial"
      ],
      [
        "Ġv",
        "al"
      ],
      [
        "b",
        "ody"
      ],
      [
        "c",
        "le"
      ],
      [
        "z",
        "e"
      ],
      [
        "Ġvide",
        "o"
      ],
      [
        "Ġs",
        "ister"
      ],
      [
        "3",
        "2"
      ],
      [
        "e",
        "y"
      ],
      [
        "Ġe",
        "ight"
      ],
      [
        "Ġap",
        "ril"
      ],
      [
        "Ġinclud",
        "ed"
      ],
      [
        "ll",
        "y"
      ],
      [
        "ide",
        "red"
      ],
      [
        "Ġf",
        "av"
      ],
      [
        "et",
        "y"
      ],
      [
        "Ġex",
        "per"
      ],
      [
        "Ġro",
        "se"
      ],
      [
        "Ġbas",
        "ed"
      ],
      [
        "ag",
        "er"
      ],
      [
        "c",
        "ome"
      ],
      [
        "i",
        "ally"
      ],
      [
        "w",
        "ork"
      ],
      [
        "Ġi",
        "r"
      ],
      [
        "Ġr",
        "us"
      ],
      [
        "ber",
        "t"
      ],
      [
        "med",
        "i"
      ],
      [
        "st",
        "on"
      ],
      [
        "Ġst",
        "reng"
      ],
      [
        "Ġg",
        "ot"
      ],
      [
        "ent",
        "h"
      ],
      [
        "Ġdou",
        "b"
      ],
      [
        "Ġf",
        "ight"
      ],
      [
        "Ġpass",
        "ed"
      ],
      [
        "Ġdaugh",
        "ter"
      ],
      [
        "Ġincre",
        "as"
      ],
      [
        "Ġjan",
        "uary"
      ],
      [
        "Ġcha",
        "mp"
      ],
      [
        "l",
        "ord"
      ],
      [
        "ch",
        "ing"
      ],
      [
        "Ġde",
        "ar"
      ],
      [
        "e",
        "ad"
      ],
      [
        "Ġwhe",
        "ther"
      ],
      [
        "ha",
        "ve"
      ],
      [
        "ri",
        "es"
      ],
      [
        "Ġwork",
        "s"
      ],
      [
        "Ġdiv",
        "ision"
      ],
      [
        "u",
        "nder"
      ],
      [
        "Ġs",
        "ort"
      ],
      [
        "itt",
        "ed"
      ],
      [
        "Ġeu",
        "rope"
      ],
      [
        "Ġar",
        "my"
      ],
      [
        "ive",
        "ly"
      ],
      [
        "Ġel",
        "se"
      ],
      [
        "Ġey",
        "e"
      ],
      [
        "ut",
        "es"
      ],
      [
        "Ġst",
        "op"
      ],
      [
        "fe",
        "red"
      ],
      [
        "Ġj",
        "ack"
      ],
      [
        "in",
        "or"
      ],
      [
        "Ġde",
        "al"
      ],
      [
        "Ġfriend",
        "s"
      ],
      [
        "Ġis",
        "s"
      ],
      [
        "for",
        "med"
      ],
      [
        "Ġm",
        "ult"
      ],
      [
        "Ġar",
        "ri"
      ],
      [
        "3",
        "3"
      ],
      [
        "Ġc",
        "am"
      ],
      [
        "Ġgr",
        "ow"
      ],
      [
        "Ġsim",
        "ilar"
      ],
      [
        "Ġter",
        "r"
      ],
      [
        "Ġb",
        "ab"
      ],
      [
        "Ġno",
        "ve"
      ],
      [
        "b",
        "and"
      ],
      [
        "Ġm",
        "ic"
      ],
      [
        "t",
        "ar"
      ],
      [
        "y",
        "al"
      ],
      [
        "Ġcons",
        "idered"
      ],
      [
        "Ġn",
        "one"
      ],
      [
        "Ġtr",
        "ad"
      ],
      [
        "Ġb",
        "en"
      ],
      [
        "im",
        "es"
      ],
      [
        "Ġoff",
        "er"
      ],
      [
        "Ġa",
        "ge"
      ],
      [
        "y",
        "le"
      ],
      [
        "ll",
        "ing"
      ],
      [
        "Ġth",
        "r"
      ],
      [
        "w",
        "ood"
      ],
      [
        "p",
        "or"
      ],
      [
        "Ġd",
        "ied"
      ],
      [
        "Ġfe",
        "ll"
      ],
      [
        "'",
        "ll"
      ],
      [
        "um",
        "p"
      ],
      [
        "av",
        "es"
      ],
      [
        "Ġbre",
        "ak"
      ],
      [
        "Ġb",
        "es"
      ],
      [
        "Ġnove",
        "mber"
      ],
      [
        "Ġf",
        "ail"
      ],
      [
        "Ġh",
        "us"
      ],
      [
        "iz",
        "e"
      ],
      [
        "Ġauth",
        "or"
      ],
      [
        "Ġf",
        "act"
      ],
      [
        "Ġem",
        "ma"
      ],
      [
        "Ġto",
        "t"
      ],
      [
        "Ġthrough",
        "out"
      ],
      [
        "Ġserv",
        "ice"
      ],
      [
        "Ġs",
        "an"
      ],
      [
        "Ġv",
        "ir"
      ],
      [
        "Ġle",
        "ave"
      ],
      [
        "m",
        "ar"
      ],
      [
        "Ġf",
        "rench"
      ],
      [
        "Ġtr",
        "ue"
      ],
      [
        "Ġen",
        "em"
      ],
      [
        "Ġset",
        "t"
      ],
      [
        "Ġc",
        "as"
      ],
      [
        "Ġh",
        "y"
      ],
      [
        "Ġper",
        "fect"
      ],
      [
        "Ġcl",
        "aim"
      ],
      [
        "Ġpol",
        "it"
      ],
      [
        "s",
        "c"
      ],
      [
        "in",
        "ation"
      ],
      [
        "Ġsu",
        "gg"
      ],
      [
        "u",
        "it"
      ],
      [
        "Ġsugg",
        "est"
      ],
      [
        "f",
        "ully"
      ],
      [
        "Ġf",
        "ed"
      ],
      [
        "Ġhe",
        "ro"
      ],
      [
        "Ġg",
        "ard"
      ],
      [
        "se",
        "qu"
      ],
      [
        "Ġfor",
        "ce"
      ],
      [
        "b",
        "it"
      ],
      [
        "Ġd",
        "i"
      ],
      [
        "Ġcour",
        "t"
      ],
      [
        "Ġt",
        "ropical"
      ],
      [
        "il",
        "ed"
      ],
      [
        "Ġsu",
        "ff"
      ],
      [
        "Ġc",
        "y"
      ],
      [
        "au",
        "ght"
      ],
      [
        "Ġe",
        "ither"
      ],
      [
        "Ġab",
        "s"
      ],
      [
        "Ġsec",
        "ret"
      ],
      [
        "d",
        "den"
      ],
      [
        "Ġst",
        "ay"
      ],
      [
        "Ġdece",
        "mber"
      ],
      [
        "Ġb",
        "rig"
      ],
      [
        "Ġm",
        "ot"
      ],
      [
        "Ġcol",
        "on"
      ],
      [
        "Ġc",
        "reat"
      ],
      [
        "Ġpro",
        "ject"
      ],
      [
        "ro",
        "du"
      ],
      [
        "Ġco",
        "ast"
      ],
      [
        "Ġte",
        "le"
      ],
      [
        "mb",
        "ers"
      ],
      [
        "b",
        "es"
      ],
      [
        "f",
        "er"
      ],
      [
        "Ġgre",
        "en"
      ],
      [
        "Ġje",
        "w"
      ],
      [
        "e",
        "ous"
      ],
      [
        "Ġh",
        "ig"
      ],
      [
        "Ġac",
        "ross"
      ],
      [
        "Ġbro",
        "ad"
      ],
      [
        "Ġw",
        "it"
      ],
      [
        "Ġfa",
        "ith"
      ],
      [
        "l",
        "ine"
      ],
      [
        "Ġc",
        "ase"
      ],
      [
        "Ġr",
        "ad"
      ],
      [
        "ict",
        "ion"
      ],
      [
        "Ġbus",
        "iness"
      ],
      [
        "Ġb",
        "all"
      ],
      [
        "the",
        "ir"
      ],
      [
        "Ġbl",
        "ess"
      ],
      [
        "Ġloc",
        "al"
      ],
      [
        "ri",
        "et"
      ],
      [
        "Ġb",
        "ird"
      ],
      [
        "Ġl",
        "im"
      ],
      [
        "if",
        "t"
      ],
      [
        "Ġhur",
        "ric"
      ],
      [
        "Ġb",
        "ed"
      ],
      [
        "Ġin",
        "it"
      ],
      [
        "Ġd",
        "en"
      ],
      [
        "ian",
        "ne"
      ],
      [
        "Ġf",
        "ill"
      ],
      [
        "Ġme",
        "as"
      ],
      [
        "Ġsh",
        "o"
      ],
      [
        "Ġsp",
        "ake"
      ],
      [
        "Ġplay",
        "er"
      ],
      [
        "Ġent",
        "ire"
      ],
      [
        "ar",
        "n"
      ],
      [
        "Ġn",
        "et"
      ],
      [
        "Ġpart",
        "y"
      ],
      [
        "Ġstre",
        "et"
      ],
      [
        "i",
        "us"
      ],
      [
        "Ġm",
        "ur"
      ],
      [
        "id",
        "ence"
      ],
      [
        "iss",
        "ion"
      ],
      [
        "f",
        "ield"
      ],
      [
        "ent",
        "ed"
      ],
      [
        "i",
        "en"
      ],
      [
        "Ġ1",
        "00"
      ],
      [
        "Ġhist",
        "or"
      ],
      [
        "z",
        "z"
      ],
      [
        "Ġm",
        "oney"
      ],
      [
        "so",
        "ci"
      ],
      [
        "Ġde",
        "ep"
      ],
      [
        "Ġg",
        "irl"
      ],
      [
        "Ġappe",
        "ared"
      ],
      [
        "um",
        "b"
      ],
      [
        "Ġle",
        "vel"
      ],
      [
        "Ġhapp",
        "y"
      ],
      [
        "Ġgent",
        "le"
      ],
      [
        "Ġr",
        "u"
      ],
      [
        "Ġopen",
        "ed"
      ],
      [
        "Ġcoll",
        "e"
      ],
      [
        "Ġdis",
        "co"
      ],
      [
        "ra",
        "ft"
      ],
      [
        "Ġinst",
        "ead"
      ],
      [
        "r",
        "ay"
      ],
      [
        "Ġcon",
        "g"
      ],
      [
        "Ġb",
        "orn"
      ],
      [
        "Ġl",
        "iving"
      ],
      [
        "pt",
        "ion"
      ],
      [
        "--",
        "\""
      ],
      [
        "g",
        "ing"
      ],
      [
        "Ġc",
        "ou"
      ],
      [
        "Ġtr",
        "uth"
      ],
      [
        "Ġfollow",
        "ed"
      ],
      [
        "Ġs",
        "am"
      ],
      [
        "Ġp",
        "ain"
      ],
      [
        "Ġdis",
        "p"
      ],
      [
        "ro",
        "ve"
      ],
      [
        "th",
        "ren"
      ],
      [
        "Ġ200",
        "9"
      ],
      [
        "ix",
        "ed"
      ],
      [
        "a",
        "ur"
      ],
      [
        "Ġqu",
        "est"
      ],
      [
        "Ġres",
        "pect"
      ],
      [
        "Ġ20",
        "10"
      ],
      [
        "ad",
        "es"
      ],
      [
        "Ġship",
        "s"
      ],
      [
        "c",
        "ent"
      ],
      [
        "Ġt",
        "est"
      ],
      [
        "Ġs",
        "or"
      ],
      [
        "Ġst",
        "ars"
      ],
      [
        "Ġch",
        "ief"
      ],
      [
        "Ġ200",
        "8"
      ],
      [
        "Ġlook",
        "ing"
      ],
      [
        "nd",
        "on"
      ],
      [
        "Ġrep",
        "res"
      ],
      [
        "o",
        "inted"
      ],
      [
        "Ġm",
        "is"
      ],
      [
        "Ġu",
        "t"
      ],
      [
        "Ġas",
        "soci"
      ],
      [
        "Ġc",
        "ities"
      ],
      [
        "Ġres",
        "ult"
      ],
      [
        "Ġb",
        "al"
      ],
      [
        "Ġcon",
        "v"
      ],
      [
        "Ġsu",
        "dden"
      ],
      [
        "Ġjo",
        "y"
      ],
      [
        "ic",
        "o"
      ],
      [
        "Ġ2",
        "4"
      ],
      [
        "c",
        "ut"
      ],
      [
        "Ġt",
        "or"
      ],
      [
        "se",
        "t"
      ],
      [
        "id",
        "ge"
      ],
      [
        "Ġm",
        "ass"
      ],
      [
        "Ġcom",
        "ing"
      ],
      [
        "Ġreleas",
        "e"
      ],
      [
        "Ġal",
        "one"
      ],
      [
        "Ġro",
        "le"
      ],
      [
        "Ġadd",
        "ed"
      ],
      [
        "Ġit",
        "self"
      ],
      [
        "Ġcare",
        "er"
      ],
      [
        "Ġmil",
        "itary"
      ],
      [
        "Ġcomple",
        "te"
      ],
      [
        "3",
        "4"
      ],
      [
        "c",
        "r"
      ],
      [
        "Ġc",
        "orn"
      ],
      [
        "Ġbe",
        "aut"
      ],
      [
        "Ġfr",
        "ont"
      ],
      [
        "Ġdr",
        "ink"
      ],
      [
        "Ġinf",
        "lu"
      ],
      [
        "Ġbe",
        "y"
      ],
      [
        "Ġst",
        "ra"
      ],
      [
        "b",
        "ar"
      ],
      [
        "Ġd",
        "well"
      ],
      [
        "Ġim",
        "medi"
      ],
      [
        "Ġwat",
        "ers"
      ],
      [
        "m",
        "ing"
      ],
      [
        "Ġqu",
        "ick"
      ],
      [
        "ogra",
        "ph"
      ],
      [
        "Ġd",
        "a"
      ],
      [
        "es",
        "tern"
      ],
      [
        "Ġcom",
        "b"
      ],
      [
        "te",
        "red"
      ],
      [
        "o",
        "ver"
      ],
      [
        "Ġb",
        "ra"
      ],
      [
        "Ġr",
        "an"
      ],
      [
        "Ġt",
        "rou"
      ],
      [
        "Ġp",
        "ress"
      ],
      [
        "Ġ2",
        "6"
      ],
      [
        "Ġt",
        "ro"
      ],
      [
        "Ġw",
        "ish"
      ],
      [
        "Ġc",
        "iv"
      ],
      [
        "Ġf",
        "em"
      ],
      [
        "cept",
        "ion"
      ],
      [
        "Ġunivers",
        "ity"
      ],
      [
        "nd",
        "s"
      ],
      [
        "Ġg",
        "ar"
      ],
      [
        "b",
        "b"
      ],
      [
        "re",
        "ady"
      ],
      [
        "Ġrecord",
        "ed"
      ],
      [
        "m",
        "in"
      ],
      [
        "Ġl",
        "ou"
      ],
      [
        "Ġor",
        "d"
      ],
      [
        "Ġnat",
        "ure"
      ],
      [
        "Ġ",
        "&"
      ],
      [
        "Ġc",
        "ro"
      ],
      [
        "Ġacc",
        "ount"
      ],
      [
        "Ġha",
        "ir"
      ],
      [
        "b",
        "ull"
      ],
      [
        "Ġs",
        "ac"
      ],
      [
        "at",
        "or"
      ],
      [
        "ign",
        "ed"
      ],
      [
        "w",
        "or"
      ],
      [
        "Ġp",
        "en"
      ],
      [
        "Ġ2",
        "1"
      ],
      [
        "Ġlo",
        "ndon"
      ],
      [
        "Ġmid",
        "dle"
      ],
      [
        "Ġtw",
        "enty"
      ],
      [
        "Ġper",
        "haps"
      ],
      [
        "Ġwr",
        "iting"
      ],
      [
        "ens",
        "ive"
      ],
      [
        "i",
        "k"
      ],
      [
        "al",
        "th"
      ],
      [
        "ac",
        "y"
      ],
      [
        "Ġqu",
        "ar"
      ],
      [
        "Ġhurric",
        "ane"
      ],
      [
        "3",
        "6"
      ],
      [
        "at",
        "ic"
      ],
      [
        "st",
        "r"
      ],
      [
        "Ġj",
        "our"
      ],
      [
        "Ġl",
        "eng"
      ],
      [
        "Ġr",
        "oman"
      ],
      [
        "Ġn",
        "av"
      ],
      [
        "Ġar",
        "g"
      ],
      [
        "Ġocc",
        "ur"
      ],
      [
        "Ġhor",
        "se"
      ],
      [
        "Ġmod",
        "ern"
      ],
      [
        "Ġm",
        "aster"
      ],
      [
        "Ġbatt",
        "al"
      ],
      [
        "Ġb",
        "ig"
      ],
      [
        "Ġmat",
        "ter"
      ],
      [
        "Ġprodu",
        "ction"
      ],
      [
        "Ġa",
        "w"
      ],
      [
        "un",
        "t"
      ],
      [
        "Ġen",
        "c"
      ],
      [
        "Ġreg",
        "ard"
      ],
      [
        "Ġpubl",
        "ished"
      ],
      [
        "Ġn",
        "ations"
      ],
      [
        "les",
        "h"
      ],
      [
        "Ġt",
        "ur"
      ],
      [
        "Ġf",
        "ast"
      ],
      [
        "ri",
        "age"
      ],
      [
        "Ġd",
        "ie"
      ],
      [
        "Ġac",
        "qu"
      ],
      [
        "y",
        "ed"
      ],
      [
        "Ġeven",
        "ing"
      ],
      [
        "e",
        "ll"
      ],
      [
        "Ġb",
        "ad"
      ],
      [
        "Ġch",
        "o"
      ],
      [
        "Ġgod",
        "s"
      ],
      [
        "Ġcour",
        "se"
      ],
      [
        "Ġheav",
        "y"
      ],
      [
        "s",
        "ed"
      ],
      [
        "Ġbl",
        "ue"
      ],
      [
        "Ġ200",
        "7"
      ],
      [
        "led",
        "ge"
      ],
      [
        "Ġpres",
        "ident"
      ],
      [
        "Ġvis",
        "it"
      ],
      [
        "ing",
        "ly"
      ],
      [
        "Ġprodu",
        "ced"
      ],
      [
        "i",
        "ers"
      ],
      [
        "Ġf",
        "ly"
      ],
      [
        "Ġre",
        "se"
      ],
      [
        "Ġ2",
        "3"
      ],
      [
        "Ġro",
        "yal"
      ],
      [
        "Ġfather",
        "s"
      ],
      [
        "Ġp",
        "ie"
      ],
      [
        "Ġ2",
        "8"
      ],
      [
        "Ġres",
        "p"
      ],
      [
        "Ġbre",
        "thren"
      ],
      [
        "fic",
        "ult"
      ],
      [
        "Ġm",
        "ary"
      ],
      [
        "c",
        "er"
      ],
      [
        "Ġha",
        "t"
      ],
      [
        "Ġfor",
        "ces"
      ],
      [
        "os",
        "p"
      ],
      [
        "Ġposs",
        "ible"
      ],
      [
        "3",
        "7"
      ],
      [
        "b",
        "our"
      ],
      [
        "l",
        "ished"
      ],
      [
        "Ġswe",
        "et"
      ],
      [
        "v",
        "ation"
      ],
      [
        "Ġc",
        "ru"
      ],
      [
        "ant",
        "ly"
      ],
      [
        "Ġa",
        "ward"
      ],
      [
        "Ġw",
        "ide"
      ],
      [
        "ra",
        "id"
      ],
      [
        "Ġob",
        "ject"
      ],
      [
        "Ġpop",
        "ular"
      ],
      [
        "g",
        "l"
      ],
      [
        "g",
        "en"
      ],
      [
        "Ġn",
        "ort"
      ],
      [
        "Ġme",
        "mbers"
      ],
      [
        "Ġ2",
        "2"
      ],
      [
        "Ġsil",
        "ver"
      ],
      [
        "Ġpos",
        "ition"
      ],
      [
        "Ġto",
        "ward"
      ],
      [
        "as",
        "ion"
      ],
      [
        "u",
        "el"
      ],
      [
        "am",
        "a"
      ],
      [
        "Ġbre",
        "ad"
      ],
      [
        "Ġserv",
        "ant"
      ],
      [
        "Ġdif",
        "ficult"
      ],
      [
        "Ġwant",
        "ed"
      ],
      [
        "Ġc",
        "ult"
      ],
      [
        "Ġl",
        "y"
      ],
      [
        "Ġman",
        "ner"
      ],
      [
        "ar",
        "ing"
      ],
      [
        "Ġmat",
        "ch"
      ],
      [
        "Ġ",
        "Â"
      ],
      [
        "Ġt",
        "ree"
      ],
      [
        "Ġh",
        "ot"
      ],
      [
        "Ġre",
        "ached"
      ],
      [
        "Ġac",
        "cept"
      ],
      [
        "3",
        "5"
      ],
      [
        "Ġrout",
        "e"
      ],
      [
        "Ġcomp",
        "et"
      ],
      [
        "Ġhus",
        "band"
      ],
      [
        "Ġg",
        "i"
      ],
      [
        "Ġr",
        "ul"
      ],
      [
        "Ġinv",
        "ol"
      ],
      [
        "Ġbelie",
        "ved"
      ],
      [
        "Ġcount",
        "y"
      ],
      [
        "ort",
        "s"
      ],
      [
        "Ġang",
        "el"
      ],
      [
        "m",
        "ore"
      ],
      [
        "ak",
        "ed"
      ],
      [
        "a",
        "pp"
      ],
      [
        "Ġa",
        "hab"
      ],
      [
        "Ġs",
        "out"
      ],
      [
        "it",
        "ar"
      ],
      [
        "et",
        "imes"
      ],
      [
        "Ġcomp",
        "an"
      ],
      [
        "Ġso",
        "ci"
      ],
      [
        "Ġshe",
        "w"
      ],
      [
        "om",
        "s"
      ],
      [
        "al",
        "ity"
      ],
      [
        "Ġst",
        "one"
      ],
      [
        "Ġsa",
        "il"
      ],
      [
        ",",
        "'"
      ],
      [
        "i",
        "qu"
      ],
      [
        "Ġb",
        "a"
      ],
      [
        "we",
        "re"
      ],
      [
        "itt",
        "ing"
      ],
      [
        "pl",
        "ay"
      ],
      [
        "Ġsub",
        "ject"
      ],
      [
        "feren",
        "ce"
      ],
      [
        "l",
        "ic"
      ],
      [
        "ll",
        "s"
      ],
      [
        "Ġcon",
        "ne"
      ],
      [
        "Ġacc",
        "om"
      ],
      [
        "v",
        "ision"
      ],
      [
        "un",
        "to"
      ],
      [
        "ck",
        "s"
      ],
      [
        "Ġmil",
        "es"
      ],
      [
        "Ġtot",
        "al"
      ],
      [
        "m",
        "or"
      ],
      [
        "Ġse",
        "par"
      ],
      [
        "Ġcons",
        "ider"
      ],
      [
        "Ġke",
        "pt"
      ],
      [
        "Ġprop",
        "he"
      ],
      [
        "Ġtit",
        "le"
      ],
      [
        "Ġw",
        "icked"
      ],
      [
        "am",
        "s"
      ],
      [
        "Ġele",
        "ct"
      ],
      [
        "b",
        "ru"
      ],
      [
        "t",
        "r"
      ],
      [
        "Ġc",
        "ry"
      ],
      [
        "ant",
        "ic"
      ],
      [
        "Ġde",
        "li"
      ],
      [
        "Ġpro",
        "per"
      ],
      [
        "Ġcontro",
        "l"
      ],
      [
        "Ġintern",
        "ational"
      ],
      [
        "in",
        "ts"
      ],
      [
        "Ġint",
        "rodu"
      ],
      [
        "Ġf",
        "un"
      ],
      [
        "Ġth",
        "ir"
      ],
      [
        "ac",
        "le"
      ],
      [
        "Ġd",
        "an"
      ],
      [
        "as",
        "k"
      ],
      [
        "Ġfr",
        "uit"
      ],
      [
        "ist",
        "ed"
      ],
      [
        "Ġserv",
        "ants"
      ],
      [
        "Ġleng",
        "th"
      ],
      [
        "is",
        "f"
      ],
      [
        "Ġl",
        "am"
      ],
      [
        "Ġjud",
        "g"
      ],
      [
        "Ġchamp",
        "ions"
      ],
      [
        "Ġf",
        "lesh"
      ],
      [
        "Ġmonth",
        "s"
      ],
      [
        "Ġan",
        "im"
      ],
      [
        "Ġde",
        "m"
      ],
      [
        "Ġ2",
        "7"
      ],
      [
        "um",
        "ent"
      ],
      [
        "ou",
        "red"
      ],
      [
        "Ġco",
        "ver"
      ],
      [
        "Ġw",
        "estern"
      ],
      [
        "Ġf",
        "ac"
      ],
      [
        "Ġfor",
        "ward"
      ],
      [
        "Ġal",
        "ready"
      ],
      [
        "Ġrem",
        "ained"
      ],
      [
        "ci",
        "ally"
      ],
      [
        "Ġfore",
        "st"
      ],
      [
        "Ġge",
        "or"
      ],
      [
        "Ġestab",
        "lished"
      ],
      [
        "Ġp",
        "ay"
      ],
      [
        "Ġdevelop",
        "ment"
      ],
      [
        "Ġsout",
        "hern"
      ],
      [
        "Ġcent",
        "ral"
      ],
      [
        "Ġameric",
        "a"
      ],
      [
        "Ġann",
        "oun"
      ],
      [
        "Ġdesp",
        "ite"
      ],
      [
        "l",
        "ight"
      ],
      [
        "Ġb",
        "ull"
      ],
      [
        "Ġl",
        "ang"
      ],
      [
        "Ġex",
        "c"
      ],
      [
        "Ġty",
        "p"
      ],
      [
        "Ġvi",
        "ol"
      ],
      [
        "Ġfr",
        "ank"
      ],
      [
        "om",
        "b"
      ],
      [
        "Ġan",
        "ne"
      ],
      [
        "Ġj",
        "ap"
      ],
      [
        "Ġal",
        "ice"
      ],
      [
        "te",
        "nd"
      ],
      [
        "Ġ20",
        "11"
      ],
      [
        "Ġchan",
        "ge"
      ],
      [
        "Ġbegin",
        "ning"
      ],
      [
        "Ġo",
        "h"
      ],
      [
        "Ġvers",
        "ion"
      ],
      [
        "u",
        "ght"
      ],
      [
        "Ġw",
        "al"
      ],
      [
        "Ġb",
        "ir"
      ],
      [
        "Ġcan",
        "ad"
      ],
      [
        "Ġtre",
        "es"
      ],
      [
        "of",
        "f"
      ],
      [
        "Ġ200",
        "6"
      ],
      [
        "Ġcommand",
        "ed"
      ],
      [
        "Ġm",
        "ist"
      ],
      [
        "Ġi",
        "ron"
      ],
      [
        "Ġpa",
        "ul"
      ],
      [
        "g",
        "in"
      ],
      [
        "n",
        "ers"
      ],
      [
        "Ġmar",
        "ianne"
      ],
      [
        "Ġact",
        "iv"
      ],
      [
        "g",
        "round"
      ],
      [
        "Ġf",
        "ine"
      ],
      [
        "id",
        "ing"
      ],
      [
        "Ġk",
        "ings"
      ],
      [
        "pe",
        "cted"
      ],
      [
        "Ġciv",
        "il"
      ],
      [
        "bru",
        "ary"
      ],
      [
        "Ġfe",
        "bruary"
      ],
      [
        "Ġimport",
        "ant"
      ],
      [
        "p",
        "re"
      ],
      [
        "Ġar",
        "ch"
      ],
      [
        "g",
        "ar"
      ],
      [
        "al",
        "ed"
      ],
      [
        "Ġnort",
        "hern"
      ],
      [
        "Ġgl",
        "ory"
      ],
      [
        "Ġstreng",
        "th"
      ],
      [
        "f",
        "all"
      ],
      [
        "Ġst",
        "yle"
      ],
      [
        "Ġv",
        "ol"
      ],
      [
        "Ġw",
        "is"
      ],
      [
        "Ġrep",
        "orted"
      ],
      [
        "af",
        "ter"
      ],
      [
        "y",
        "es"
      ],
      [
        "y",
        "our"
      ],
      [
        "ll",
        "i"
      ],
      [
        "Ġfor",
        "med"
      ],
      [
        "Ġr",
        "ain"
      ],
      [
        "Ġpro",
        "gr"
      ],
      [
        "Ġpo",
        "em"
      ],
      [
        "Ġdoub",
        "t"
      ],
      [
        "Ġo",
        "d"
      ],
      [
        "Ġh",
        "op"
      ],
      [
        "Ġh",
        "ous"
      ],
      [
        "Ġstart",
        "ed"
      ],
      [
        "Ġsle",
        "ep"
      ],
      [
        "f",
        "ord"
      ],
      [
        "Ġpr",
        "ote"
      ],
      [
        "Ġcrit",
        "ic"
      ],
      [
        "Ġbuild",
        "ing"
      ],
      [
        "in",
        "ing"
      ],
      [
        "Ġsign",
        "ific"
      ],
      [
        "Ġvar",
        "ious"
      ],
      [
        "Ġc",
        "up"
      ],
      [
        "Ġcl",
        "oud"
      ],
      [
        "Ġreg",
        "ion"
      ],
      [
        "Ġide",
        "a"
      ],
      [
        "Ġgard",
        "en"
      ],
      [
        "c",
        "ing"
      ],
      [
        "d",
        "own"
      ],
      [
        "Ġd",
        "u"
      ],
      [
        "Ġno",
        "vel"
      ],
      [
        "ord",
        "an"
      ],
      [
        "Ġsom",
        "etimes"
      ],
      [
        "Ġbro",
        "ken"
      ],
      [
        "Ġf",
        "ish"
      ],
      [
        "Ġz",
        "e"
      ],
      [
        "Ġcle",
        "ar"
      ],
      [
        "Ġa",
        "v"
      ],
      [
        "Ġd",
        "eter"
      ],
      [
        "at",
        "ure"
      ],
      [
        "an",
        "es"
      ],
      [
        "ach",
        "ing"
      ],
      [
        "Ġrepl",
        "ied"
      ],
      [
        "Ġwo",
        "nder"
      ],
      [
        "Ġwill",
        "iam"
      ],
      [
        "Ġel",
        "inor"
      ],
      [
        "Ġright",
        "eous"
      ],
      [
        "if",
        "y"
      ],
      [
        "Ġpr",
        "im"
      ],
      [
        "Ġst",
        "ep"
      ],
      [
        "um",
        "e"
      ],
      [
        "Ġn",
        "ar"
      ],
      [
        "Ġr",
        "ank"
      ],
      [
        "c",
        "an"
      ],
      [
        "Ġkill",
        "ed"
      ],
      [
        "b",
        "u"
      ],
      [
        "th",
        "ou"
      ],
      [
        "Ġj",
        "ames"
      ],
      [
        "yl",
        "an"
      ],
      [
        "Ġhour",
        "s"
      ],
      [
        "Ġeas",
        "tern"
      ],
      [
        "Ġs",
        "ite"
      ],
      [
        "Ġfor",
        "g"
      ],
      [
        "Ġaf",
        "ric"
      ],
      [
        "Ġ",
        "!"
      ],
      [
        "Ġp",
        "ha"
      ],
      [
        "Ġd",
        "ylan"
      ],
      [
        "Ġco",
        "ld"
      ],
      [
        "Ġb",
        "er"
      ],
      [
        "Ġca",
        "used"
      ],
      [
        "p",
        "ter"
      ],
      [
        "x",
        "im"
      ],
      [
        "Ġr",
        "ic"
      ],
      [
        "Ġpro",
        "b"
      ],
      [
        "w",
        "ise"
      ],
      [
        "Ġt",
        "aking"
      ],
      [
        "Ġear",
        "li"
      ],
      [
        "ol",
        "ution"
      ],
      [
        "Ġkn",
        "ight"
      ],
      [
        "it",
        "ive"
      ],
      [
        "Ġi",
        "re"
      ],
      [
        "pe",
        "l"
      ],
      [
        "Ġrel",
        "ig"
      ],
      [
        "Ġ20",
        "12"
      ],
      [
        "Ġtele",
        "vision"
      ],
      [
        "n",
        "es"
      ],
      [
        "Ġt",
        "ab"
      ],
      [
        "Ġal",
        "tar"
      ],
      [
        "ru",
        "pt"
      ],
      [
        "Ġans",
        "wer"
      ],
      [
        "Ġc",
        "op"
      ],
      [
        "ill",
        "e"
      ],
      [
        "Ġb",
        "an"
      ],
      [
        "ct",
        "ure"
      ],
      [
        "Ġlong",
        "er"
      ],
      [
        "Ġne",
        "igh"
      ],
      [
        "Ġent",
        "er"
      ],
      [
        "Ġaf",
        "raid"
      ],
      [
        "Ġla",
        "id"
      ],
      [
        "Ġinclud",
        "e"
      ],
      [
        "Ġgl",
        "ad"
      ],
      [
        "at",
        "he"
      ],
      [
        "h",
        "u"
      ],
      [
        "Ġd",
        "ream"
      ],
      [
        "Ġj",
        "ordan"
      ],
      [
        "us",
        "ion"
      ],
      [
        "Ġbo",
        "at"
      ],
      [
        "Ġhigh",
        "way"
      ],
      [
        "Ġcre",
        "ated"
      ],
      [
        "Ġl",
        "oss"
      ],
      [
        "Ġr",
        "ich"
      ],
      [
        "Ġsha",
        "r"
      ],
      [
        "Ġex",
        "amp"
      ],
      [
        "'",
        "m"
      ],
      [
        "os",
        "ing"
      ],
      [
        "act",
        "ion"
      ],
      [
        "a",
        "ff"
      ],
      [
        "Ġre",
        "ve"
      ],
      [
        "Ġfour",
        "th"
      ],
      [
        "b",
        "l"
      ],
      [
        "Ġha",
        "ll"
      ],
      [
        "Ġus",
        "ing"
      ],
      [
        "Ġstr",
        "ange"
      ],
      [
        "Ġsl",
        "ow"
      ],
      [
        "Ġt",
        "able"
      ],
      [
        "id",
        "s"
      ],
      [
        "av",
        "ing"
      ],
      [
        "ub",
        "b"
      ],
      [
        "Ġcar",
        "ried"
      ],
      [
        "4",
        "0"
      ],
      [
        "c",
        "raft"
      ],
      [
        "Ġ",
        "_"
      ],
      [
        "Ġf",
        "at"
      ],
      [
        "en",
        "ing"
      ],
      [
        "Ġl",
        "ad"
      ],
      [
        "Ġas",
        "k"
      ],
      [
        "Ġj",
        "ac"
      ],
      [
        "if",
        "ul"
      ],
      [
        "ok",
        "en"
      ],
      [
        "Ġbattal",
        "ion"
      ],
      [
        "b",
        "or"
      ],
      [
        "p",
        "ass"
      ],
      [
        "Ġb",
        "ase"
      ],
      [
        "Ġimmedi",
        "ately"
      ],
      [
        "3",
        "9"
      ],
      [
        "Ġtech",
        "n"
      ],
      [
        "Ġire",
        "land"
      ],
      [
        "Ġo",
        "x"
      ],
      [
        "Ġc",
        "rew"
      ],
      [
        "Ġm",
        "i"
      ],
      [
        "Ġl",
        "if"
      ],
      [
        "Ġind",
        "ust"
      ],
      [
        "olog",
        "ical"
      ],
      [
        "ct",
        "or"
      ],
      [
        "Ġpri",
        "v"
      ],
      [
        "j",
        "e"
      ],
      [
        "Ġm",
        "ess"
      ],
      [
        "Ġl",
        "augh"
      ],
      [
        "us",
        "h"
      ],
      [
        "Ġtr",
        "ust"
      ],
      [
        "Ġim",
        "ag"
      ],
      [
        "Ġpre",
        "p"
      ],
      [
        "Ġfl",
        "ow"
      ],
      [
        "Ġsit",
        "u"
      ],
      [
        "3",
        "8"
      ],
      [
        "Ġb",
        "ound"
      ],
      [
        "Ġrem",
        "ain"
      ],
      [
        "Ġprev",
        "ious"
      ],
      [
        "Ġfe",
        "llow"
      ],
      [
        "Ġlang",
        "u"
      ],
      [
        "Ġa",
        "ud"
      ],
      [
        "Ġ5",
        "0"
      ],
      [
        "sa",
        "id"
      ],
      [
        "o",
        "c"
      ],
      [
        "Ã",
        "¡"
      ],
      [
        "Ġst",
        "ated"
      ],
      [
        "Ġbec",
        "om"
      ],
      [
        "Ġsum",
        "mer"
      ],
      [
        "Ġg",
        "al"
      ],
      [
        "Ġplay",
        "ers"
      ],
      [
        "Ġf",
        "an"
      ],
      [
        "Ġm",
        "ater"
      ],
      [
        "Ġbe",
        "ast"
      ],
      [
        "Ġ20",
        "13"
      ],
      [
        "Ġlet",
        "ter"
      ],
      [
        "c",
        "ast"
      ],
      [
        "n",
        "or"
      ],
      [
        "Ġse",
        "lf"
      ],
      [
        "all",
        "ey"
      ],
      [
        "Ġev",
        "ents"
      ],
      [
        "Ġnat",
        "ural"
      ],
      [
        "Ġper",
        "formed"
      ],
      [
        "Ġrem",
        "o"
      ],
      [
        "i",
        "pp"
      ],
      [
        "Ä",
        "ģ"
      ],
      [
        "Ġse",
        "v"
      ],
      [
        "Ġpl",
        "aces"
      ],
      [
        "Ġag",
        "re"
      ],
      [
        "Ġpleas",
        "ure"
      ],
      [
        "c",
        "ip"
      ],
      [
        "p",
        "ro"
      ],
      [
        "Ġperform",
        "ance"
      ],
      [
        "Ġb",
        "ay"
      ],
      [
        "Ġat",
        "l"
      ],
      [
        "Ġ2",
        "9"
      ],
      [
        "Ġdel",
        "ight"
      ],
      [
        "c",
        "ul"
      ],
      [
        "Ġs",
        "n"
      ],
      [
        "Ġr",
        "ap"
      ],
      [
        "Ġtem",
        "ple"
      ],
      [
        "Ġappear",
        "ance"
      ],
      [
        "Ġhon",
        "our"
      ],
      [
        "Ġemp",
        "lo"
      ],
      [
        "Ġf",
        "t"
      ],
      [
        "Ġd",
        "ro"
      ],
      [
        "Ġu",
        "r"
      ],
      [
        "ip",
        "s"
      ],
      [
        "Ġspec",
        "ial"
      ],
      [
        "Ġwest",
        "on"
      ],
      [
        "Ġpop",
        "ulation"
      ],
      [
        "Ġnot",
        "ed"
      ],
      [
        "iv",
        "id"
      ],
      [
        "ous",
        "ly"
      ],
      [
        "ree",
        "k"
      ],
      [
        "Ġrel",
        "ations"
      ],
      [
        "o",
        "ld"
      ],
      [
        "is",
        "es"
      ],
      [
        "Ġcom",
        "fort"
      ],
      [
        "Ġany",
        "thing"
      ],
      [
        "Ġj",
        "ane"
      ],
      [
        "lo",
        "ok"
      ],
      [
        "Ġgu",
        "itar"
      ],
      [
        "Ġs",
        "ense"
      ],
      [
        "Ġo",
        "l"
      ],
      [
        "Ġl",
        "ower"
      ],
      [
        "Ġaf",
        "fe"
      ],
      [
        "Ġeng",
        "ine"
      ],
      [
        "Ġre",
        "ady"
      ],
      [
        "Ġse",
        "nd"
      ],
      [
        "ct",
        "ions"
      ],
      [
        "Ġconst",
        "ruction"
      ],
      [
        "Ġoffic",
        "ial"
      ],
      [
        "Ġf",
        "ut"
      ],
      [
        "Ġm",
        "ort"
      ],
      [
        "Ġknow",
        "ledge"
      ],
      [
        "Ġfin",
        "ished"
      ],
      [
        "Ġdec",
        "ided"
      ],
      [
        "Ġpur",
        "p"
      ],
      [
        "y",
        "n"
      ],
      [
        "Ġr",
        "ac"
      ],
      [
        "Ġ19",
        "0"
      ],
      [
        "Ġmid",
        "st"
      ],
      [
        "Ġflo",
        "od"
      ],
      [
        "re",
        "m"
      ],
      [
        "Ġe",
        "ff"
      ],
      [
        "Ġv",
        "en"
      ],
      [
        "Ġquest",
        "ion"
      ],
      [
        "ag",
        "ain"
      ],
      [
        "Ġmin",
        "utes"
      ],
      [
        "in",
        "o"
      ],
      [
        "Ġl",
        "ived"
      ],
      [
        "Ġsc",
        "ient"
      ],
      [
        "te",
        "nded"
      ],
      [
        "Ġsee",
        "k"
      ],
      [
        "Ġbrig",
        "ade"
      ],
      [
        "g",
        "est"
      ],
      [
        "Ġg",
        "ate"
      ],
      [
        "ot",
        "ion"
      ],
      [
        "Ġr",
        "ace"
      ],
      [
        "Ġmount",
        "ain"
      ],
      [
        "Ġdevelop",
        "ed"
      ],
      [
        "os",
        "ition"
      ],
      [
        "Ġpro",
        "cess"
      ],
      [
        "Ġsp",
        "ace"
      ],
      [
        "Ġrem",
        "ember"
      ],
      [
        "Ġpriest",
        "s"
      ],
      [
        "e",
        "ch"
      ],
      [
        "Ġb",
        "i"
      ],
      [
        "Ġser",
        "ved"
      ],
      [
        "Ġchampions",
        "hip"
      ],
      [
        "h",
        "y"
      ],
      [
        "l",
        "s"
      ],
      [
        "n",
        "y"
      ],
      [
        "Ġv",
        "an"
      ],
      [
        "Ġob",
        "l"
      ],
      [
        "Ġcond",
        "u"
      ],
      [
        "an",
        "ch"
      ],
      [
        "Ġsa",
        "ve"
      ],
      [
        "Ġfoot",
        "ball"
      ],
      [
        "d",
        "s"
      ],
      [
        "r",
        "ang"
      ],
      [
        "Ġas",
        "se"
      ],
      [
        "5",
        "0"
      ],
      [
        "Ġb",
        "ord"
      ],
      [
        "is",
        "a"
      ],
      [
        "Ġl",
        "ie"
      ],
      [
        "ad",
        "ed"
      ],
      [
        "Ġme",
        "ans"
      ],
      [
        "Ġim",
        "m"
      ],
      [
        "Ġsat",
        "isf"
      ],
      [
        "he",
        "st"
      ],
      [
        "Ġbey",
        "ond"
      ],
      [
        "Ġo",
        "il"
      ],
      [
        "Ġc",
        "ra"
      ],
      [
        "Ġp",
        "ot"
      ],
      [
        "Ġd",
        "ut"
      ],
      [
        "Ġsa",
        "fe"
      ],
      [
        "Ġent",
        "ered"
      ],
      [
        "Ġinde",
        "pend"
      ],
      [
        "Ġpr",
        "act"
      ],
      [
        "Ġm",
        "ach"
      ],
      [
        "Ġh",
        "om"
      ],
      [
        "Ġr",
        "ange"
      ],
      [
        "Ġex",
        "cept"
      ],
      [
        "wh",
        "y"
      ],
      [
        "Ġpra",
        "ise"
      ],
      [
        "en",
        "ess"
      ],
      [
        "en",
        "ces"
      ],
      [
        "Ġp",
        "red"
      ],
      [
        "Ġre",
        "pe"
      ],
      [
        "Ġv",
        "es"
      ],
      [
        "Ġhar",
        "riet"
      ],
      [
        "Ġsur",
        "v"
      ],
      [
        "t",
        "w"
      ],
      [
        "Ġgreat",
        "er"
      ],
      [
        "Ġm",
        "al"
      ],
      [
        "Ġcr",
        "ow"
      ],
      [
        "Ġgener",
        "ally"
      ],
      [
        "Ġcirc",
        "um"
      ],
      [
        "g",
        "od"
      ],
      [
        "j",
        "ust"
      ],
      [
        "Ġt",
        "ar"
      ],
      [
        "Ġm",
        "art"
      ],
      [
        "it",
        "ation"
      ],
      [
        "Ġp",
        "eter"
      ],
      [
        "il",
        "s"
      ],
      [
        "ive",
        "red"
      ],
      [
        "Ġturn",
        "bull"
      ],
      [
        "Ġcharac",
        "ters"
      ],
      [
        "Ġorigin",
        "ally"
      ],
      [
        "Ġaustral",
        "ia"
      ],
      [
        "Ġsoci",
        "ety"
      ],
      [
        "Ġpart",
        "s"
      ],
      [
        "it",
        "or"
      ],
      [
        "Ġp",
        "u"
      ],
      [
        "Ġsa",
        "ul"
      ],
      [
        "Ġfo",
        "od"
      ],
      [
        "Ġcar",
        "ry"
      ],
      [
        "Ġwind",
        "s"
      ],
      [
        "ere",
        "r"
      ],
      [
        "Ġf",
        "er"
      ],
      [
        "Ġl",
        "u"
      ],
      [
        "al",
        "y"
      ],
      [
        "st",
        "e"
      ],
      [
        "ri",
        "a"
      ],
      [
        "Ġse",
        "x"
      ],
      [
        "Ġfl",
        "ight"
      ],
      [
        "iz",
        "ation"
      ],
      [
        "bo",
        "ard"
      ],
      [
        "Ġvill",
        "age"
      ],
      [
        "Ġd",
        "er"
      ],
      [
        "ag",
        "ement"
      ],
      [
        "Ġsy",
        "me"
      ],
      [
        "i",
        "res"
      ],
      [
        "Ã",
        "Ń"
      ],
      [
        "Ġb",
        "it"
      ],
      [
        "Ġm",
        "ention"
      ],
      [
        "Ġu",
        "nd"
      ],
      [
        "Ġse",
        "as"
      ],
      [
        "reg",
        "ation"
      ],
      [
        "a",
        "e"
      ],
      [
        "Ġsp",
        "read"
      ],
      [
        "Ġcr",
        "own"
      ],
      [
        "Ġb",
        "ank"
      ],
      [
        "Ġe",
        "ld"
      ],
      [
        "Ġout",
        "side"
      ],
      [
        "Ġtou",
        "ch"
      ],
      [
        "Ġjac",
        "ob"
      ],
      [
        "n",
        "el"
      ],
      [
        "r",
        "ation"
      ],
      [
        "wh",
        "ile"
      ],
      [
        "Ġn",
        "ine"
      ],
      [
        "Ġne",
        "cess"
      ],
      [
        "Ġwhe",
        "el"
      ],
      [
        "Ġare",
        "as"
      ],
      [
        "t",
        "han"
      ],
      [
        "Ġha",
        "ue"
      ],
      [
        "pe",
        "cially"
      ],
      [
        "un",
        "k"
      ],
      [
        "v",
        "an"
      ],
      [
        "Ġn",
        "on"
      ],
      [
        "ot",
        "ed"
      ],
      [
        "Ġr",
        "ail"
      ],
      [
        "Ġme",
        "re"
      ],
      [
        "iv",
        "al"
      ],
      [
        "Ġplay",
        "ing"
      ],
      [
        "Ġtrad",
        "ition"
      ],
      [
        "b",
        "ack"
      ],
      [
        "Ġweek",
        "s"
      ],
      [
        "Ġcamp",
        "a"
      ],
      [
        "Ġn",
        "ames"
      ],
      [
        "Ġj",
        "os"
      ],
      [
        "be",
        "red"
      ],
      [
        "Ġparticular",
        "ly"
      ],
      [
        "c",
        "us"
      ],
      [
        "Ġg",
        "lo"
      ],
      [
        "Ġsc",
        "ri"
      ],
      [
        "Ġmic",
        "ha"
      ],
      [
        "Ġme",
        "ant"
      ],
      [
        "Ġmight",
        "y"
      ],
      [
        "Ġd",
        "omin"
      ],
      [
        "Ġun",
        "cle"
      ],
      [
        "Ġstand",
        "ing"
      ],
      [
        "Ġdeter",
        "m"
      ]
    ]
  }
}